<unk>	0
<pad>	0
<s>	0
</s>	0
니다	-0
▁그	-1
▁있	-2
▁이	-3
습니다	-4
▁나	-5
▁사	-6
▁수	-7
어요	-8
▁가	-9
▁당	-10
▁것	-11
▁나는	-12
▁우	-13
▁당신	-14
▁내	-15
▁아	-16
▁우리	-17
에서	-18
▁저	-19
▁보	-20
으로	-21
▁하	-22
▁다	-23
입니다	-24
합니다	-25
▁주	-26
▁오	-27
▁대	-28
▁일	-29
▁어	-30
▁해	-31
▁제	-32
▁시	-33
▁저는	-34
▁지	-35
▁좋	-36
▁한	-37
▁기	-38
▁않	-39
▁때	-40
하는	-41
▁여	-42
▁생	-43
에게	-44
▁너	-45
▁거	-46
▁자	-47
하고	-48
▁있습니다	-49
▁없	-50
▁만	-51
▁전	-52
에요	-53
세요	-54
▁정	-55
▁내가	-56
▁많	-57
▁같	-58
▁바	-59
▁부	-60
▁모	-61
▁마	-62
▁싶	-63
▁우리는	-64
▁위	-65
▁되	-66
▁사람	-67
▁알	-68
▁인	-69
이에요	-70
▁영	-71
▁있는	-72
▁중	-73
해요	-74
▁말	-75
▁1	-76
▁생각	-77
▁안	-78
▁공	-79
▁고	-80
▁잘	-81
▁오늘	-82
나요	-83
▁더	-84
▁도	-85
해서	-86
▁할	-87
▁당신이	-88
했어요	-89
▁친	-90
▁상	-91
▁비	-92
▁문	-93
▁연	-94
▁예	-95
하지	-96
▁방	-97
▁소	-98
▁그녀	-99
▁요	-100
▁미	-101
▁때문	-102
들이	-103
니까	-104
▁당신은	-105
다고	-106
▁스	-107
들은	-108
▁받	-109
▁있어요	-110
▁2	-111
▁선	-112
▁무	-113
▁경	-114
었습니다	-115
▁관	-116
▁좋아	-117
▁있어	-118
▁서	-119
▁친구	-120
▁한국	-121
했습니다	-122
▁들	-123
▁못	-124
하게	-125
▁합니다	-126
▁동	-127
▁보내	-128
▁유	-129
▁계	-130
▁매	-131
▁먹	-132
▁발	-133
▁배	-134
▁네	-135
▁조	-136
에는	-137
▁원	-138
다면	-139
지만	-140
▁그는	-141
겠습니다	-142
▁시간	-143
▁필	-144
▁세	-145
▁남	-146
▁집	-147
으면	-148
▁건	-149
▁확	-150
까지	-151
아요	-152
▁사용	-153
▁학	-154
▁결	-155
리고	-156
▁진	-157
▁구	-158
▁당신의	-159
▁해요	-160
▁제품	-161
하여	-162
▁번	-163
하면	-164
라고	-165
하기	-166
▁물	-167
▁게	-168
▁신	-169
▁많이	-170
▁개	-171
▁왜	-172
▁의	-173
▁회	-174
▁것이	-175
▁많은	-176
적인	-177
▁감	-178
▁통	-179
▁후	-180
▁필요	-181
다는	-182
▁난	-183
부터	-184
▁그것	-185
▁하는	-186
▁노	-187
▁작	-188
▁음	-189
▁이것	-190
▁것을	-191
▁또	-192
▁적	-193
기를	-194
▁너무	-195
▁3	-196
▁재	-197
▁가지	-198
▁위해	-199
▁장	-200
▁것입니다	-201
▁행	-202
▁성	-203
▁확인	-204
▁다른	-205
▁두	-206
예요	-207
▁불	-208
▁때문에	-209
▁살	-210
▁함	-211
▁입	-212
▁날	-213
었어요	-214
▁가장	-215
▁언	-216
▁지금	-217
▁추	-218
들을	-219
▁사진	-220
▁실	-221
▁그녀는	-222
요일	-223
▁메	-224
▁그리고	-225
▁교	-226
▁다음	-227
▁드	-228
▁가능	-229
▁좋은	-230
▁우리가	-231
▁반	-232
▁함께	-233
주세요	-234
▁문제	-235
는데	-236
▁알려	-237
▁다시	-238
적으로	-239
▁하고	-240
▁대한	-241
▁따	-242
▁줄	-243
가요	-244
▁있을	-245
▁네가	-246
됩니다	-247
▁그래	-248
▁새	-249
▁운	-250
▁아니	-251
▁열	-252
▁차	-253
해야	-254
▁아이	-255
▁최	-256
▁파	-257
▁정말	-258
▁걸	-259
▁이번	-260
▁영어	-261
▁설	-262
▁만들	-263
▁피	-264
▁직	-265
▁분	-266
▁나의	-267
까요	-268
▁올	-269
▁달	-270
▁프	-271
립니다	-272
▁여행	-273
▁외	-274
▁얼	-275
▁갈	-276
▁준	-277
▁영화	-278
도록	-279
▁등	-280
▁사랑	-281
▁좀	-282
▁단	-283
▁될	-284
었어	-285
▁대해	-286
▁어떻	-287
▁내일	-288
▁여기	-289
▁포	-290
▁화	-291
▁회사	-292
습니까	-293
▁거예요	-294
라는	-295
▁어떻게	-296
▁강	-297
▁들어	-298
▁누	-299
▁과	-300
▁찾	-301
▁그러	-302
▁음식	-303
▁느	-304
▁같아	-305
▁참	-306
▁점	-307
네요	-308
랍니다	-309
▁맞	-310
▁변	-311
▁있나요	-312
▁했	-313
▁편	-314
보다	-315
▁책	-316
▁출	-317
▁마음	-318
▁같이	-319
▁타	-320
▁진행	-321
▁항	-322
▁것이에요	-323
▁바랍니다	-324
00	-325
▁않았	-326
▁싶습니다	-327
▁것은	-328
▁현	-329
▁어떤	-330
▁거야	-331
▁모든	-332
▁여자	-333
▁연락	-334
▁제가	-335
▁데	-336
▁힘	-337
들의	-338
▁5	-339
▁카	-340
▁주세요	-341
▁언제	-342
▁그래서	-343
▁곳	-344
▁보고	-345
▁목	-346
어서	-347
려고	-348
▁버	-349
▁공부	-350
▁약	-351
▁간	-352
▁이것은	-353
렇게	-354
▁같은	-355
▁즐	-356
▁이유	-357
▁요청	-358
▁금	-359
▁처	-360
▁돌	-361
지를	-362
▁또한	-363
▁부탁	-364
▁사람이	-365
▁남자	-366
▁했어요	-367
들과	-368
▁앞	-369
▁자신	-370
게요	-371
▁시작	-372
▁행복	-373
▁4	-374
▁여러	-375
▁그들은	-376
▁오늘은	-377
▁만약	-378
▁무엇	-379
▁만나	-380
▁나에게	-381
▁학교	-382
▁표	-383
▁A	-384
스트	-385
▁싶어요	-386
▁가족	-387
▁몇	-388
▁모두	-389
▁준비	-390
▁주문	-391
한테	-392
▁수업	-393
▁호	-394
▁갔	-395
이트	-396
▁돈	-397
▁알고	-398
▁끝	-399
▁하나	-400
▁매우	-401
스를	-402
▁일을	-403
▁식	-404
▁당신에게	-405
겠어요	-406
▁본	-407
▁같아요	-408
▁맛	-409
리를	-410
▁온	-411
▁된	-412
▁명	-413
▁얼마	-414
▁업	-415
▁없습니다	-416
▁손	-417
시면	-418
▁감사	-419
되어	-420
▁판	-421
▁고객	-422
▁볼	-423
▁프로	-424
▁새로	-425
▁이야	-426
▁국	-427
▁큰	-428
▁완	-429
▁특	-430
▁너는	-431
드립니다	-432
▁취	-433
▁가지고	-434
▁왔	-435
▁디	-436
▁아직	-437
▁중요	-438
▁됩니다	-439
이나	-440
▁그런	-441
▁이용	-442
처럼	-443
▁귀	-444
는지	-445
▁전화	-446
▁싶어	-447
▁일이	-448
▁잠	-449
▁시간이	-450
▁와	-451
▁환	-452
▁따라	-453
▁종	-454
▁어제	-455
▁방법	-456
하세요	-457
▁리	-458
▁노력	-459
았습니다	-460
▁이제	-461
일을	-462
▁가격	-463
▁정도	-464
▁치	-465
▁검	-466
▁어디	-467
▁도착	-468
기가	-469
▁근	-470
지는	-471
▁역	-472
들에게	-473
▁쓰	-474
▁당신을	-475
이야	-476
▁있다	-477
▁예정	-478
▁너의	-479
▁통해	-480
▁눈	-481
▁전에	-482
▁이해	-483
▁엄	-484
▁크	-485
리는	-486
면서	-487
학교	-488
▁내용	-489
▁않아	-490
에도	-491
▁아래	-492
해주	-493
▁돼	-494
▁체	-495
▁놀	-496
▁항상	-497
▁집에	-498
▁해야	-499
▁빨	-500
하겠습니다	-501
▁그것은	-502
였습니다	-503
▁요즘	-504
▁초	-505
▁10	-506
▁활	-507
▁경우	-508
▁먼	-509
▁양	-510
정을	-511
▁길	-512
▁우리의	-513
▁속	-514
에서는	-515
▁에	-516
▁모르	-517
▁답	-518
▁없어요	-519
▁커	-520
▁새로운	-521
▁동안	-522
▁꼭	-523
▁빠	-524
▁있었	-525
▁않습니다	-526
▁담	-527
이라	-528
▁20	-529
대로	-530
▁심	-531
▁부분	-532
▁꿈	-533
▁다양	-534
▁학생	-535
▁테	-536
▁없어	-537
장을	-538
요일에	-539
▁했습니다	-540
▁돌아	-541
▁조금	-542
▁월	-543
기에	-544
▁이미	-545
▁좋아하는	-546
▁기다	-547
사를	-548
이고	-549
▁않는	-550
▁보여	-551
▁먼저	-552
▁나를	-553
▁도움	-554
▁일본	-555
▁위해서	-556
▁아무	-557
▁하지	-558
▁각	-559
▁되어	-560
▁왜냐	-561
▁평	-562
▁미국	-563
▁옷	-564
▁그가	-565
▁판매	-566
▁구매	-567
▁운동	-568
▁산	-569
▁및	-570
▁샘	-571
▁싶은	-572
▁정보	-573
▁태	-574
▁아침	-575
▁있으	-576
▁이상	-577
▁않아요	-578
▁바로	-579
▁늦	-580
▁휴	-581
▁계속	-582
▁저녁	-583
▁배송	-584
▁높	-585
▁예약	-586
▁축	-587
▁혼	-588
▁샘플	-589
▁계획	-590
▁만들어	-591
▁6	-592
▁그의	-593
▁제품을	-594
▁바라	-595
▁있어서	-596
▁이름	-597
▁청	-598
▁충	-599
심히	-600
▁관련	-601
▁경험	-602
이라고	-603
일에	-604
▁처음	-605
▁번째	-606
▁토	-607
▁대해서	-608
▁없는	-609
리가	-610
▁작업	-611
▁마지	-612
▁마지막	-613
겠어	-614
되는	-615
▁그곳	-616
▁생각합니다	-617
▁다양한	-618
▁하루	-619
▁가는	-620
이는	-621
▁때문입니다	-622
▁라	-623
▁읽	-624
▁추가	-625
▁이야기	-626
▁열심히	-627
▁힘들	-628
자인	-629
▁나도	-630
▁그것을	-631
인가요	-632
▁사이	-633
▁한국에	-634
▁빨리	-635
▁김	-636
▁물건	-637
▁머	-638
▁상황	-639
인지	-640
▁미안	-641
▁밤	-642
▁엄마	-643
▁상품	-644
▁결과	-645
▁얘	-646
▁세계	-647
▁위한	-648
▁아주	-649
있는	-650
▁이런	-651
▁찍	-652
▁코	-653
▁갑	-654
▁있습니까	-655
▁C	-656
▁방문	-657
▁사진을	-658
▁발생	-659
▁사실	-660
▁왜냐하면	-661
▁선택	-662
▁문제가	-663
▁이렇게	-664
▁외국	-665
하시	-666
▁시간을	-667
▁되었습니다	-668
았어요	-669
줍니다	-670
거나	-671
▁존	-672
▁이곳	-673
▁부모	-674
▁서로	-675
▁그렇	-676
▁같습니다	-677
생님	-678
▁절	-679
▁건강	-680
▁알아	-681
▁로	-682
▁궁	-683
▁소개	-684
▁호텔	-685
시에	-686
▁않고	-687
▁제공	-688
▁있었습니다	-689
▁가능한	-690
▁복	-691
▁모습	-692
▁선생님	-693
▁괜	-694
▁뭐	-695
▁서울	-696
▁생각해요	-697
기로	-698
▁앞으로	-699
▁순	-700
인이	-701
▁나라	-702
▁받아	-703
▁애	-704
▁이러	-705
▁B	-706
▁채	-707
▁게임	-708
▁합	-709
▁봐	-710
▁디자인	-711
▁때문이에요	-712
▁용	-713
▁필요한	-714
기는	-715
리겠습니다	-716
▁S	-717
상을	-718
▁괜찮	-719
▁독	-720
▁봤	-721
▁서비	-722
▁병	-723
▁몸	-724
▁변경	-725
▁잡	-726
▁관심	-727
▁겁	-728
정이	-729
었다	-730
▁결혼	-731
▁배우	-732
▁박	-733
화를	-734
▁그렇게	-735
페이	-736
▁그러나	-737
▁걱	-738
▁아름	-739
▁부탁드립니다	-740
▁노래	-741
▁당신과	-742
▁갖	-743
▁해결	-744
▁사람들이	-745
▁7	-746
▁후에	-747
▁주시	-748
▁직접	-749
▁알려주	-750
해주세요	-751
▁뒤	-752
▁기억	-753
▁현재	-754
그램	-755
▁넣	-756
▁도와	-757
▁색	-758
▁일어	-759
▁몰	-760
▁말을	-761
▁인터	-762
▁이러한	-763
▁싫	-764
▁레	-765
▁얼마나	-766
▁있으면	-767
▁설명	-768
전에	-769
식을	-770
▁기분	-771
▁믿	-772
▁누구	-773
▁않을	-774
▁브	-775
▁궁금	-776
▁되는	-777
▁형	-778
서를	-779
▁해서	-780
▁시험	-781
▁키	-782
하며	-783
▁중국	-784
▁돈을	-785
▁찾아	-786
▁것으로	-787
▁그녀가	-788
▁떠	-789
자가	-790
▁대학	-791
다가	-792
장이	-793
▁여행을	-794
▁쉬	-795
▁보내주	-796
▁듣	-797
▁있고	-798
▁증	-799
기도	-800
▁승	-801
▁잘못	-802
▁그럼	-803
▁저희	-804
▁삶	-805
하지만	-806
▁아니라	-807
물을	-808
이가	-809
▁이유는	-810
▁글	-811
가는	-812
▁재미	-813
지가	-814
▁비용	-815
▁유명	-816
이를	-817
▁친구가	-818
하였습니다	-819
▁얻	-820
▁가서	-821
▁이건	-822
▁벌	-823
▁나와	-824
▁송	-825
▁그녀의	-826
▁사람은	-827
트를	-828
▁부모님	-829
▁않은	-830
▁별	-831
사가	-832
▁음악	-833
▁8	-834
▁우리에게	-835
▁어느	-836
▁베	-837
▁쉽	-838
▁첨	-839
▁그냥	-840
▁멋	-841
자를	-842
▁제일	-843
▁술	-844
▁한국에서	-845
되었습니다	-846
▁생활	-847
▁서류	-848
▁이메	-849
▁혼자	-850
▁자주	-851
▁중에	-852
어를	-853
▁광	-854
▁접	-855
성을	-856
▁수도	-857
▁야	-858
▁매일	-859
▁사회	-860
인을	-861
▁질	-862
▁오래	-863
▁죽	-864
▁먹고	-865
셔서	-866
케이	-867
▁너에게	-868
▁가고	-869
▁은	-870
▁너희	-871
▁있도록	-872
시간	-873
▁패	-874
▁효	-875
력을	-876
▁9	-877
▁첫	-878
라도	-879
보고	-880
▁영어를	-881
▁깨	-882
▁아닌	-883
▁아마	-884
▁프로그램	-885
▁기회	-886
▁중요한	-887
▁P	-888
▁받을	-889
▁어려	-890
▁있는지	-891
▁하겠습니다	-892
▁창	-893
▁비행	-894
▁되고	-895
▁걱정	-896
▁무슨	-897
입니까	-898
▁그림	-899
▁첨부	-900
▁팀	-901
드를	-902
▁없이	-903
▁숙	-904
▁행동	-905
▁겁니다	-906
▁음식을	-907
▁향	-908
▁'	-909
▁하면	-910
시다	-911
▁한번	-912
인데	-913
▁메일	-914
▁활동	-915
장에	-916
▁표현	-917
리에	-918
▁계약	-919
▁보냈	-920
▁우선	-921
워요	-922
▁생산	-923
▁수정	-924
▁자기	-925
▁얘기	-926
▁면	-927
시오	-928
▁약속	-929
▁있을까요	-930
▁포함	-931
하신	-932
▁지내	-933
▁책을	-934
장에서	-935
▁사람들은	-936
▁알려주세요	-937
▁의미	-938
▁예정입니다	-939
▁원하는	-940
원이	-941
▁가져	-942
마다	-943
▁말씀	-944
▁인천	-945
적이	-946
000	-947
했던	-948
▁M	-949
되지	-950
밖에	-951
소를	-952
▁개발	-953
▁있다면	-954
부분	-955
▁적이	-956
▁지난	-957
▁아름다	-958
가지	-959
▁너를	-960
▁오후	-961
▁이루	-962
▁즐거	-963
▁넘	-964
▁있다고	-965
했어	-966
▁답변	-967
십시오	-968
▁협	-969
았어	-970
▁나오	-971
하다고	-972
▁T	-973
▁투	-974
력이	-975
제를	-976
▁사업	-977
▁수가	-978
▁그런데	-979
▁줘	-980
료를	-981
▁정확	-982
▁전달	-983
중에	-984
▁연구	-985
▁있게	-986
▁지원	-987
▁밥	-988
▁삼	-989
치를	-990
▁사항	-991
▁교육	-992
▁생각해	-993
▁여러분	-994
▁떨	-995
▁둘	-996
▁집에서	-997
▁기대	-998
▁개인	-999
▁해주	-1000
▁영화를	-1001
아서	-1002
▁부족	-1003
▁추천	-1004
▁사람을	-1005
려면	-1006
▁문화	-1007
▁여름	-1008
사의	-1009
원에	-1010
하면서	-1011
스러	-1012
▁잊	-1013
▁201	-1014
▁법	-1015
▁먹을	-1016
이라는	-1017
▁서비스	-1018
으며	-1019
▁필요합니다	-1020
▁늘	-1021
▁문의	-1022
▁클	-1023
머니	-1024
▁메시	-1025
▁선적	-1026
하려고	-1027
품을	-1028
▁상태	-1029
드는	-1030
레이	-1031
이기	-1032
▁인터넷	-1033
▁발송	-1034
한다면	-1035
▁됐	-1036
해도	-1037
동안	-1038
어야	-1039
▁건가요	-1040
▁되었	-1041
▁핸	-1042
지고	-1043
▁기술	-1044
▁무엇을	-1045
▁컴	-1046
▁12	-1047
▁하나요	-1048
므로	-1049
▁이후	-1050
▁딸	-1051
▁옆	-1052
수를	-1053
▁타고	-1054
▁가게	-1055
▁수업을	-1056
▁여기서	-1057
성이	-1058
▁날씨	-1059
▁겨	-1060
▁살아	-1061
▁오랜	-1062
▁적용	-1063
▁영향	-1064
▁업무	-1065
▁일찍	-1066
▁페이	-1067
▁인해	-1068
▁30	-1069
▁도움이	-1070
▁견	-1071
▁쇼	-1072
▁더욱	-1073
▁자신의	-1074
▁D	-1075
▁최고	-1076
▁거에요	-1077
▁이것을	-1078
▁자동	-1079
▁그들이	-1080
▁놓	-1081
▁수량	-1082
군요	-1083
지도	-1084
▁인생	-1085
▁성공	-1086
감을	-1087
되고	-1088
선을	-1089
이터	-1090
▁완료	-1091
▁테스트	-1092
시는	-1093
▁피부	-1094
가를	-1095
일이	-1096
▁기능	-1097
▁스트	-1098
▁팔	-1099
▁좋아요	-1100
스로	-1101
▁요리	-1102
▁좋을	-1103
▁가야	-1104
▁그때	-1105
▁제품은	-1106
▁허	-1107
▁돼요	-1108
▁선물	-1109
▁가까	-1110
▁특별	-1111
▁좋겠어요	-1112
▁규	-1113
▁안에	-1114
▁주는	-1115
▁핸드	-1116
▁웃	-1117
▁것에	-1118
▁직업	-1119
,000	-1120
▁저에게	-1121
▁좋아해요	-1122
▁막	-1123
▁물어	-1124
▁주말	-1125
▁가능합니다	-1126
자의	-1127
▁번호	-1128
▁얼굴	-1129
▁곧	-1130
랜드	-1131
▁살고	-1132
▁되면	-1133
▁제작	-1134
▁금액	-1135
▁만날	-1136
데요	-1137
▁슬	-1138
▁일정	-1139
▁한국의	-1140
등학교	-1141
▁관계	-1142
▁다니	-1143
▁모델	-1144
▁홍	-1145
▁참여	-1146
▁공부를	-1147
▁대부분	-1148
▁마음을	-1149
▁있다는	-1150
▁감사합니다	-1151
친구	-1152
▁번역	-1153
▁보면	-1154
▁골	-1155
▁빌	-1156
었던	-1157
▁가르	-1158
▁자세	-1159
리핀	-1160
▁I	-1161
▁받고	-1162
▁스타	-1163
점을	-1164
▁자연	-1165
▁응	-1166
▁떨어	-1167
년에	-1168
하도록	-1169
▁우리나	-1170
▁필리핀	-1171
▁학교에	-1172
▁깊	-1173
▁임	-1174
▁능	-1175
▁말고	-1176
▁백	-1177
▁캐	-1178
사에	-1179
으니	-1180
▁와서	-1181
▁인간	-1182
▁기분이	-1183
▁되나요	-1184
▁않았습니다	-1185
겠다	-1186
래요	-1187
스가	-1188
퓨터	-1189
▁근처	-1190
▁지역	-1191
▁도시	-1192
▁컴퓨터	-1193
▁결정	-1194
▁커피	-1195
▁품	-1196
▁보낼	-1197
▁정보를	-1198
▁친구들과	-1199
금을	-1200
▁공항	-1201
▁끝나	-1202
▁안전	-1203
▁있기	-1204
▁겨울	-1205
리지	-1206
▁꿈을	-1207
해보	-1208
▁충분	-1209
▁대화	-1210
▁좋겠어	-1211
자는	-1212
▁낮	-1213
▁목표	-1214
▁하기	-1215
에서도	-1216
▁핸드폰	-1217
드리겠습니다	-1218
▁착	-1219
▁작은	-1220
▁주에	-1221
▁나한테	-1222
졌습니다	-1223
원을	-1224
▁뉴	-1225
▁컨	-1226
▁고마	-1227
▁아파	-1228
▁케이	-1229
릅니다	-1230
▁있었어요	-1231
▁잔	-1232
▁죄	-1233
시고	-1234
▁될까요	-1235
▁천	-1236
▁풀	-1237
스템	-1238
▁담당	-1239
▁사는	-1240
리스	-1241
사는	-1242
▁다녀	-1243
▁미래	-1244
▁긴	-1245
도를	-1246
스럽	-1247
시기	-1248
월에	-1249
▁발표	-1250
▁마음이	-1251
▁트	-1252
되었	-1253
▁스케	-1254
▁옷을	-1255
치는	-1256
상이	-1257
전히	-1258
▁책임	-1259
하였	-1260
▁보이	-1261
▁메일을	-1262
▁것도	-1263
▁그를	-1264
▁싫어	-1265
▁은행	-1266
▁이거	-1267
▁먹는	-1268
▁외국인	-1269
번호	-1270
▁느끼	-1271
▁유명한	-1272
▁재미있	-1273
▁어린	-1274
▁희	-1275
어가	-1276
▁생각을	-1277
▁설치	-1278
▁신청	-1279
▁존재	-1280
닙니다	-1281
▁이메일	-1282
▁블	-1283
▁나중에	-1284
▁일주	-1285
▁티	-1286
대한	-1287
마트	-1288
▁되지	-1289
▁환경	-1290
▁사용할	-1291
스는	-1292
▁때는	-1293
▁따라서	-1294
▁일어나	-1295
▁마지막으로	-1296
르게	-1297
▁결제	-1298
▁보는	-1299
▁피곤	-1300
▁꽃	-1301
▁그건	-1302
▁체크	-1303
▁그들의	-1304
▁풍	-1305
했을	-1306
▁너와	-1307
▁올해	-1308
▁프로젝	-1309
주는	-1310
▁지나	-1311
▁좋아합니다	-1312
▁졸	-1313
들도	-1314
▁솔	-1315
▁취소	-1316
▁씨	-1317
▁운전	-1318
▁기간	-1319
▁마세요	-1320
▁군	-1321
▁보통	-1322
▁사고	-1323
▁아버	-1324
▁요구	-1325
▁시스템	-1326
려요	-1327
▁관리	-1328
▁쉽게	-1329
▁장소	-1330
집니다	-1331
▁11	-1332
▁말해	-1333
▁좋습니다	-1334
▁뿐	-1335
▁등을	-1336
▁만든	-1337
▁주고	-1338
▁이야기를	-1339
▁받았습니다	-1340
▁가면	-1341
▁보낸	-1342
▁자유	-1343
▁싸	-1344
시아	-1345
장은	-1346
▁등록	-1347
▁도움을	-1348
▁급	-1349
▁넌	-1350
▁대신	-1351
▁지불	-1352
▁그것이	-1353
▁필요해요	-1354
▁거의	-1355
▁효과	-1356
▁권	-1357
▁스트레	-1358
▁친구와	-1359
▁왕	-1360
▁가방	-1361
▁없을	-1362
▁민	-1363
▁플	-1364
가가	-1365
▁교수	-1366
▁있는데	-1367
겠습니까	-1368
▁공간	-1369
▁어렵	-1370
▁저의	-1371
▁꾸	-1372
▁맡	-1373
점이	-1374
▁종류	-1375
로부터	-1376
▁발전	-1377
▁헤	-1378
리아	-1379
▁물건을	-1380
▁E	-1381
▁총	-1382
스에	-1383
▁성격	-1384
▁주변	-1385
▁잃	-1386
▁누군	-1387
▁느낌	-1388
▁대표	-1389
▁또는	-1390
▁갑니다	-1391
▁우리나라	-1392
지에	-1393
▁북	-1394
▁관광	-1395
▁동물	-1396
▁있지	-1397
렸습니다	-1398
함을	-1399
▁맛있는	-1400
▁생각이	-1401
▁친구를	-1402
▁혹	-1403
▁의견	-1404
▁제안	-1405
▁검토	-1406
▁만났	-1407
▁아빠	-1408
▁연결	-1409
자기	-1410
▁높은	-1411
든지	-1412
▁따뜻	-1413
▁뜻	-1414
하길	-1415
▁맛있	-1416
▁쇼핑	-1417
▁침	-1418
▁대학교	-1419
▁아닙니다	-1420
▁광고	-1421
▁카메	-1422
▁점심	-1423
였어요	-1424
▁아름다운	-1425
▁세상	-1426
▁전문	-1427
▁문제를	-1428
▁받은	-1429
▁운영	-1430
▁파티	-1431
▁거기	-1432
▁기존	-1433
▁처리	-1434
정적인	-1435
▁스마트	-1436
했고	-1437
▁100	-1438
▁울	-1439
▁불가	-1440
▁널	-1441
이어	-1442
▁가끔	-1443
만에	-1444
▁거래	-1445
▁실제	-1446
▁사이즈	-1447
▁드립니다	-1448
▁흥	-1449
▁사무	-1450
▁화장	-1451
냅니다	-1452
▁쪽	-1453
▁부산	-1454
▁월요일	-1455
▁만족	-1456
▁위에	-1457
▁원합니다	-1458
음을	-1459
▁즐겁	-1460
▁논	-1461
의를	-1462
▁19	-1463
▁다음에	-1464
▁아니면	-1465
▁L	-1466
드릴	-1467
이며	-1468
▁제출	-1469
▁관심이	-1470
▁측	-1471
▁콘	-1472
▁납	-1473
▁대로	-1474
▁받지	-1475
▁불편	-1476
▁유지	-1477
▁있지만	-1478
▁공급	-1479
▁확인해	-1480
▁남편	-1481
▁오는	-1482
▁항공	-1483
▁왔습니다	-1484
▁F	-1485
▁늦게	-1486
▁빠른	-1487
증을	-1488
▁기업	-1489
▁멋진	-1490
▁여성	-1491
▁해당	-1492
▁아침에	-1493
어도	-1494
▁기본	-1495
▁업체	-1496
▁긍	-1497
님이	-1498
▁않았어요	-1499
▁똑	-1500
▁수영	-1501
▁작성	-1502
▁방법을	-1503
▁영향을	-1504
▁좋겠습니다	-1505
▁예상	-1506
▁위험	-1507
▁죄송	-1508
▁들어가	-1509
▁중입니다	-1510
▁강아	-1511
▁갖고	-1512
▁고민	-1513
▁소중	-1514
▁그만	-1515
▁나가	-1516
▁많아	-1517
▁알게	-1518
▁모습을	-1519
▁않으면	-1520
▁써	-1521
▁공유	-1522
▁자동차	-1523
▁범	-1524
▁붙	-1525
▁내용을	-1526
어나	-1527
▁우린	-1528
개의	-1529
수가	-1530
▁드라	-1531
▁전통	-1532
▁집중	-1533
▁농	-1534
▁생겼	-1535
▁일은	-1536
▁봉	-1537
▁15	-1538
▁경제	-1539
▁몰라	-1540
▁환불	-1541
개월	-1542
라인	-1543
▁견적	-1544
▁연습	-1545
▁없어서	-1546
서는	-1547
▁경기	-1548
▁지급	-1549
겠지만	-1550
▁스케줄	-1551
▁사용하는	-1552
▁나타	-1553
테이	-1554
▁관한	-1555
▁메뉴	-1556
▁일반	-1557
▁제품이	-1558
▁이번에	-1559
도가	-1560
▁졸업	-1561
▁이루어	-1562
▁밀	-1563
치가	-1564
▁받았	-1565
▁입고	-1566
▁주소	-1567
었는데	-1568
할게요	-1569
▁고등학교	-1570
▁굉	-1571
▁느껴	-1572
▁추억	-1573
▁해도	-1574
▁왔어요	-1575
▁줍니다	-1576
거든	-1577
하러	-1578
▁굉장	-1579
▁말이	-1580
▁카메라	-1581
▁많습니다	-1582
트에	-1583
▁날짜	-1584
▁변화	-1585
▁그에게	-1586
▁제품의	-1587
식이	-1588
▁극	-1589
스크	-1590
▁비가	-1591
▁생일	-1592
▁청소	-1593
▁여기에	-1594
▁자신이	-1595
▁뛰	-1596
지지	-1597
▁전체	-1598
▁연락을	-1599
▁이것이	-1600
로는	-1601
주의	-1602
▁그리	-1603
▁기준	-1604
▁진짜	-1605
▁덕	-1606
구를	-1607
▁만큼	-1608
▁안녕	-1609
▁질문	-1610
▁직원	-1611
▁오랜만에	-1612
물이	-1613
▁미팅	-1614
▁순간	-1615
▁어때	-1616
했는데	-1617
▁원해요	-1618
보이	-1619
없이	-1620
▁가진	-1621
▁원래	-1622
하나요	-1623
하다면	-1624
▁바라요	-1625
▁사이트	-1626
▁있었어	-1627
▁잠을	-1628
▁해외	-1629
한다고	-1630
▁갑자기	-1631
▁그래도	-1632
▁앉	-1633
분에	-1634
▁마치	-1635
▁참고	-1636
왔습니다	-1637
▁그게	-1638
▁상대	-1639
▁식당	-1640
▁사람의	-1641
비를	-1642
원에서	-1643
▁사무실	-1644
▁미리	-1645
이었어요	-1646
er	-1647
하니	-1648
▁공연	-1649
▁물론	-1650
졌어요	-1651
▁마음에	-1652
▁G	-1653
▁바다	-1654
▁좋지	-1655
▁지하	-1656
▁만드는	-1657
▁눈이	-1658
렸어요	-1659
스터	-1660
▁한다고	-1661
도에	-1662
▁시간에	-1663
▁특별한	-1664
▁결국	-1665
▁기계	-1666
▁비슷	-1667
▁참석	-1668
▁택	-1669
▁고양	-1670
▁국가	-1671
▁친절	-1672
합니까	-1673
▁대하여	-1674
▁데이터	-1675
디오	-1676
인은	-1677
▁간단	-1678
▁역시	-1679
▁역할	-1680
▁자료	-1681
▁운동을	-1682
▁최선을	-1683
▁앱	-1684
▁오면	-1685
▁카드	-1686
▁행복한	-1687
라면	-1688
하자	-1689
▁송금	-1690
하는데	-1691
주에	-1692
▁발견	-1693
▁갔어요	-1694
▁악	-1695
▁듣고	-1696
▁사과	-1697
▁맥	-1698
▁이동	-1699
▁전공	-1700
▁희망	-1701
▁영화는	-1702
on	-1703
▁폭	-1704
▁굉장히	-1705
▁금요일	-1706
▁구성	-1707
▁나서	-1708
▁방학	-1709
▁있니	-1710
▁아이템	-1711
▁최고의	-1712
▁익	-1713
시키	-1714
인의	-1715
▁의사	-1716
▁정리	-1717
▁즐거운	-1718
▁"	-1719
움을	-1720
하기를	-1721
▁그러면	-1722
▁영어로	-1723
▁하는데	-1724
▁탈	-1725
▁사랑하는	-1726
▁멀	-1727
달러	-1728
▁과정	-1729
▁누가	-1730
▁재밌	-1731
▁차를	-1732
▁것처럼	-1733
▁아래와	-1734
▁일정을	-1735
▁최대한	-1736
▁끼	-1737
▁식사	-1738
▁옆에	-1739
▁드리겠습니다	-1740
▁H	-1741
▁관해	-1742
▁오더	-1743
▁흥미	-1744
도로	-1745
려서	-1746
르는	-1747
▁떠나	-1748
데이트	-1749
▁밝	-1750
▁개의	-1751
▁내게	-1752
▁못한	-1753
▁버스	-1754
▁분석	-1755
하시면	-1756
▁인보이	-1757
▁업데이트	-1758
▁바람	-1759
▁보니	-1760
▁축제	-1761
스러운	-1762
▁된다면	-1763
▁샘플을	-1764
▁기다리고	-1765
▁욕	-1766
▁술을	-1767
▁마케	-1768
▁분야	-1769
▁출발	-1770
▁확실	-1771
▁회신	-1772
▁O	-1773
관에	-1774
▁중에서	-1775
▁중이에요	-1776
▁움	-1777
▁터	-1778
만의	-1779
워서	-1780
▁조건	-1781
▁회사에	-1782
어버	-1783
점은	-1784
▁사건	-1785
▁시에	-1786
▁어떠	-1787
▁파일	-1788
보세요	-1789
감이	-1790
생활	-1791
▁어울	-1792
▁영국	-1793
▁재고	-1794
웠습니다	-1795
▁갔습니다	-1796
▁K	-1797
어로	-1798
▁위치	-1799
동생	-1800
되면	-1801
▁주로	-1802
듭니다	-1803
▁경험을	-1804
▁일하고	-1805
▁크리스	-1806
▁샀	-1807
대에	-1808
▁드릴	-1809
▁아프	-1810
경을	-1811
면을	-1812
학년	-1813
▁엄청	-1814
▁예를	-1815
▁언제나	-1816
▁하는지	-1817
▁월요일에	-1818
▁‘	-1819
▁뭔	-1820
▁컬	-1821
셔야	-1822
줘서	-1823
▁고려	-1824
▁교환	-1825
▁선수	-1826
▁안내	-1827
▁정상	-1828
하고자	-1829
▁게임을	-1830
▁날씨가	-1831
▁때부터	-1832
▁소비	-1833
▁솔직	-1834
▁올라	-1835
▁저를	-1836
으세요	-1837
▁교수님	-1838
▁기회가	-1839
▁하지만	-1840
▁회사에서	-1841
▁철	-1842
포츠	-1843
더라도	-1844
▁위해서는	-1845
▁동일	-1846
▁일에	-1847
▁작품	-1848
▁했어	-1849
▁내부	-1850
▁정신	-1851
▁메시지를	-1852
었고	-1853
▁곳이	-1854
▁맞는	-1855
▁인형	-1856
▁짐	-1857
것도	-1858
▁포기	-1859
▁그녀를	-1860
▁여자가	-1861
▁입니다	-1862
▁주시기	-1863
▁스마트폰	-1864
▁며	-1865
드시	-1866
잖아	-1867
지의	-1868
▁부담	-1869
▁분위	-1870
▁영상	-1871
▁움직	-1872
심으로	-1873
▁마케팅	-1874
▁센	-1875
▁건물	-1876
▁고맙	-1877
▁힘든	-1878
▁불가능	-1879
▁어디에	-1880
▁통해서	-1881
▁국제	-1882
▁삶을	-1883
▁언니	-1884
▁생각하는	-1885
in	-1886
▁홈	-1887
르고	-1888
▁보러	-1889
▁크게	-1890
잖아요	-1891
▁근처에	-1892
▁남자는	-1893
▁어디서	-1894
▁있어야	-1895
▁그녀에게	-1896
▁났	-1897
다니	-1898
▁완벽	-1899
▁지켜	-1900
▁그곳에	-1901
▁반드시	-1902
▁사람들에게	-1903
▁끊	-1904
▁돈이	-1905
▁절대	-1906
으로써	-1907
▁너한테	-1908
▁오늘도	-1909
▁U	-1910
▁빈	-1911
▁가요	-1912
▁달라	-1913
▁무료	-1914
셨어요	-1915
▁아니야	-1916
▁이곳은	-1917
▁N	-1918
기의	-1919
▁길을	-1920
▁성장	-1921
▁때까지	-1922
▁보내고	-1923
▁아직도	-1924
▁집으로	-1925
기와	-1926
▁며칠	-1927
▁싶지	-1928
▁카페	-1929
▁표시	-1930
▁음악을	-1931
▁있으며	-1932
▁사람들을	-1933
워크	-1934
▁거짓	-1935
▁활용	-1936
▁브랜드	-1937
▁자신을	-1938
▁즐겁게	-1939
들에	-1940
으러	-1941
▁받는	-1942
▁일부	-1943
▁아무것도	-1944
▁빛	-1945
▁들을	-1946
▁밤에	-1947
▁별로	-1948
▁비교	-1949
▁입금	-1950
▁집을	-1951
▁최근	-1952
했지만	-1953
▁가격이	-1954
▁많아요	-1955
▁요청한	-1956
▁지하철	-1957
▁녹	-1958
▁줬	-1959
촬영	-1960
▁제외	-1961
▁가까운	-1962
▁못했어요	-1963
▁보내주세요	-1964
▁R	-1965
▁퇴	-1966
트가	-1967
▁개선	-1968
▁느낄	-1969
▁동생	-1970
▁방식	-1971
▁학교에서	-1972
사와	-1973
션을	-1974
수록	-1975
주고	-1976
▁계산	-1977
▁단지	-1978
▁먹어	-1979
사에서	-1980
▁이름은	-1981
▁그걸	-1982
▁도전	-1983
▁벌써	-1984
▁오른	-1985
▁찾고	-1986
▁없다고	-1987
▁이름을	-1988
▁못했습니다	-1989
▁틀	-1990
위를	-1991
져서	-1992
지와	-1993
▁경찰	-1994
▁나머	-1995
▁수행	-1996
▁전혀	-1997
겠다고	-1998
▁드라마	-1999
▁스스로	-2000
▁않았어	-2001
▁밖	-2002
▁각각	-2003
▁근무	-2004
▁토요일	-2005
▁지금까지	-2006
보는	-2007
▁것과	-2008
▁내려	-2009
▁느꼈	-2010
▁형태	-2011
▁가르쳐	-2012
▁사진은	-2013
▁서비스를	-2014
▁빼	-2015
▁육	-2016
▁축하	-2017
으로는	-2018
▁친구들이	-2019
량을	-2020
▁나무	-2021
▁촬영	-2022
으로부터	-2023
개를	-2024
께서	-2025
렸을	-2026
명이	-2027
학생	-2028
▁모양	-2029
▁못할	-2030
적이고	-2031
▁스포츠	-2032
▁음식은	-2033
▁전화를	-2034
▁대부분의	-2035
▁보냅니다	-2036
거야	-2037
로서	-2038
롭게	-2039
이드	-2040
학을	-2041
▁컬러	-2042
▁노래를	-2043
▁사랑을	-2044
▁서류를	-2045
▁어머니	-2046
▁일요일	-2047
▁예정이에요	-2048
▁팬	-2049
즈니	-2050
▁날이	-2051
▁회의	-2052
▁휴대	-2053
▁비행기	-2054
▁작업을	-2055
▁쓸	-2056
해줄	-2057
▁경쟁	-2058
▁보호	-2059
▁주인	-2060
▁지속	-2061
▁하게	-2062
▁기다려	-2063
▁지내고	-2064
▁했는데	-2065
▁그곳에서	-2066
▁사람에게	-2067
▁습	-2068
대를	-2069
디어	-2070
▁주실	-2071
▁가격을	-2072
▁돌아가	-2073
▁만약에	-2074
▁않아서	-2075
▁숨	-2076
나는	-2077
▁곳에	-2078
▁이게	-2079
▁출근	-2080
▁리스트	-2081
관이	-2082
▁포장	-2083
▁싱	-2084
▁웹	-2085
정한	-2086
▁똑같	-2087
▁바쁘	-2088
▁방송	-2089
▁신발	-2090
▁예술	-2091
▁일단	-2092
▁헤어	-2093
자에게	-2094
하거나	-2095
▁그날	-2096
스럽게	-2097
▁배우고	-2098
▁일하는	-2099
▁말한	-2100
▁약간	-2101
▁혹시	-2102
▁보내준	-2103
▁탄	-2104
▁국내	-2105
▁들은	-2106
▁필요가	-2107
▁넓	-2108
로운	-2109
트는	-2110
▁크리스마	-2111
▁엔	-2112
드리	-2113
았다	-2114
카오	-2115
▁나누	-2116
▁입력	-2117
▁입학	-2118
▁그동안	-2119
▁말하는	-2120
▁생각에	-2121
▁들었습니다	-2122
▁캠	-2123
이에	-2124
▁깨끗	-2125
▁장비	-2126
▁텐	-2127
관을	-2128
듯이	-2129
문을	-2130
시피	-2131
아야	-2132
▁따로	-2133
▁완성	-2134
▁이를	-2135
▁인상	-2136
▁티켓	-2137
▁방법이	-2138
▁저녁에	-2139
▁회사의	-2140
▁여자친구	-2141
▁안녕하세요	-2142
서에	-2143
하실	-2144
해를	-2145
▁방금	-2146
▁유럽	-2147
▁이걸	-2148
▁프랑	-2149
일까지	-2150
▁정확한	-2151
스토	-2152
시길	-2153
▁과거	-2154
▁넣어	-2155
▁바꾸	-2156
▁밖에	-2157
▁수입	-2158
▁싶다	-2159
▁전시	-2160
▁증가	-2161
거든요	-2162
▁보세요	-2163
계를	-2164
구나	-2165
만큼	-2166
스타	-2167
오는	-2168
▁기차	-2169
▁아는	-2170
▁오랫	-2171
▁편안	-2172
▁후회	-2173
겠네요	-2174
▁귀사의	-2175
▁덕분에	-2176
▁충분히	-2177
▁남자친구	-2178
▁보입니다	-2179
▁아니에요	-2180
▁목적	-2181
▁보기	-2182
▁분명	-2183
▁잊지	-2184
▁만들고	-2185
▁하면서	-2186
있습니다	-2187
도는	-2188
십니까	-2189
▁차이가	-2190
▁오랫동안	-2191
▁교통	-2192
▁만난	-2193
▁오전	-2194
▁이탈	-2195
▁제주	-2196
▁해줄	-2197
▁관련된	-2198
▁부분이	-2199
▁상품을	-2200
▁지금은	-2201
▁회사는	-2202
an	-2203
었을	-2204
▁나랑	-2205
▁놀러	-2206
▁보관	-2207
▁점이	-2208
▁최종	-2209
▁아래의	-2210
▁사람이에요	-2211
▁샤	-2212
하려	-2213
하다는	-2214
▁하세요	-2215
라이	-2216
심을	-2217
임을	-2218
▁말할	-2219
▁신경	-2220
▁청구	-2221
▁이유가	-2222
▁합니까	-2223
▁운송	-2224
▁자체	-2225
▁나오는	-2226
▁때마다	-2227
▁어렸을	-2228
▁제품에	-2229
여행	-2230
자와	-2231
▁기념	-2232
▁도서	-2233
옵니다	-2234
왔어요	-2235
▁결과를	-2236
▁않아도	-2237
▁제대로	-2238
▁주말에	-2239
▁친구는	-2240
▁들었어요	-2241
명을	-2242
전거	-2243
회에	-2244
▁50	-2245
▁밥을	-2246
▁자격	-2247
▁잠시	-2248
▁품질	-2249
▁그대로	-2250
▁여전히	-2251
▁그러므로	-2252
▁생각하고	-2253
▁짜	-2254
▁갔다	-2255
▁의해	-2256
▁조심	-2257
보다는	-2258
시나요	-2259
웠어요	-2260
▁액	-2261
▁독일	-2262
에서의	-2263
했으면	-2264
▁계획을	-2265
▁문제는	-2266
▁보이는	-2267
▁J	-2268
지요	-2269
▁그와	-2270
▁부드	-2271
▁왔어	-2272
었지만	-2273
▁누군가	-2274
▁퍼	-2275
장의	-2276
▁상처	-2277
▁소통	-2278
▁찾을	-2279
이지만	-2280
한다는	-2281
▁달라고	-2282
▁페이스	-2283
▁그렇다면	-2284
원은	-2285
▁바뀌	-2286
▁실수	-2287
▁쓰레	-2288
▁영업	-2289
▁이전	-2290
▁하여	-2291
▁관심을	-2292
▁답변을	-2293
▁사람들	-2294
▁있을까	-2295
▁보내주신	-2296
▁없었습니다	-2297
or	-2298
▁앞에	-2299
▁기회를	-2300
▁궁금합니다	-2301
▁부탁합니다	-2302
시를	-2303
▁내년	-2304
▁뉴욕	-2305
▁요금	-2306
▁즐길	-2307
▁찍은	-2308
이라도	-2309
▁경험이	-2310
▁만나서	-2311
▁시간은	-2312
▁여기는	-2313
▁온라인	-2314
▁모르겠어요	-2315
▁된다	-2316
▁바꿔	-2317
▁비밀	-2318
▁이벤	-2319
▁제시	-2320
▁취미	-2321
었으면	-2322
▁거짓말	-2323
▁무엇이	-2324
▁선생님이	-2325
▁해주세요	-2326
▁죄송합니다	-2327
▁망	-2328
▁쌓	-2329
▁머리	-2330
▁통화	-2331
하기로	-2332
▁선물을	-2333
▁자료를	-2334
▁할머니	-2335
▁페	-2336
였어	-2337
주를	-2338
▁너랑	-2339
갑니다	-2340
▁상황을	-2341
▁이유로	-2342
▁자전거	-2343
▁미안하지만	-2344
▁봄	-2345
기고	-2346
이랑	-2347
▁구조	-2348
▁남은	-2349
▁마을	-2350
▁에너	-2351
▁아마도	-2352
▁활동을	-2353
▁옮	-2354
만을	-2355
▁남아	-2356
▁맞춰	-2357
▁방향	-2358
▁점점	-2359
▁알려줄	-2360
▁어떠한	-2361
▁사람들의	-2362
스의	-2363
지로	-2364
▁하러	-2365
▁나머지	-2366
▁따뜻한	-2367
▁사진이	-2368
▁감동	-2369
▁검사	-2370
▁담배	-2371
▁물을	-2372
▁상관	-2373
▁주제	-2374
▁방법은	-2375
▁있으니	-2376
▁겪	-2377
▁꽤	-2378
▁기뻐	-2379
▁뛰어	-2380
▁사라	-2381
▁자고	-2382
▁미안해	-2383
▁봤어요	-2384
▁일주일	-2385
▁주문을	-2386
▁미안해요	-2387
▁가득	-2388
▁예전	-2389
▁제게	-2390
▁지키	-2391
▁빠르게	-2392
▁가족들과	-2393
▁요청합니다	-2394
부를	-2395
▁더는	-2396
▁설정	-2397
▁성적	-2398
▁못해서	-2399
났습니다	-2400
▁이탈리아	-2401
▁년	-2402
전을	-2403
하셨	-2404
▁뒤에	-2405
▁시도	-2406
▁쓰는	-2407
▁없다	-2408
▁오직	-2409
▁화가	-2410
▁가족과	-2411
▁한국인	-2412
▁페이스북	-2413
▁한국으로	-2414
▁빵	-2415
▁섬	-2416
심이	-2417
▁그거	-2418
▁나쁜	-2419
▁불량	-2420
▁오빠	-2421
▁파트	-2422
▁하며	-2423
까지는	-2424
대학교	-2425
▁고객이	-2426
▁병원에	-2427
▁어때요	-2428
▁오후에	-2429
▁우리를	-2430
▁하려고	-2431
▁긍정적인	-2432
▁이메일을	-2433
▁암	-2434
▁가기	-2435
▁무서	-2436
▁오지	-2437
▁장난	-2438
점에서	-2439
▁사람과	-2440
▁오른쪽	-2441
▁주문한	-2442
▁뿌	-2443
▁좌	-2444
번째	-2445
▁가을	-2446
▁계좌	-2447
▁와이	-2448
▁인도	-2449
▁판단	-2450
▁고마워	-2451
▁많아서	-2452
▁프로그램을	-2453
할게	-2454
▁달에	-2455
▁바이	-2456
▁손님	-2457
▁아르	-2458
▁소중한	-2459
▁솔직히	-2460
▁주시면	-2461
▁카카오	-2462
▁받았어요	-2463
▁생각했어요	-2464
▁감사하겠습니다	-2465
▁뭘	-2466
▁즉	-2467
권을	-2468
▁교체	-2469
▁수술	-2470
▁인정	-2471
▁있던	-2472
으면서	-2473
▁당신도	-2474
▁파일을	-2475
▁벗	-2476
▁챙	-2477
업을	-2478
으나	-2479
▁동의	-2480
▁때가	-2481
▁자재	-2482
▁전쟁	-2483
▁조용	-2484
▁테니	-2485
▁할인	-2486
십니다	-2487
▁곳에서	-2488
▁아이디	-2489
▁무엇인가요	-2490
▁스트레스를	-2491
▁왼	-2492
▁흔	-2493
▁18	-2494
▁다행	-2495
▁언어	-2496
▁내용은	-2497
▁스타일	-2498
▁싶은데	-2499
▁꺼	-2500
나게	-2501
만이	-2502
터를	-2503
학과	-2504
▁나아	-2505
▁쓰고	-2506
▁이는	-2507
▁적응	-2508
▁전해	-2509
▁축구	-2510
▁아름답	-2511
▁주인공	-2512
▁확인하고	-2513
▁냉	-2514
▁렌	-2515
명의	-2516
산을	-2517
소에	-2518
▁기도	-2519
▁기록	-2520
▁대단	-2521
▁대체	-2522
▁배울	-2523
▁불러	-2524
▁우유	-2525
▁편리	-2526
▁힘이	-2527
▁비용을	-2528
▁않도록	-2529
▁의견을	-2530
▁편지를	-2531
▁하나의	-2532
▁압	-2533
▁에이	-2534
▁하늘	-2535
▁남자가	-2536
▁부분을	-2537
▁행복하게	-2538
▁가능한가요	-2539
ar	-2540
▁뜨	-2541
민국	-2542
장님	-2543
▁나이	-2544
▁되기	-2545
▁이어	-2546
▁지연	-2547
▁약속을	-2548
▁완전히	-2549
▁앞으로도	-2550
▁프로젝트	-2551
▁s	-2552
책을	-2553
▁대중	-2554
▁않게	-2555
▁이에	-2556
▁했던	-2557
이트를	-2558
▁모르는	-2559
▁러	-2560
느라	-2561
이크	-2562
트남	-2563
▁갔어	-2564
▁할지	-2565
상으로	-2566
▁가능하다면	-2567
▁0	-2568
▁훌	-2569
이면	-2570
인가	-2571
▁몰랐	-2572
▁반대	-2573
▁소녀	-2574
▁현실	-2575
▁못해요	-2576
▁번째로	-2577
▁베트남	-2578
▁금요일에	-2579
▁감사드립니다	-2580
▁듯	-2581
우는	-2582
▁가정	-2583
▁꾸준	-2584
▁다르	-2585
▁실험	-2586
▁여유	-2587
▁이슈	-2588
▁인사	-2589
▁전부	-2590
▁제거	-2591
납니다	-2592
봅니다	-2593
▁얘기를	-2594
▁추가로	-2595
▁화장실	-2596
점에	-2597
줘요	-2598
▁곳은	-2599
▁글을	-2600
▁두고	-2601
▁없고	-2602
▁주지	-2603
▁하니	-2604
▁역할을	-2605
▁연락이	-2606
▁요리를	-2607
▁정도로	-2608
▁주셔서	-2609
▁걷	-2610
▁짧	-2611
▁흐	-2612
료가	-2613
사항	-2614
연히	-2615
▁명의	-2616
▁차가	-2617
되어야	-2618
스토랑	-2619
▁거기에	-2620
▁비즈니	-2621
▁어려운	-2622
▁이곳에	-2623
▁있었다	-2624
▁준비를	-2625
▁그들에게	-2626
▁대해서는	-2627
▁레스토랑	-2628
▁주십시오	-2629
▁V	-2630
상의	-2631
▁TV	-2632
▁골프	-2633
▁들고	-2634
▁생기	-2635
▁수는	-2636
▁심각	-2637
▁예쁘	-2638
▁그림을	-2639
▁수업이	-2640
▁케이크	-2641
▁사람들과	-2642
▁주면	-2643
▁주의	-2644
▁대화를	-2645
▁음식이	-2646
▁대한민국	-2647
▁모르겠어	-2648
▁일주일에	-2649
▁좋아하지	-2650
▁c	-2651
▁워	-2652
▁춤	-2653
거리	-2654
졌어	-2655
▁목소	-2656
▁손을	-2657
▁신뢰	-2658
▁이사	-2659
▁체험	-2660
▁200	-2661
▁가격은	-2662
▁만나는	-2663
▁모습이	-2664
▁없나요	-2665
▁인터뷰	-2666
▁자세한	-2667
▁저희가	-2668
▁필리핀에	-2669
▁벽	-2670
▁폐	-2671
라서	-2672
스와	-2673
▁다가	-2674
▁주신	-2675
▁그것에	-2676
▁만나고	-2677
▁일요일에	-2678
▁냄	-2679
▁짓	-2680
가고	-2681
년이	-2682
▁몸이	-2683
▁자리	-2684
▁예전에	-2685
▁위하여	-2686
▁이유를	-2687
▁것이라고	-2688
▁되었어요	-2689
▁사용하지	-2690
▁진심으로	-2691
at	-2692
고를	-2693
▁그중	-2694
▁너도	-2695
▁동영	-2696
▁아내	-2697
▁참가	-2698
▁최소	-2699
시겠어요	-2700
▁닭	-2701
증이	-2702
▁부품	-2703
▁주차	-2704
▁치킨	-2705
▁태어	-2706
됩니까	-2707
▁됐어요	-2708
▁보내줄	-2709
▁한다는	-2710
▁핸드폰을	-2711
▁W	-2712
리기	-2713
▁40	-2714
▁경영	-2715
▁끝내	-2716
▁단순	-2717
▁상상	-2718
▁생겨	-2719
▁언젠	-2720
▁자랑	-2721
▁제조	-2722
▁좋았	-2723
▁특히	-2724
▁훌륭	-2725
번호를	-2726
▁그녀와	-2727
▁내용이	-2728
▁도와주	-2729
▁실제로	-2730
▁주소를	-2731
제가	-2732
지게	-2733
▁동아	-2734
▁시절	-2735
▁실패	-2736
▁정부	-2737
▁존경	-2738
▁포인	-2739
하시는	-2740
▁끝나고	-2741
▁시험을	-2742
▁있었던	-2743
▁생각하지	-2744
▁없었어요	-2745
▁염	-2746
▁옛	-2747
번에	-2748
여서	-2749
자에	-2750
▁등의	-2751
▁봉사	-2752
▁못하는	-2753
리의	-2754
이니	-2755
치고	-2756
▁곳을	-2757
▁매력	-2758
▁영원	-2759
▁장면	-2760
신가요	-2761
장으로	-2762
▁보내는	-2763
▁않는다	-2764
▁어린이	-2765
▁엄마가	-2766
▁잘못된	-2767
▁종류의	-2768
ol	-2769
수욕	-2770
회를	-2771
▁가치	-2772
▁말은	-2773
▁맛이	-2774
했다고	-2775
▁가족은	-2776
▁저녁을	-2777
▁사용하고	-2778
▁언제든지	-2779
▁삭	-2780
란다	-2781
뿐만	-2782
▁절차	-2783
▁향상	-2784
▁메일로	-2785
▁언제쯤	-2786
▁가능해요	-2787
나다	-2788
▁눈을	-2789
▁인기	-2790
▁적극	-2791
▁지구	-2792
는데요	-2793
▁거라고	-2794
▁것들을	-2795
▁게스트	-2796
▁너무나	-2797
▁도착할	-2798
▁생활을	-2799
▁아르바	-2800
▁여동생	-2801
▁관련하여	-2802
▁말했어요	-2803
▁카카오톡	-2804
▁잤	-2805
▁푸	-2806
드가	-2807
음이	-2808
▁13	-2809
▁나온	-2810
▁에어	-2811
으니까	-2812
▁것인지	-2813
en	-2814
▁곡	-2815
▁묻	-2816
▁흡	-2817
끄러	-2818
서가	-2819
수는	-2820
하우	-2821
▁미술	-2822
▁바탕	-2823
▁수준	-2824
▁예쁜	-2825
▁특징	-2826
▁효율	-2827
이라서	-2828
▁같아서	-2829
▁것보다	-2830
▁모두가	-2831
▁못하고	-2832
▁받아야	-2833
▁캐나다	-2834
▁엘	-2835
멤버	-2836
정에	-2837
하던	-2838
▁건축	-2839
▁기타	-2840
▁삼성	-2841
▁연주	-2842
▁위로	-2843
▁작동	-2844
▁치료	-2845
▁퇴근	-2846
▁패션	-2847
▁휴가	-2848
▁그렇기	-2849
▁비슷한	-2850
▁않나요	-2851
드릴게요	-2852
▁아이들이	-2853
▁토요일에	-2854
▁보냈습니다	-2855
al	-2856
▁괴	-2857
어진	-2858
▁맞추	-2859
▁받으	-2860
▁어른	-2861
▁중간	-2862
▁착용	-2863
하려면	-2864
▁번호를	-2865
었기	-2866
제품	-2867
▁근데	-2868
▁리더	-2869
▁마시	-2870
▁버전	-2871
▁적당	-2872
하는지	-2873
▁들었어	-2874
▁미국에	-2875
▁상대방	-2876
▁이메일로	-2877
▁주시겠어요	-2878
▁땅	-2879
▁훨	-2880
텐츠	-2881
▁버튼	-2882
▁북한	-2883
▁홍보	-2884
구하고	-2885
▁몰라요	-2886
▁상황이	-2887
▁원하지	-2888
▁이름이	-2889
▁쿠	-2890
대의	-2891
소가	-2892
져요	-2893
해가	-2894
▁거로	-2895
▁당시	-2896
▁멤버	-2897
▁스페	-2898
▁정해	-2899
▁훨씬	-2900
관에서	-2901
▁서울에	-2902
▁여자는	-2903
▁파트너	-2904
▁한다면	-2905
▁값	-2906
▁딱	-2907
이란	-2908
지면	-2909
콜릿	-2910
▁마무	-2911
▁면접	-2912
▁발주	-2913
▁병원	-2914
▁봤어	-2915
▁읽고	-2916
시까지	-2917
▁소개해	-2918
▁소식을	-2919
▁행복해	-2920
▁사람입니다	-2921
▁어렵습니다	-2922
▁낙	-2923
▁떡	-2924
▁찬	-2925
가락	-2926
르면	-2927
트로	-2928
▁그룹	-2929
▁넣고	-2930
▁단계	-2931
▁먹방	-2932
▁바빠	-2933
▁색깔	-2934
▁홍콩	-2935
▁되었어	-2936
▁물건이	-2937
▁힘들어	-2938
▁런	-2939
화가	-2940
▁25	-2941
▁돌려	-2942
▁배려	-2943
▁상담	-2944
▁세탁	-2945
▁수학	-2946
▁잠깐	-2947
▁종일	-2948
▁책은	-2949
▁텐데	-2950
▁사실을	-2951
▁행동을	-2952
▁고마워요	-2953
구가	-2954
면에	-2955
목을	-2956
▁가입	-2957
▁과학	-2958
▁글로	-2959
▁네트	-2960
▁대답	-2961
▁라이	-2962
▁범죄	-2963
▁어릴	-2964
▁초대	-2965
▁동시에	-2966
▁문제에	-2967
▁비용이	-2968
▁싶어서	-2969
▁왜냐면	-2970
▁이전에	-2971
▁진행할	-2972
림픽	-2973
통을	-2974
▁구경	-2975
▁산업	-2976
▁서버	-2977
▁수출	-2978
▁쉬는	-2979
▁응원	-2980
▁치즈	-2981
▁비디오	-2982
▁예약을	-2983
▁일정이	-2984
▁좋아해	-2985
▁확인할	-2986
▁불구하고	-2987
▁친구에게	-2988
▁b	-2989
과의	-2990
도의	-2991
성에	-2992
▁등이	-2993
▁맞지	-2994
▁봐요	-2995
▁스티	-2996
▁아쉬	-2997
▁얻을	-2998
▁가족이	-2999
▁기억에	-3000
▁문화를	-3001
▁부분은	-3002
▁알아요	-3003
▁업무를	-3004
▁초콜릿	-3005
▁해수욕	-3006
▁친구들을	-3007
더니	-3008
이지	-3009
종일	-3010
▁16	-3011
▁귀여	-3012
▁반응	-3013
▁브라	-3014
▁승인	-3015
▁연기	-3016
▁왼쪽	-3017
하시고	-3018
▁버스를	-3019
셨습니다	-3020
▁먹었어요	-3021
▁좋아하고	-3022
▁처음으로	-3023
..	-3024
▁14	-3025
▁다운	-3026
▁대통	-3027
▁외부	-3028
▁저렴	-3029
▁파악	-3030
이라면	-3031
▁마시고	-3032
▁여자를	-3033
▁줄게요	-3034
갔습니다	-3035
▁p	-3036
님의	-3037
리면	-3038
장과	-3039
정은	-3040
▁구체	-3041
▁못해	-3042
▁선호	-3043
▁역사	-3044
▁일상	-3045
▁집은	-3046
▁태국	-3047
▁테이	-3048
▁가방을	-3049
▁기능을	-3050
▁다음과	-3051
▁됩니까	-3052
▁수업에	-3053
▁우리도	-3054
▁하루에	-3055
▁재미있는	-3056
▁칼	-3057
리로	-3058
식에	-3059
우고	-3060
▁거죠	-3061
▁건지	-3062
▁규칙	-3063
▁길이	-3064
▁깊은	-3065
▁늦어	-3066
▁명이	-3067
▁빨간	-3068
▁영수	-3069
드려요	-3070
▁바란다	-3071
▁보면서	-3072
▁멈	-3073
량이	-3074
▁그저	-3075
▁속에	-3076
▁자꾸	-3077
▁주기	-3078
▁중인	-3079
▁줘서	-3080
▁학습	-3081
하기에	-3082
▁대통령	-3083
▁데이트	-3084
▁사업을	-3085
▁수량을	-3086
▁앞에서	-3087
▁정확히	-3088
▁보았습니다	-3089
렸어	-3090
무를	-3091
복을	-3092
시켜	-3093
왔어	-3094
▁방을	-3095
▁스크	-3096
▁장애	-3097
▁제한	-3098
▁캐릭	-3099
▁평가	-3100
▁힘을	-3101
▁것들이	-3102
▁이용해	-3103
▁부모님은	-3104
▁이용하여	-3105
NS	-3106
표를	-3107
▁강화	-3108
▁거니	-3109
▁냄새	-3110
▁데려	-3111
▁만한	-3112
▁반품	-3113
▁삭제	-3114
▁오픈	-3115
▁올려	-3116
▁우편	-3117
▁조사	-3118
▁피아	-3119
▁경우가	-3120
▁능력을	-3121
▁아무리	-3122
▁이용할	-3123
▁자세히	-3124
▁콘텐츠	-3125
▁했지만	-3126
▁끌	-3127
받을	-3128
▁동료	-3129
▁새벽	-3130
▁신용	-3131
▁짐을	-3132
▁협의	-3133
▁관계를	-3134
▁그들을	-3135
▁꾸준히	-3136
▁내년에	-3137
▁식사를	-3138
▁테스트를	-3139
▁하였습니다	-3140
▁국민	-3141
▁그다	-3142
▁샤워	-3143
▁설계	-3144
▁재료	-3145
▁허락	-3146
셨나요	-3147
으려고	-3148
▁먹으면	-3149
▁상황에	-3150
▁엄마는	-3151
▁없었어	-3152
▁편하게	-3153
▁쓴	-3154
▁그럴	-3155
▁단어	-3156
▁시켜	-3157
▁즐기	-3158
▁궁금한	-3159
▁그곳은	-3160
▁수요일	-3161
▁고객에게	-3162
▁친구들은	-3163
▁학생들이	-3164
es	-3165
▁깔	-3166
림을	-3167
분이	-3168
인과	-3169
일은	-3170
▁긍정	-3171
▁바닥	-3172
▁어떨	-3173
▁유치	-3174
▁투자	-3175
▁해보	-3176
스에서	-3177
하네요	-3178
▁되는지	-3179
▁목요일	-3180
▁이해할	-3181
▁휴대폰	-3182
▁다릅니다	-3183
▁바탕으로	-3184
▁홀	-3185
상은	-3186
질을	-3187
했기	-3188
▁17	-3189
▁24	-3190
▁능력	-3191
▁돼서	-3192
▁때도	-3193
▁반복	-3194
▁반영	-3195
▁배가	-3196
▁스키	-3197
▁시설	-3198
▁일할	-3199
▁다니고	-3200
▁배우는	-3201
▁속에서	-3202
▁영화의	-3203
▁잃어버	-3204
▁회사를	-3205
▁못합니다	-3206
▁무엇입니까	-3207
▁시작했어요	-3208
▁흘	-3209
만한	-3210
원의	-3211
▁간호	-3212
▁듣는	-3213
▁따른	-3214
▁문자	-3215
▁노력을	-3216
▁중학교	-3217
▁만듭니다	-3218
▁방법으로	-3219
▁않는다면	-3220
▁주었습니다	-3221
로를	-3222
웠어	-3223
▁기재	-3224
▁김치	-3225
▁멀리	-3226
▁생긴	-3227
▁우울	-3228
▁우체	-3229
▁의료	-3230
▁교육을	-3231
▁다이어	-3232
▁비용은	-3233
▁사항이	-3234
▁안에서	-3235
▁직업을	-3236
▁커피를	-3237
ac	-3238
▁닮	-3239
▁밑	-3240
위에	-3241
이의	-3242
▁문을	-3243
▁상당	-3244
▁어젯	-3245
▁작년	-3246
▁차이	-3247
▁찾는	-3248
▁체육	-3249
다시피	-3250
만으로	-3251
▁없으면	-3252
▁인간의	-3253
▁점심을	-3254
▁네트워크	-3255
▁샌	-3256
고에	-3257
아버	-3258
▁강한	-3259
▁걸어	-3260
▁다만	-3261
▁두려	-3262
▁둘째	-3263
▁옛날	-3264
▁나라의	-3265
▁마무리	-3266
▁추천해	-3267
▁생각했습니다	-3268
▁돕	-3269
▁슈	-3270
단을	-3271
로드	-3272
리와	-3273
받고	-3274
비는	-3275
셔도	-3276
▁달러	-3277
▁머물	-3278
▁무시	-3279
▁발행	-3280
▁오류	-3281
▁읽어	-3282
▁전자	-3283
▁증명	-3284
▁타입	-3285
▁프린	-3286
식으로	-3287
역에서	-3288
▁도와줄	-3289
▁말하고	-3290
▁메시지	-3291
▁어젯밤	-3292
▁여름에	-3293
▁올림픽	-3294
▁인기가	-3295
▁화요일	-3296
▁요청하신	-3297
▁크리스마스	-3298
▁삽	-3299
▁픽	-3300
비가	-3301
일로	-3302
▁검색	-3303
▁박물	-3304
▁발급	-3305
▁세부	-3306
▁조절	-3307
▁요청을	-3308
▁잘하는	-3309
▁홈페이	-3310
▁디자인을	-3311
▁모릅니다	-3312
▁있었으면	-3313
▁뮤	-3314
▁석	-3315
▁섞	-3316
▁핵	-3317
대가	-3318
하다	-3319
함이	-3320
▁복잡	-3321
▁앉아	-3322
▁영양	-3323
▁클럽	-3324
부터는	-3325
정으로	-3326
회에서	-3327
▁결과가	-3328
▁공부할	-3329
▁금액을	-3330
▁된다고	-3331
▁보이지	-3332
▁이후에	-3333
▁저한테	-3334
▁가능한지	-3335
▁이곳에서	-3336
▁객	-3337
▁루	-3338
▁썼	-3339
▁옥	-3340
성은	-3341
움이	-3342
▁승무	-3343
▁시각	-3344
▁실행	-3345
▁인한	-3346
▁즐겨	-3347
▁챙겨	-3348
쁩니다	-3349
원으로	-3350
▁사이에	-3351
▁의사소	-3352
▁작업이	-3353
▁피아노	-3354
▁한국을	-3355
▁당신한테	-3356
▁황	-3357
되기	-3358
수의	-3359
자이	-3360
▁걸리	-3361
▁다들	-3362
▁맛볼	-3363
▁매운	-3364
▁무척	-3365
▁베이	-3366
▁음료	-3367
▁적합	-3368
▁종종	-3369
▁키가	-3370
▁했을	-3371
▁혹은	-3372
▁관해서	-3373
▁그렇지	-3374
▁누구나	-3375
▁부분에	-3376
▁영어가	-3377
▁오늘이	-3378
▁호텔에	-3379
▁먹습니다	-3380
▁무엇보다	-3381
▁말했습니다	-3382
▁격	-3383
돼요	-3384
많은	-3385
문화	-3386
실에	-3387
타민	-3388
프를	-3389
▁매니	-3390
▁물이	-3391
▁빠져	-3392
▁수리	-3393
▁시장	-3394
▁예방	-3395
▁입장	-3396
▁적은	-3397
갔어요	-3398
이었어	-3399
하라고	-3400
할까요	-3401
▁SNS	-3402
▁고객은	-3403
▁고객의	-3404
▁더욱더	-3405
▁카드를	-3406
▁계속해서	-3407
▁그렇지만	-3408
▁중요합니다	-3409
▁a	-3410
▁닫	-3411
▁맨	-3412
▁훈	-3413
별로	-3414
안을	-3415
지기	-3416
층에	-3417
▁계절	-3418
▁놀라	-3419
▁바쁜	-3420
▁신고	-3421
▁않기	-3422
났어요	-3423
해주는	-3424
▁동일한	-3425
▁먹어요	-3426
▁샘플은	-3427
▁않지만	-3428
▁없다는	-3429
▁우체국	-3430
▁이상의	-3431
▁기준으로	-3432
▁사용하여	-3433
▁아이들을	-3434
mm	-3435
▁굴	-3436
▁콜	-3437
▁탐	-3438
▁탔	-3439
봐야	-3440
운드	-3441
인에	-3442
쳐서	-3443
▁각종	-3444
▁넘어	-3445
▁되길	-3446
▁마찬	-3447
▁배달	-3448
▁비싸	-3449
▁비자	-3450
▁프레	-3451
▁현대	-3452
자들이	-3453
하기도	-3454
▁머리를	-3455
▁부족한	-3456
▁좋아서	-3457
▁공부하고	-3458
▁무엇인지	-3459
로그	-3460
자고	-3461
▁고향	-3462
▁남겨	-3463
▁맥주	-3464
▁먹지	-3465
▁소재	-3466
▁아기	-3467
▁저번	-3468
▁타이	-3469
▁들어요	-3470
▁어디로	-3471
▁이제는	-3472
▁조금만	-3473
▁친구의	-3474
▁마찬가지	-3475
▁포함되어	-3476
▁곁	-3477
▁까	-3478
▁셋	-3479
▁웨	-3480
▁촉	-3481
▁칠	-3482
▁펜	-3483
된다	-3484
없는	-3485
치지	-3486
활동	-3487
▁거리	-3488
▁동작	-3489
▁물품	-3490
▁법을	-3491
▁사귀	-3492
▁수수	-3493
▁실망	-3494
▁안정	-3495
▁필수	-3496
▁확신	-3497
▁글로벌	-3498
▁되어서	-3499
▁비타민	-3500
▁없다면	-3501
▁저희는	-3502
▁좋겠다	-3503
▁중이야	-3504
ic	-3505
▁맘	-3506
▁뽑	-3507
▁억	-3508
시킬	-3509
이와	-3510
▁고정	-3511
▁공식	-3512
▁드리	-3513
▁부서	-3514
▁요소	-3515
▁저도	-3516
▁점은	-3517
▁주요	-3518
▁답장을	-3519
▁사용해	-3520
▁수많은	-3521
▁영상을	-3522
▁경우에는	-3523
▁도착하면	-3524
▁오늘부터	-3525
이자	-3526
▁검은	-3527
▁나올	-3528
▁문서	-3529
▁싱가	-3530
▁웹사	-3531
▁이익	-3532
▁조언	-3533
▁존중	-3534
▁출시	-3535
▁택시	-3536
▁곳으로	-3537
▁아버지	-3538
▁이상한	-3539
▁준비가	-3540
▁때문이야	-3541
▁아이들은	-3542
▁주시겠습니까	-3543
el	-3544
▁$	-3545
▁탑	-3546
성과	-3547
운데	-3548
질이	-3549
▁꿈은	-3550
▁눈에	-3551
▁독립	-3552
▁숙박	-3553
▁어쩔	-3554
▁조직	-3555
▁좋게	-3556
▁지루	-3557
▁검사를	-3558
▁미래에	-3559
▁할게요	-3560
▁보내드립니다	-3561
▁링	-3562
▁젊	-3563
물은	-3564
실을	-3565
▁관람	-3566
▁기쁘	-3567
▁기숙	-3568
▁로그	-3569
▁백화	-3570
▁산책	-3571
▁상세	-3572
▁성과	-3573
▁애플	-3574
▁익숙	-3575
▁친한	-3576
▁행운	-3577
일부터	-3578
자들은	-3579
▁느낌이	-3580
▁떨어져	-3581
▁문제로	-3582
▁봅니다	-3583
▁실력이	-3584
▁아무도	-3585
▁아이가	-3586
▁이미지	-3587
▁좋다고	-3588
▁캐릭터	-3589
▁확인을	-3590
▁대표적인	-3591
▁언제까지	-3592
▁중요해요	-3593
▁덜	-3594
▁뒷	-3595
▁텔	-3596
가에	-3597
내는	-3598
▁논의	-3599
▁레이	-3600
▁매년	-3601
▁모임	-3602
▁방에	-3603
▁아쉽	-3604
▁인증	-3605
▁통과	-3606
칩니다	-3607
했다는	-3608
▁다르게	-3609
▁수밖에	-3610
▁알아보	-3611
▁오세요	-3612
▁일본의	-3613
▁추억을	-3614
▁궁금해요	-3615
▁엑	-3616
▁튀	-3617
있어	-3618
히려	-3619
▁강력	-3620
▁기반	-3621
▁대략	-3622
▁보았	-3623
▁채팅	-3624
▁풍부	-3625
봅시다	-3626
으로서	-3627
▁말하지	-3628
▁보여요	-3629
▁보냈어요	-3630
▁서울에서	-3631
10	-3632
▁낫	-3633
세를	-3634
▁강의	-3635
▁나갈	-3636
▁들이	-3637
▁발라	-3638
▁오고	-3639
▁위의	-3640
▁이틀	-3641
▁편의	-3642
대에서	-3643
▁가이드	-3644
▁건강을	-3645
▁것이고	-3646
▁결혼을	-3647
▁과정을	-3648
▁기다리	-3649
▁느낌을	-3650
▁러시아	-3651
▁스테이	-3652
▁에이전	-3653
▁오히려	-3654
▁온종일	-3655
▁파티를	-3656
▁한국어	-3657
▁드릴게요	-3658
▁끓	-3659
▁룸	-3660
트의	-3661
▁구입	-3662
▁그려	-3663
▁렌즈	-3664
▁몸에	-3665
▁시원	-3666
▁어쩌	-3667
▁언급	-3668
▁유용	-3669
▁전략	-3670
▁텔레	-3671
▁간단한	-3672
▁공항에	-3673
▁먹으러	-3674
▁피부를	-3675
▁발생하는	-3676
▁있으세요	-3677
20	-3678
▁든	-3679
개가	-3680
받는	-3681
줘야	-3682
▁성실	-3683
▁외출	-3684
▁점을	-3685
▁출고	-3686
깁니다	-3687
▁같네요	-3688
▁거기서	-3689
▁여행은	-3690
▁오전에	-3691
▁와이파	-3692
▁친구들	-3693
▁확실히	-3694
▁날이에요	-3695
▁이용해서	-3696
▁알려주시면	-3697
▁끈	-3698
▁니	-3699
금이	-3700
러운	-3701
마자	-3702
정보	-3703
체를	-3704
▁달리	-3705
▁목록	-3706
▁바꿀	-3707
▁박스	-3708
▁불안	-3709
▁삶의	-3710
▁소년	-3711
▁외모	-3712
▁유행	-3713
▁잠이	-3714
▁적절	-3715
달라고	-3716
트에서	-3717
▁되었다	-3718
▁아마존	-3719
▁충분한	-3720
▁아이스크	-3721
▁재미있게	-3722
▁낼	-3723
▁씻	-3724
▁헬	-3725
리카	-3726
분을	-3727
상에	-3728
션이	-3729
용을	-3730
지어	-3731
▁공격	-3732
▁나눠	-3733
▁나은	-3734
▁내에	-3735
▁매주	-3736
▁블랙	-3737
▁조정	-3738
▁친해	-3739
▁확정	-3740
하기가	-3741
▁가려고	-3742
▁괜찮아	-3743
▁끝까지	-3744
▁먹었어	-3745
▁배송이	-3746
▁사회적	-3747
▁아들이	-3748
▁요즘은	-3749
대체	-3750
름이	-3751
▁23	-3752
▁간의	-3753
▁대기	-3754
▁발달	-3755
▁비록	-3756
▁선박	-3757
▁접근	-3758
▁좋고	-3759
하시기	-3760
▁강아지	-3761
▁계약을	-3762
▁서로의	-3763
▁숙제를	-3764
▁오늘의	-3765
▁우리와	-3766
▁정보가	-3767
▁훌륭한	-3768
▁감사해요	-3769
▁미국에서	-3770
▁이미지를	-3771
▁정확하게	-3772
▁호텔에서	-3773
BC	-3774
▁셀	-3775
▁케	-3776
과는	-3777
본을	-3778
식은	-3779
▁귀하	-3780
▁그에	-3781
▁뭔가	-3782
▁배워	-3783
▁빌려	-3784
▁소요	-3785
▁실례	-3786
▁아픈	-3787
▁안타	-3788
▁않으	-3789
▁있죠	-3790
▁정치	-3791
▁중심	-3792
자이너	-3793
▁다니는	-3794
▁만들기	-3795
▁목표를	-3796
▁미래를	-3797
▁보여주	-3798
▁세상을	-3799
▁아무런	-3800
▁인생을	-3801
▁프랑스	-3802
▁학생이	-3803
▁볶	-3804
▁윤	-3805
거운	-3806
교육	-3807
드에	-3808
형을	-3809
▁21	-3810
▁PO	-3811
▁극복	-3812
▁말했	-3813
▁먹은	-3814
▁번도	-3815
▁보험	-3816
▁올바	-3817
▁줄게	-3818
▁찍어	-3819
▁게다가	-3820
▁견적을	-3821
▁도대체	-3822
▁버튼을	-3823
▁설명해	-3824
▁아시아	-3825
▁작년에	-3826
▁정말로	-3827
▁청소년	-3828
▁최근에	-3829
et	-3830
▁밴	-3831
▁옵	-3832
▁거라	-3833
▁끝난	-3834
▁달려	-3835
▁말아	-3836
▁배경	-3837
▁보다	-3838
▁시청	-3839
▁잡아	-3840
▁주길	-3841
▁콘서	-3842
▁각각의	-3843
▁괜찮은	-3844
▁바이어	-3845
▁오래된	-3846
▁있기를	-3847
▁행복을	-3848
▁휴가를	-3849
▁공항에서	-3850
▁보내세요	-3851
▁수요일에	-3852
▁셔	-3853
▁옳	-3854
▁쳐	-3855
같이	-3856
들로	-3857
받은	-3858
제는	-3859
져야	-3860
차를	-3861
▁귀찮	-3862
▁다이	-3863
▁당장	-3864
▁동네	-3865
▁봐야	-3866
▁부르	-3867
▁분리	-3868
▁쉬운	-3869
▁적어	-3870
▁전기	-3871
▁지도	-3872
▁직장	-3873
▁집이	-3874
▁참조	-3875
▁출장	-3876
▁통한	-3877
▁픽업	-3878
▁한잔	-3879
그레이	-3880
▁계획이	-3881
▁그러니	-3882
▁들어오	-3883
▁마치고	-3884
▁생각엔	-3885
▁알아야	-3886
▁약간의	-3887
▁부모님이	-3888
▁알았어요	-3889
▁의사소통	-3890
▁게스트하우	-3891
▁Q	-3892
▁곤	-3893
구에	-3894
는다	-3895
름을	-3896
와서	-3897
조차	-3898
▁감정	-3899
▁개를	-3900
▁런던	-3901
▁비해	-3902
▁생길	-3903
▁신규	-3904
▁접수	-3905
▁행사	-3906
을까요	-3907
▁경기를	-3908
▁그다음	-3909
▁없지만	-3910
▁일본에	-3911
▁텔레비	-3912
▁혼자서	-3913
시겠습니까	-3914
▁먹었습니다	-3915
it	-3916
▁꼬	-3917
▁벤	-3918
등을	-3919
신을	-3920
조건	-3921
콤한	-3922
▁가난	-3923
▁매출	-3924
▁신문	-3925
▁점검	-3926
▁정책	-3927
답니다	-3928
▁미국의	-3929
▁부드럽	-3930
▁아이를	-3931
▁하나도	-3932
▁공부하는	-3933
▁포기하지	-3934
년간	-3935
리라	-3936
아웃	-3937
에겐	-3938
▁걸릴	-3939
▁몸을	-3940
▁인턴	-3941
▁한글	-3942
었다고	-3943
해주길	-3944
▁남자를	-3945
▁대학에	-3946
▁상품이	-3947
▁수량이	-3948
▁심지어	-3949
▁아파서	-3950
▁할까요	-3951
▁할아버	-3952
▁화장품	-3953
함으로써	-3954
▁대학교에	-3955
▁생각보다	-3956
▁싶은데요	-3957
▁자전거를	-3958
▁프로젝트를	-3959
공항	-3960
방학	-3961
▁건너	-3962
▁마련	-3963
▁보며	-3964
▁쉬고	-3965
▁유니	-3966
▁이외	-3967
▁인식	-3968
▁있겠	-3969
▁합격	-3970
봤어요	-3971
▁감정을	-3972
▁돌아오	-3973
▁드디어	-3974
▁똑같은	-3975
▁매니저	-3976
▁보내지	-3977
▁손님이	-3978
▁시작할	-3979
▁싱가포	-3980
▁언젠가	-3981
▁영원히	-3982
▁이해가	-3983
▁자리에	-3984
해주시기	-3985
re	-3986
▁땐	-3987
▁롤	-3988
▁척	-3989
▁흰	-3990
자로	-3991
지니	-3992
▁가볍	-3993
▁공장	-3994
▁다섯	-3995
▁들면	-3996
▁뭐가	-3997
▁믿고	-3998
▁없기	-3999
▁연예	-4000
▁즉시	-4001
▁지냈	-4002
▁하였	-4003
▁남편이	-4004
▁뭐라고	-4005
▁받았어	-4006
▁사진과	-4007
▁소리를	-4008
▁수업은	-4009
▁스티커	-4010
▁학교를	-4011
되었어요	-4012
▁선생님은	-4013
▁일이에요	-4014
구는	-4015
약을	-4016
졌다	-4017
향이	-4018
▁가슴	-4019
▁가질	-4020
▁기초	-4021
▁기획	-4022
▁나왔	-4023
▁맞게	-4024
▁번에	-4025
▁보증	-4026
▁의무	-4027
▁재능	-4028
▁최대	-4029
▁충격	-4030
▁생각할	-4031
▁선택한	-4032
▁쓰레기	-4033
▁정도의	-4034
쳤습니다	-4035
▁가능성이	-4036
▁디자이너	-4037
▁원한다면	-4038
▁이번에는	-4039
▁계획입니다	-4040
▁고맙습니다	-4041
▁숫	-4042
▁펼	-4043
고기	-4044
드로	-4045
업체	-4046
역을	-4047
터가	-4048
▁1,	-4049
▁갈아	-4050
▁고통	-4051
▁그랬	-4052
▁놓고	-4053
▁대비	-4054
▁반송	-4055
▁배운	-4056
▁스토	-4057
▁쓰지	-4058
▁야채	-4059
▁일으	-4060
▁저기	-4061
▁저장	-4062
▁타는	-4063
도에서	-4064
하지는	-4065
▁가져다	-4066
▁사항을	-4067
▁샀어요	-4068
▁회사가	-4069
적입니다	-4070
▁과정에서	-4071
▁미안합니다	-4072
▁앨	-4073
드린	-4074
메이	-4075
▁나쁘	-4076
▁낮은	-4077
▁리포	-4078
▁무언	-4079
▁약을	-4080
▁예뻐	-4081
▁의심	-4082
▁출하	-4083
▁측정	-4084
▁캠핑	-4085
합시다	-4086
▁귀여운	-4087
▁남동생	-4088
▁사장님	-4089
▁연락처	-4090
▁걸립니다	-4091
▁세상에서	-4092
▁웹사이트	-4093
▁진행하고	-4094
▁컴퓨터를	-4095
▁힘들어요	-4096
물에	-4097
사로	-4098
와의	-4099
이다	-4100
회가	-4101
▁높아	-4102
▁대응	-4103
▁딸이	-4104
▁만에	-4105
▁많고	-4106
▁모바	-4107
▁부러	-4108
▁설탕	-4109
▁슬퍼	-4110
▁엘리	-4111
▁유일	-4112
▁잡고	-4113
▁피드	-4114
여행을	-4115
▁느끼고	-4116
▁맞나요	-4117
▁생각은	-4118
▁아니고	-4119
▁일정에	-4120
▁테이블	-4121
▁효과가	-4122
원입니다	-4123
적이에요	-4124
하시나요	-4125
해보세요	-4126
▁괜찮아요	-4127
▁인보이스를	-4128
▁프로그램은	-4129
▁뇌	-4130
▁폴	-4131
석을	-4132
소한	-4133
크를	-4134
▁갖추	-4135
▁계란	-4136
▁기원	-4137
▁말에	-4138
▁보일	-4139
▁사례	-4140
▁신기	-4141
▁알았	-4142
▁인쇄	-4143
▁차별	-4144
▁커버	-4145
▁환영	-4146
실에서	-4147
하였고	-4148
했는지	-4149
▁건강에	-4150
▁고양이	-4151
▁날짜를	-4152
▁내일은	-4153
▁이해해	-4154
▁2015	-4155
▁방식으로	-4156
▁어디에서	-4157
▁겉	-4158
▁엉	-4159
려는	-4160
력은	-4161
시가	-4162
에만	-4163
역에	-4164
전이	-4165
터에	-4166
프트	-4167
▁과목	-4168
▁노출	-4169
▁도쿄	-4170
▁라벨	-4171
▁마감	-4172
▁만남	-4173
▁원단	-4174
▁작가	-4175
▁종교	-4176
▁지방	-4177
▁파는	-4178
▁평생	-4179
▁피해	-4180
드리고	-4181
해주고	-4182
▁걱정이	-4183
▁겁니까	-4184
▁고객님	-4185
▁그리워	-4186
▁기능이	-4187
▁기다릴	-4188
▁너희가	-4189
▁맛있게	-4190
▁않았다	-4191
▁약속이	-4192
▁얼굴을	-4193
▁통하여	-4194
▁비행기를	-4195
▁사무실에	-4196
▁업그레이	-4197
▁제외하고	-4198
▁행복해요	-4199
▁느꼈습니다	-4200
▁깜	-4201
▁팝	-4202
게도	-4203
느냐	-4204
법을	-4205
▁고생	-4206
▁과일	-4207
▁새해	-4208
▁셋째	-4209
▁스위	-4210
▁스파	-4211
▁신체	-4212
▁알지	-4213
▁조립	-4214
겠다는	-4215
있어요	-4216
지에서	-4217
▁공연을	-4218
▁노력할	-4219
▁세상에	-4220
▁연습을	-4221
▁잘하고	-4222
▁직원이	-4223
▁태어나	-4224
▁봤습니다	-4225
▁싱가포르	-4226
▁아르바이트	-4227
▁만들었습니다	-4228
▁시작했습니다	-4229
le	-4230
▁d	-4231
▁롯	-4232
▁섭	-4233
관은	-4234
끼리	-4235
닐라	-4236
▁둘러	-4237
▁라면	-4238
▁스카	-4239
▁아까	-4240
▁연장	-4241
▁집안	-4242
▁커플	-4243
▁훈련	-4244
색으로	-4245
스러워	-4246
음으로	-4247
주셔서	-4248
▁갈게요	-4249
▁같은데	-4250
▁구매할	-4251
▁만나러	-4252
▁발생한	-4253
▁사용한	-4254
▁알았어	-4255
▁의미가	-4256
▁피드백	-4257
자입니다	-4258
▁비즈니스	-4259
▁스케줄을	-4260
▁싶었어요	-4261
▁알다시피	-4262
▁좋았어요	-4263
▁아이들에게	-4264
▁제공합니다	-4265
▁펌	-4266
대는	-4267
바이	-4268
수한	-4269
실이	-4270
위가	-4271
주가	-4272
▁드는	-4273
▁롯데	-4274
▁물리	-4275
▁바닷	-4276
▁여권	-4277
▁이내	-4278
▁일로	-4279
▁프리	-4280
▁했고	-4281
▁무료로	-4282
▁바람이	-4283
▁소리가	-4284
▁있어도	-4285
▁주변에	-4286
▁뿐이에요	-4287
▁스트레스	-4288
▁있었는데	-4289
▁개인적으로	-4290
▁사용합니다	-4291
▁보내겠습니다	-4292
▁보내드리겠습니다	-4293
▁컵	-4294
▁탁	-4295
천히	-4296
▁건조	-4297
▁고급	-4298
▁근거	-4299
▁금방	-4300
▁끊임	-4301
▁넓은	-4302
▁놀고	-4303
▁등장	-4304
▁살펴	-4305
▁앞서	-4306
▁옷이	-4307
▁유리	-4308
▁잘생	-4309
▁정류	-4310
▁하죠	-4311
▁학기	-4312
셨으면	-4313
용으로	-4314
▁돈으로	-4315
▁말아요	-4316
▁말해요	-4317
▁받아서	-4318
▁사랑해	-4319
▁조금씩	-4320
▁천천히	-4321
▁하루를	-4322
▁환경을	-4323
▁도착해서	-4324
▁필요하다고	-4325
tr	-4326
▁m	-4327
▁낭	-4328
▁낳	-4329
▁펴	-4330
경이	-4331
쪽에	-4332
프로	-4333
함과	-4334
▁게시	-4335
▁마사	-4336
▁머무	-4337
▁방해	-4338
▁부디	-4339
▁선정	-4340
▁소리	-4341
▁쉽지	-4342
▁싶을	-4343
▁유저	-4344
▁자는	-4345
▁창의	-4346
▁취업	-4347
▁회복	-4348
시키는	-4349
실래요	-4350
▁가려면	-4351
▁건강한	-4352
▁대학생	-4353
▁사진에	-4354
▁상당히	-4355
▁싫어요	-4356
▁이처럼	-4357
▁점수를	-4358
▁친구랑	-4359
▁케이블	-4360
▁필요할	-4361
▁자연스럽게	-4362
am	-4363
is	-4364
▁히	-4365
웨어	-4366
율이	-4367
▁27	-4368
▁가도	-4369
▁걸린	-4370
▁느낀	-4371
▁늦은	-4372
▁다녔	-4373
▁단체	-4374
▁답장	-4375
▁뮤지	-4376
▁번씩	-4377
▁양념	-4378
▁영광	-4379
▁좋다	-4380
▁통합	-4381
▁혼란	-4382
인으로	-4383
케이션	-4384
▁되었고	-4385
▁만나요	-4386
▁발표를	-4387
▁분명히	-4388
▁준비해	-4389
▁어울리는	-4390
▁일본에서	-4391
▁칭	-4392
▁혜	-4393
뮤니	-4394
유의	-4395
화된	-4396
▁거절	-4397
▁공통	-4398
▁구분	-4399
▁귀엽	-4400
▁바보	-4401
▁부정	-4402
▁소설	-4403
▁애니	-4404
▁외로	-4405
▁이끌	-4406
▁자극	-4407
▁재활	-4408
▁접속	-4409
▁주장	-4410
▁차량	-4411
▁차지	-4412
더라고	-4413
▁가격에	-4414
▁가까이	-4415
▁기억이	-4416
▁기존의	-4417
▁노래는	-4418
▁마닐라	-4419
▁마음은	-4420
▁만나게	-4421
▁말이야	-4422
▁바래요	-4423
▁아니요	-4424
▁위에서	-4425
▁작품을	-4426
▁장소를	-4427
▁주소로	-4428
▁학원에	-4429
▁해결할	-4430
▁데이터를	-4431
▁배웠습니다	-4432
▁켜	-4433
부에	-4434
사람	-4435
스코	-4436
이브	-4437
이죠	-4438
▁감독	-4439
▁결론	-4440
▁구글	-4441
▁깔끔	-4442
▁나면	-4443
▁냉장	-4444
▁맛을	-4445
▁빌딩	-4446
▁시계	-4447
▁시내	-4448
▁신선	-4449
▁이와	-4450
▁입을	-4451
▁확보	-4452
됐어요	-4453
했나요	-4454
▁500	-4455
▁가세요	-4456
▁그런지	-4457
▁되어야	-4458
▁머리가	-4459
▁방문할	-4460
▁완벽한	-4461
▁잊어버	-4462
▁커뮤니	-4463
랐습니다	-4464
하십니까	-4465
▁강아지를	-4466
▁기쁩니다	-4467
▁노력하고	-4468
▁누구보다	-4469
▁제공하는	-4470
▁지난주에	-4471
▁학생들은	-4472
50	-4473
▁벨	-4474
▁팩	-4475
리어	-4476
명은	-4477
재를	-4478
▁감기	-4479
▁건설	-4480
▁그린	-4481
▁독특	-4482
▁물에	-4483
▁미세	-4484
▁믿어	-4485
▁오기	-4486
▁오염	-4487
▁오토	-4488
▁이기	-4489
▁줘야	-4490
▁지갑	-4491
▁짧은	-4492
▁추석	-4493
▁하던	-4494
▁항목	-4495
금으로	-4496
일까요	-4497
쪽으로	-4498
▁가족을	-4499
▁그래요	-4500
▁금액이	-4501
▁나이가	-4502
▁사용을	-4503
▁서로를	-4504
▁심각한	-4505
▁싶었어	-4506
▁알려준	-4507
▁올바른	-4508
▁인하여	-4509
▁전부터	-4510
▁티켓을	-4511
▁포함한	-4512
들입니다	-4513
▁리스트를	-4514
▁사용해요	-4515
▁인보이스	-4516
이었습니다	-4517
▁알려주시기	-4518
▁제품입니다	-4519
▁희망합니다	-4520
겠죠	-4521
기간	-4522
나가	-4523
리게	-4524
▁과제	-4525
▁깨달	-4526
▁비싼	-4527
▁스킨	-4528
▁원활	-4529
▁평균	-4530
▁평소	-4531
▁활발	-4532
점으로	-4533
테이너	-4534
▁가치를	-4535
▁기술을	-4536
▁나라에	-4537
▁동아리	-4538
▁사랑은	-4539
▁아이폰	-4540
▁알려줘	-4541
▁목요일에	-4542
▁부탁해요	-4543
▁t	-4544
▁쉴	-4545
▁됐어	-4546
▁떡볶	-4547
▁밝은	-4548
▁배터	-4549
▁보인	-4550
▁블록	-4551
▁상징	-4552
▁상호	-4553
▁연극	-4554
▁오렌	-4555
▁특이	-4556
▁풀어	-4557
▁협조	-4558
생활을	-4559
유하고	-4560
쳤어요	-4561
▁내용에	-4562
▁메이크	-4563
▁상처를	-4564
▁엄청난	-4565
▁오늘날	-4566
▁이벤트	-4567
▁이후로	-4568
▁인생의	-4569
▁중국에	-4570
▁하나는	-4571
해주셔서	-4572
▁개인적인	-4573
▁걱정하지	-4574
▁곳입니다	-4575
▁세계에서	-4576
▁제품으로	-4577
▁초등학교	-4578
▁적극적으로	-4579
▁낯	-4580
▁맺	-4581
로로	-4582
물의	-4583
아이	-4584
적을	-4585
즈를	-4586
▁22	-4587
▁다닐	-4588
▁당황	-4589
▁로봇	-4590
▁마침	-4591
▁맡은	-4592
▁보자	-4593
▁상의	-4594
▁생선	-4595
▁시리	-4596
▁죽을	-4597
▁줄어	-4598
▁패키	-4599
▁표기	-4600
▁하자	-4601
▁회원	-4602
들보다	-4603
하느라	-4604
▁궁금해	-4605
▁문서를	-4606
▁물어보	-4607
▁에어컨	-4608
▁파티에	-4609
▁나옵니다	-4610
▁시스템을	-4611
▁일입니다	-4612
▁자유롭게	-4613
▁컨테이너	-4614
▁굳	-4615
▁눌	-4616
▁맑	-4617
색을	-4618
이로	-4619
주로	-4620
▁긴장	-4621
▁될까	-4622
▁모니	-4623
▁받게	-4624
▁보지	-4625
▁완전	-4626
▁줘요	-4627
▁지정	-4628
▁크고	-4629
▁타임	-4630
▁패턴	-4631
▁화려	-4632
음에도	-4633
인들이	-4634
인에게	-4635
▁담배를	-4636
▁미팅을	-4637
▁바빠서	-4638
▁얼굴이	-4639
▁엄마와	-4640
▁진정한	-4641
▁효과를	-4642
▁2017	-4643
▁나에게는	-4644
▁내일까지	-4645
▁이해하고	-4646
▁준비하고	-4647
▁해줍니다	-4648
▁일반적으로	-4649
▁정상적으로	-4650
▁균	-4651
▁닦	-4652
▁던	-4653
▁벚	-4654
셨어	-4655
오니	-4656
일까	-4657
▁가수	-4658
▁개최	-4659
▁공정	-4660
▁끝났	-4661
▁남성	-4662
▁똑똑	-4663
▁믿을	-4664
▁보게	-4665
▁없었	-4666
▁조각	-4667
▁추구	-4668
▁친척	-4669
▁크림	-4670
▁품목	-4671
▁화를	-4672
시부터	-4673
줬으면	-4674
하니까	-4675
▁가치가	-4676
▁답변이	-4677
▁당신께	-4678
▁모바일	-4679
▁받으면	-4680
▁상태가	-4681
▁엔지니	-4682
▁예약이	-4683
▁제외한	-4684
▁준비한	-4685
▁책임을	-4686
▁가능하면	-4687
▁관련해서	-4688
▁날입니다	-4689
▁싫어하는	-4690
▁어젯밤에	-4691
▁판매하는	-4692
▁부탁드려요	-4693
▁사랑합니다	-4694
▁모르겠습니다	-4695
▁쌀	-4696
금은	-4697
냐고	-4698
두고	-4699
레스	-4700
속에	-4701
품이	-4702
▁걸려	-4703
▁공개	-4704
▁꿈이	-4705
▁남녀	-4706
▁노트	-4707
▁받기	-4708
▁부착	-4709
▁살았	-4710
▁손에	-4711
▁슈퍼	-4712
▁예측	-4713
▁자녀	-4714
▁잠들	-4715
▁저와	-4716
▁조선	-4717
▁중독	-4718
▁최초	-4719
▁평범	-4720
거에요	-4721
▁ABC	-4722
▁가운데	-4723
▁그림은	-4724
▁당연히	-4725
▁사랑에	-4726
▁사항은	-4727
▁선택할	-4728
▁스페인	-4729
▁일어났	-4730
▁피부에	-4731
▁가격으로	-4732
▁곳이에요	-4733
▁스테이크	-4734
▁전화번호	-4735
▁모르겠지만	-4736
▁우리나라의	-4737
▁전화번호를	-4738
▁중요하다고	-4739
▁확인했습니다	-4740
MS	-4741
▁밸	-4742
▁푹	-4743
대요	-4744
렸다	-4745
면이	-4746
문에	-4747
진이	-4748
튜브	-4749
▁갔을	-4750
▁강남	-4751
▁건은	-4752
▁공포	-4753
▁명확	-4754
▁보안	-4755
▁생성	-4756
▁서포	-4757
▁숙소	-4758
▁월급	-4759
▁중앙	-4760
▁춤을	-4761
▁컨펌	-4762
▁해소	-4763
▁형성	-4764
하자면	-4765
▁과제를	-4766
▁납니다	-4767
▁능력이	-4768
▁다행히	-4769
▁대신에	-4770
▁밖에서	-4771
▁부산에	-4772
▁선물로	-4773
▁우연히	-4774
▁이상이	-4775
▁제품과	-4776
▁직업은	-4777
▁하나가	-4778
하십시오	-4779
▁되었으면	-4780
▁마음으로	-4781
▁일어나서	-4782
▁있으시면	-4783
▁판매해요	-4784
▁기대합니다	-4785
▁행복합니다	-4786
기지	-4787
내고	-4788
도와	-4789
료는	-4790
봐요	-4791
회의	-4792
▁감각	-4793
▁노동	-4794
▁놀이	-4795
▁방지	-4796
▁살이	-4797
▁상승	-4798
▁야구	-4799
▁예의	-4800
▁오해	-4801
▁이때	-4802
▁일도	-4803
▁자원	-4804
▁차례	-4805
▁채워	-4806
낍니다	-4807
▁결정을	-4808
▁관계가	-4809
▁먹어야	-4810
▁상품은	-4811
▁생일을	-4812
▁성격이	-4813
▁인형을	-4814
▁있었고	-4815
▁소개하겠습니다	-4816
▁“	-4817
▁닿	-4818
▁묵	-4819
▁을	-4820
▁혁	-4821
뉴얼	-4822
류를	-4823
▁계신	-4824
▁고장	-4825
▁그들	-4826
▁금지	-4827
▁너가	-4828
▁누워	-4829
▁다루	-4830
▁더불	-4831
▁드러	-4832
▁매달	-4833
▁벚꽃	-4834
▁복사	-4835
▁불이	-4836
▁수익	-4837
▁실천	-4838
▁아닐	-4839
▁열쇠	-4840
▁외에	-4841
▁용서	-4842
▁유통	-4843
▁이른	-4844
▁이모	-4845
▁이웃	-4846
▁일자	-4847
▁중의	-4848
▁키워	-4849
하셔야	-4850
▁공간이	-4851
▁끝나면	-4852
▁대학을	-4853
▁돌아올	-4854
▁상관없	-4855
▁성적이	-4856
▁소개할	-4857
▁시험이	-4858
▁싶지만	-4859
▁어려워	-4860
▁없네요	-4861
▁여행이	-4862
▁연락해	-4863
냈습니다	-4864
▁거짓말을	-4865
ou	-4866
관계	-4867
랫폼	-4868
진을	-4869
화로	-4870
▁26	-4871
▁PC	-4872
▁마실	-4873
▁마이	-4874
▁맞이	-4875
▁무게	-4876
▁반가	-4877
▁봤을	-4878
▁사서	-4879
▁사장	-4880
▁사촌	-4881
▁실시	-4882
▁의뢰	-4883
▁이뤄	-4884
▁읽는	-4885
▁읽을	-4886
▁장점	-4887
▁지지	-4888
된다면	-4889
등학생	-4890
자들의	-4891
해야만	-4892
▁결과는	-4893
▁들어갈	-4894
▁마스크	-4895
▁만나지	-4896
▁목표는	-4897
▁받아들	-4898
▁번째는	-4899
▁성격을	-4900
▁시장에	-4901
▁신발을	-4902
▁아니다	-4903
▁온다면	-4904
▁재밌게	-4905
▁전까지	-4906
▁페이팔	-4907
▁회사와	-4908
▁2014	-4909
▁2016	-4910
▁공장에서	-4911
▁구체적인	-4912
▁그러니까	-4913
▁느낍니다	-4914
▁말합니다	-4915
▁사진으로	-4916
▁이제부터	-4917
▁1,000	-4918
▁보내주시면	-4919
▁생각하세요	-4920
▁친구들에게	-4921
TA	-4922
ch	-4923
▁숲	-4924
▁젖	-4925
▁햇	-4926
더라	-4927
드의	-4928
문이	-4929
발을	-4930
트와	-4931
할지	-4932
▁각자	-4933
▁개념	-4934
▁공공	-4935
▁나빠	-4936
▁당연	-4937
▁몇몇	-4938
▁배고	-4939
▁봐도	-4940
▁브랜	-4941
▁성형	-4942
▁수집	-4943
▁싶기	-4944
▁어두	-4945
▁열정	-4946
▁젊은	-4947
▁착한	-4948
▁출연	-4949
▁출입	-4950
▁하우	-4951
▁향해	-4952
주에서	-4953
▁그만큼	-4954
▁금액은	-4955
▁기간이	-4956
▁남편은	-4957
▁더불어	-4958
▁되도록	-4959
▁메일에	-4960
▁방으로	-4961
▁변화를	-4962
▁쇼핑몰	-4963
▁어제는	-4964
▁이용한	-4965
▁자리를	-4966
▁재고가	-4967
▁줬어요	-4968
자들에게	-4969
▁누구에게	-4970
▁받습니다	-4971
▁부모님께	-4972
▁인터넷을	-4973
PS	-4974
▁샐	-4975
▁층	-4976
▁햄	-4977
▁혈	-4978
▁흑	-4979
가루	-4980
분은	-4981
사카	-4982
프가	-4983
▁감상	-4984
▁고기	-4985
▁과연	-4986
▁규모	-4987
▁방이	-4988
▁시골	-4989
▁시민	-4990
▁앱을	-4991
▁열어	-4992
▁이론	-4993
▁창고	-4994
▁해석	-4995
▁활성	-4996
▁흡수	-4997
킵니다	-4998
▁가보고	-4999
▁겨울에	-5000
▁공간을	-5001
▁듭니다	-5002
▁물건은	-5003
▁밖으로	-5004
▁사람도	-5005
▁서류는	-5006
▁손가락	-5007
▁어쩌면	-5008
▁이것에	-5009
▁좋았어	-5010
▁쪽에서	-5011
▁체크인	-5012
▁해주고	-5013
▁간단하게	-5014
▁것입니까	-5015
▁나라에서	-5016
▁내일부터	-5017
▁다음으로	-5018
▁부드러운	-5019
▁부정적인	-5020
▁사랑하고	-5021
▁애니메이	-5022
▁예상됩니다	-5023
▁프로그램에	-5024
as	-5025
▁빅	-5026
국의	-5027
당한	-5028
동이	-5029
매를	-5030
스팅	-5031
어는	-5032
웠던	-5033
위는	-5034
▁28	-5035
▁가졌	-5036
▁때의	-5037
▁리얼	-5038
▁맘에	-5039
▁명절	-5040
▁부여	-5041
▁분실	-5042
▁사전	-5043
▁연휴	-5044
▁옷은	-5045
▁이하	-5046
▁자존	-5047
▁칭찬	-5048
▁클릭	-5049
▁태양	-5050
▁토론	-5051
▁통제	-5052
▁감기에	-5053
▁나가서	-5054
▁느끼게	-5055
▁느끼는	-5056
▁데리고	-5057
▁말씀해	-5058
▁뮤지컬	-5059
▁실수로	-5060
▁에너지	-5061
▁이루기	-5062
▁잘하지	-5063
▁적절한	-5064
▁제공해	-5065
▁하도록	-5066
▁해보고	-5067
▁했으면	-5068
▁후에는	-5069
▁기대하고	-5070
▁됐습니다	-5071
▁방향으로	-5072
▁자동차를	-5073
▁시작합니다	-5074
▁싶었습니다	-5075
.5	-5076
▁겸	-5077
단에	-5078
말을	-5079
선이	-5080
세서	-5081
시로	-5082
시켰	-5083
야만	-5084
▁00	-5085
▁거부	-5086
▁고용	-5087
▁달성	-5088
▁담아	-5089
▁대리	-5090
▁리뷰	-5091
▁만일	-5092
▁말로	-5093
▁변호	-5094
▁싶고	-5095
▁양해	-5096
▁전망	-5097
▁제목	-5098
▁취직	-5099
▁팀이	-5100
▁해변	-5101
▁현장	-5102
▁현지	-5103
리스트	-5104
하겠다	-5105
해지고	-5106
▁가볍게	-5107
▁가지게	-5108
▁계정을	-5109
▁단어를	-5110
▁된다는	-5111
▁수량은	-5112
▁신청을	-5113
▁실수를	-5114
▁아이의	-5115
▁안으로	-5116
▁얘기해	-5117
▁언어를	-5118
▁영화가	-5119
▁위치한	-5120
▁의미를	-5121
▁이해를	-5122
▁일어날	-5123
▁주문이	-5124
▁주시길	-5125
▁하네요	-5126
▁합시다	-5127
▁흥미를	-5128
기입니다	-5129
▁끊임없이	-5130
▁병원에서	-5131
▁분위기를	-5132
▁않았으면	-5133
▁엄청나게	-5134
▁중요하게	-5135
▁발생합니다	-5136
▁좋았습니다	-5137
ay	-5138
kg	-5139
▁x	-5140
▁털	-5141
르지	-5142
베이	-5143
수에	-5144
준다	-5145
판을	-5146
환경	-5147
▁거주	-5148
▁고쳐	-5149
▁권한	-5150
▁금융	-5151
▁급한	-5152
▁남는	-5153
▁도로	-5154
▁되돌	-5155
▁링크	-5156
▁붙여	-5157
▁삶은	-5158
▁샌드	-5159
▁세워	-5160
▁아들	-5161
▁예수	-5162
▁원본	-5163
▁유감	-5164
▁찬성	-5165
▁찾기	-5166
▁택배	-5167
▁합리	-5168
▁흔들	-5169
월부터	-5170
▁거래를	-5171
▁다시는	-5172
▁대단히	-5173
▁문장을	-5174
▁사랑이	-5175
▁살아요	-5176
▁샘플이	-5177
▁수정된	-5178
▁주문할	-5179
▁지금도	-5180
▁피해를	-5181
▁하나를	-5182
▁호텔을	-5183
해주시면	-5184
▁만났어요	-5185
▁아니지만	-5186
▁이용하는	-5187
▁화요일에	-5188
SD	-5189
il	-5190
▁뵙	-5191
▁춥	-5192
고가	-5193
고는	-5194
받지	-5195
밥을	-5196
살이	-5197
시험	-5198
제로	-5199
지털	-5200
차가	-5201
티를	-5202
하죠	-5203
함에	-5204
▁70	-5205
▁DH	-5206
▁공동	-5207
▁근육	-5208
▁기뻤	-5209
▁깊게	-5210
▁날아	-5211
▁돈은	-5212
▁매장	-5213
▁무역	-5214
▁미용	-5215
▁보장	-5216
▁분이	-5217
▁송부	-5218
▁시행	-5219
▁애완	-5220
▁채널	-5221
▁충전	-5222
▁협력	-5223
하여야	-5224
▁가나요	-5225
▁데려다	-5226
▁설명을	-5227
▁오사카	-5228
▁은행에	-5229
▁좋아할	-5230
▁해주는	-5231
▁휴식을	-5232
▁기본적인	-5233
▁동영상을	-5234
▁안전하게	-5235
▁진행하는	-5236
▁확인해보	-5237
cm	-5238
▁딜	-5239
방을	-5240
산이	-5241
서와	-5242
위로	-5243
파크	-5244
▁가자	-5245
▁구워	-5246
▁기름	-5247
▁기여	-5248
▁긴급	-5249
▁나요	-5250
▁눌러	-5251
▁데이	-5252
▁말도	-5253
▁메모	-5254
▁모듈	-5255
▁모른	-5256
▁무사	-5257
▁블루	-5258
▁서명	-5259
▁어깨	-5260
▁요새	-5261
▁의한	-5262
▁전송	-5263
▁줄여	-5264
▁책의	-5265
▁팀은	-5266
고기를	-5267
하려는	-5268
했다면	-5269
▁가게에	-5270
▁가져가	-5271
▁계획은	-5272
▁광고를	-5273
▁났어요	-5274
▁단순히	-5275
▁똑같이	-5276
▁뜨거운	-5277
▁세계의	-5278
▁쇼핑을	-5279
▁신용카	-5280
▁싶다고	-5281
▁안전한	-5282
▁올라가	-5283
▁위험한	-5284
▁있을지	-5285
▁주제를	-5286
▁진행을	-5287
▁쪽으로	-5288
▁첨부파	-5289
▁취미는	-5290
▁플랫폼	-5291
▁필요해	-5292
▁한국은	-5293
▁행동은	-5294
▁같은데요	-5295
▁만들어요	-5296
▁사이즈가	-5297
▁여러분은	-5298
▁만들었어요	-5299
om	-5300
▁꼼	-5301
▁엠	-5302
▁윈	-5303
가로	-5304
그래	-5305
동에	-5306
드려	-5307
산에	-5308
해진	-5309
▁60	-5310
▁것만	-5311
▁기사	-5312
▁길에	-5313
▁날을	-5314
▁내내	-5315
▁늘어	-5316
▁돼지	-5317
▁마주	-5318
▁멈추	-5319
▁모아	-5320
▁뭐야	-5321
▁미니	-5322
▁배치	-5323
▁설립	-5324
▁어쨌	-5325
▁영웅	-5326
▁우승	-5327
▁워크	-5328
▁이혼	-5329
▁인연	-5330
▁책이	-5331
▁초에	-5332
▁태권	-5333
▁플라	-5334
▁핵심	-5335
되나요	-5336
인데요	-5337
인들은	-5338
▁관광객	-5339
▁그러한	-5340
▁냄새가	-5341
▁뛰어난	-5342
▁식으로	-5343
▁외에도	-5344
▁장소는	-5345
▁장점이	-5346
▁전화가	-5347
▁청소를	-5348
▁확인이	-5349
▁100%	-5350
▁만들어서	-5351
▁보여주고	-5352
▁아닌가요	-5353
▁영수증을	-5354
▁완벽하게	-5355
▁자신감을	-5356
▁체크아웃	-5357
ed	-5358
▁뚜	-5359
▁폰	-5360
겠지	-5361
링을	-5362
사한	-5363
안에	-5364
집을	-5365
하나	-5366
해질	-5367
▁감소	-5368
▁객실	-5369
▁괴롭	-5370
▁납품	-5371
▁내고	-5372
▁대회	-5373
▁도입	-5374
▁디저	-5375
▁떠오	-5376
▁마셔	-5377
▁배를	-5378
▁세금	-5379
▁세일	-5380
▁시즌	-5381
▁아시	-5382
▁연애	-5383
▁유효	-5384
▁있길	-5385
▁자야	-5386
▁잘해	-5387
▁종료	-5388
▁질병	-5389
니까요	-5390
되었다	-5391
▁Con	-5392
▁거래처	-5393
▁것이며	-5394
▁나누어	-5395
▁도착한	-5396
▁디지털	-5397
▁따르면	-5398
▁발생할	-5399
▁생겨서	-5400
▁아세요	-5401
▁열리는	-5402
▁영어는	-5403
▁지역에	-5404
▁플레이	-5405
▁호텔로	-5406
▁힘들게	-5407
더라고요	-5408
▁않습니까	-5409
▁어떨까요	-5410
▁자격증을	-5411
▁좋아해서	-5412
▁지하철을	-5413
▁해결하기	-5414
▁도착했어요	-5415
▁얼마입니까	-5416
▁필리핀에서	-5417
▁갤	-5418
▁빙	-5419
▁뽀	-5420
▁섹	-5421
계획	-5422
관리	-5423
들만	-5424
력과	-5425
미널	-5426
부가	-5427
부는	-5428
부의	-5429
분간	-5430
율을	-5431
질의	-5432
집이	-5433
짜리	-5434
히는	-5435
▁감자	-5436
▁거지	-5437
▁급여	-5438
▁내리	-5439
▁들려	-5440
▁샐러	-5441
▁수신	-5442
▁앨범	-5443
▁오게	-5444
▁올리	-5445
▁입은	-5446
▁정의	-5447
▁종목	-5448
▁중이	-5449
▁첫째	-5450
▁코팅	-5451
▁클래	-5452
▁통보	-5453
▁통역	-5454
▁편지	-5455
▁하셨	-5456
기에는	-5457
줬어요	-5458
▁것이라	-5459
▁그것의	-5460
▁그리스	-5461
▁마시는	-5462
▁만나면	-5463
▁맞아요	-5464
▁샌드위	-5465
▁승인을	-5466
▁시작한	-5467
▁어려울	-5468
▁여부를	-5469
▁연락할	-5470
▁오류가	-5471
▁유일한	-5472
▁일정은	-5473
▁있네요	-5474
▁직업이	-5475
▁친절한	-5476
▁행동이	-5477
만으로도	-5478
▁사랑해요	-5479
▁사용해야	-5480
▁여기에서	-5481
▁은행에서	-5482
▁지금부터	-5483
▁케이크를	-5484
▁편입니다	-5485
▁피곤해서	-5486
했었습니다	-5487
▁마찬가지로	-5488
▁상태입니다	-5489
▁업그레이드	-5490
▁X	-5491
▁곰	-5492
▁덮	-5493
▁멕	-5494
▁십	-5495
▁씁	-5496
▁큽	-5497
▁헌	-5498
▁획	-5499
개는	-5500
년을	-5501
댓글	-5502
드민	-5503
스틱	-5504
시킨	-5505
용이	-5506
재가	-5507
치게	-5508
포를	-5509
화에	-5510
▁갈게	-5511
▁개봉	-5512
▁건에	-5513
▁공무	-5514
▁기쁨	-5515
▁라인	-5516
▁메인	-5517
▁멕시	-5518
▁센터	-5519
▁솔루	-5520
▁수요	-5521
▁식품	-5522
▁어땠	-5523
▁인공	-5524
▁진실	-5525
▁진지	-5526
▁진학	-5527
▁취급	-5528
▁희생	-5529
이기도	-5530
▁DHL	-5531
▁가능할	-5532
▁가지를	-5533
▁걸어서	-5534
▁구매한	-5535
▁나보다	-5536
▁도면을	-5537
▁들어간	-5538
▁미래의	-5539
▁변경된	-5540
▁사실은	-5541
▁사진도	-5542
▁사항에	-5543
▁살면서	-5544
▁생기면	-5545
▁실력을	-5546
▁아들은	-5547
▁아파트	-5548
▁의사가	-5549
▁인사를	-5550
▁직장을	-5551
▁치료를	-5552
▁필요로	-5553
▁아니라고	-5554
▁아이들과	-5555
▁않았지만	-5556
▁언제부터	-5557
▁한국어를	-5558
▁노력합니다	-5559
▁누군가에게	-5560
▁많았습니다	-5561
기만	-5562
란색	-5563
러가	-5564
마를	-5565
물로	-5566
음은	-5567
100	-5568
▁IT	-5569
▁가깝	-5570
▁가벼	-5571
▁교회	-5572
▁꿈에	-5573
▁날은	-5574
▁다해	-5575
▁답답	-5576
▁대처	-5577
▁드려	-5578
▁등에	-5579
▁마라	-5580
▁모여	-5581
▁바랄	-5582
▁바퀴	-5583
▁뿐만	-5584
▁삶에	-5585
▁성능	-5586
▁소셜	-5587
▁속의	-5588
▁없게	-5589
▁연속	-5590
▁옮겨	-5591
▁유기	-5592
▁인종	-5593
▁임신	-5594
▁잘할	-5595
▁전환	-5596
▁지났	-5597
▁지낼	-5598
▁진출	-5599
▁차단	-5600
▁출신	-5601
▁컨셉	-5602
▁풍경	-5603
▁화학	-5604
되는지	-5605
드민턴	-5606
랐어요	-5607
주시면	-5608
▁199	-5609
▁300	-5610
▁가까워	-5611
▁게임은	-5612
▁나와서	-5613
▁독특한	-5614
▁들어서	-5615
▁말씀을	-5616
▁맞는지	-5617
▁미치는	-5618
▁부끄러	-5619
▁생활에	-5620
▁세계를	-5621
▁스크린	-5622
▁싶다면	-5623
▁안타깝	-5624
▁언제든	-5625
▁영화에	-5626
▁요금이	-5627
▁음악은	-5628
▁저렴한	-5629
▁학생은	-5630
▁회의를	-5631
겼습니다	-5632
▁가족들이	-5633
▁말이에요	-5634
▁메이크업	-5635
▁뿐입니다	-5636
▁상황에서	-5637
▁아버지의	-5638
▁자동으로	-5639
▁좋아하기	-5640
▁편이에요	-5641
받았습니다	-5642
▁우리나라는	-5643
▁판매합니다	-5644
▁아르바이트를	-5645
▁핫	-5646
보니	-5647
스턴	-5648
▁간편	-5649
▁그릇	-5650
▁멋있	-5651
▁바빴	-5652
▁신호	-5653
▁아뇨	-5654
▁얻기	-5655
▁인지	-5656
▁주어	-5657
▁찍고	-5658
▁채소	-5659
▁취득	-5660
▁통관	-5661
▁편이	-5662
▁평화	-5663
▁표를	-5664
▁피자	-5665
▁할까	-5666
베이터	-5667
소에서	-5668
하시길	-5669
▁강력한	-5670
▁개인의	-5671
▁걸려요	-5672
▁그들과	-5673
▁기뻐요	-5674
▁깨끗한	-5675
▁나라를	-5676
▁노트북	-5677
▁달콤한	-5678
▁당신네	-5679
▁마침내	-5680
▁벗어나	-5681
▁보내야	-5682
▁비자를	-5683
▁삽니다	-5684
▁손으로	-5685
▁아빠가	-5686
▁옵니다	-5687
▁위치를	-5688
▁일들이	-5689
▁지내는	-5690
▁환경에	-5691
▁것인가요	-5692
▁부드럽게	-5693
▁불가능한	-5694
▁생겼어요	-5695
▁아버지는	-5696
▁일어나는	-5697
▁저희에게	-5698
▁긍정적으로	-5699
▁말해주세요	-5700
▁생겼습니다	-5701
▁요청했습니다	-5702
▁알려드리겠습니다	-5703
im	-5704
km	-5705
os	-5706
▁묘	-5707
감과	-5708
니아	-5709
로우	-5710
명한	-5711
보면	-5712
부로	-5713
주면	-5714
주지	-5715
쯤에	-5716
하진	-5717
향을	-5718
▁꽃을	-5719
▁남을	-5720
▁내는	-5721
▁답을	-5722
▁대여	-5723
▁댓글	-5724
▁무리	-5725
▁보온	-5726
▁사망	-5727
▁사양	-5728
▁소속	-5729
▁실내	-5730
▁쓰여	-5731
▁얻은	-5732
▁우주	-5733
▁운임	-5734
▁이쁘	-5735
▁이태	-5736
▁전반	-5737
▁종이	-5738
▁준다	-5739
▁한가	-5740
겼어요	-5741
리에서	-5742
웁니다	-5743
하다가	-5744
하셔서	-5745
했었어	-5746
▁가족의	-5747
▁담당자	-5748
▁말라고	-5749
▁말레이	-5750
▁무사히	-5751
▁보내면	-5752
▁불편한	-5753
▁서류가	-5754
▁조용한	-5755
▁질문이	-5756
▁코드를	-5757
▁판매를	-5758
▁프로필	-5759
▁고양이를	-5760
▁그곳에는	-5761
▁당신들이	-5762
▁만들어진	-5763
▁목적으로	-5764
▁사용하면	-5765
▁쓰레기를	-5766
▁없습니까	-5767
▁지속해서	-5768
▁사무실에서	-5769
▁사진입니다	-5770
▁스마트폰을	-5771
30	-5772
he	-5773
▁멜	-5774
▁힐	-5775
로워	-5776
률이	-5777
분의	-5778
오고	-5779
집에	-5780
한다	-5781
▁결석	-5782
▁많을	-5783
▁믿지	-5784
▁배출	-5785
▁봐서	-5786
▁뿌듯	-5787
▁슬프	-5788
▁아웃	-5789
▁연말	-5790
▁월드	-5791
▁이겨	-5792
▁촉촉	-5793
구에서	-5794
었는지	-5795
▁10%	-5796
▁기업의	-5797
▁답장이	-5798
▁당신에	-5799
▁먹어도	-5800
▁목적은	-5801
▁문자를	-5802
▁미디어	-5803
▁버스가	-5804
▁번호가	-5805
▁번호는	-5806
▁변화가	-5807
▁상품의	-5808
▁소프트	-5809
▁시간과	-5810
▁싶다는	-5811
▁엄마의	-5812
▁역사를	-5813
▁영수증	-5814
▁올해는	-5815
▁인스타	-5816
▁일어난	-5817
▁정보는	-5818
▁준비할	-5819
▁즐기는	-5820
▁처음에	-5821
▁출장을	-5822
▁큽니다	-5823
▁표현을	-5824
▁필요는	-5825
▁하므로	-5826
▁배드민턴	-5827
▁생각에는	-5828
▁스케줄이	-5829
▁예약하고	-5830
▁외국인이	-5831
▁인생에서	-5832
▁한국어로	-5833
스럽습니다	-5834
▁보내주시기	-5835
▁세계적으로	-5836
▁얼마인가요	-5837
▁있으신가요	-5838
▁하나입니다	-5839
▁확인했어요	-5840
ot	-5841
▁Y	-5842
▁띄	-5843
▁쌍	-5844
▁쥐	-5845
국을	-5846
기술	-5847
나무	-5848
동을	-5849
러스	-5850
안이	-5851
으시	-5852
▁개가	-5853
▁교훈	-5854
▁꼼꼼	-5855
▁끝에	-5856
▁날에	-5857
▁많기	-5858
▁반죽	-5859
▁보람	-5860
▁보조	-5861
▁불행	-5862
▁비누	-5863
▁비빔	-5864
▁색을	-5865
▁색이	-5866
▁설문	-5867
▁신속	-5868
▁신중	-5869
▁연출	-5870
▁오리	-5871
▁왔다	-5872
▁자살	-5873
▁장기	-5874
▁지식	-5875
▁초기	-5876
▁통신	-5877
▁편견	-5878
▁할게	-5879
▁허용	-5880
달러를	-5881
▁거리에	-5882
▁경기장	-5883
▁나라는	-5884
▁대중교	-5885
▁돌아갈	-5886
▁매뉴얼	-5887
▁모니터	-5888
▁방법에	-5889
▁번역을	-5890
▁사랑할	-5891
▁않았을	-5892
▁어쨌든	-5893
▁일들을	-5894
▁제공할	-5895
▁조용히	-5896
▁찍어서	-5897
▁평소에	-5898
▁공항으로	-5899
▁노력해야	-5900
▁도서관에	-5901
▁봉사활동	-5902
▁부모님과	-5903
▁부모님의	-5904
▁시작해요	-5905
▁이름으로	-5906
▁이야기가	-5907
▁이해하지	-5908
▁좋겠네요	-5909
▁준비해야	-5910
▁기원합니다	-5911
▁말레이시아	-5912
▁엘리베이터	-5913
▁인터넷으로	-5914
▁추천합니다	-5915
▁확인해주세요	-5916
.0	-5917
11	-5918
▁.	-5919
▁묶	-5920
▁캡	-5921
돼서	-5922
되며	-5923
롭고	-5924
성의	-5925
우면	-5926
우지	-5927
탕을	-5928
티브	-5929
ion	-5930
▁강조	-5931
▁구멍	-5932
▁끝날	-5933
▁대형	-5934
▁도망	-5935
▁도울	-5936
▁동성	-5937
▁되니	-5938
▁떠올	-5939
▁만화	-5940
▁많다	-5941
▁메이	-5942
▁미친	-5943
▁방과	-5944
▁배웠	-5945
▁불법	-5946
▁살기	-5947
▁삶이	-5948
▁삼촌	-5949
▁세트	-5950
▁승객	-5951
▁시키	-5952
▁써야	-5953
▁찍을	-5954
▁천연	-5955
▁추운	-5956
▁팀원	-5957
▁하실	-5958
▁흰색	-5959
볼게요	-5960
었다는	-5961
▁가끔은	-5962
▁같다고	-5963
▁검은색	-5964
▁경기가	-5965
▁경제적	-5966
▁교회에	-5967
▁귀하의	-5968
▁그만두	-5969
▁기존에	-5970
▁다음은	-5971
▁대화가	-5972
▁되기를	-5973
▁맥주를	-5974
▁물어봐	-5975
▁바다를	-5976
▁생일이	-5977
▁여유가	-5978
▁운동은	-5979
▁이익을	-5980
▁있는가	-5981
▁자체가	-5982
▁작업은	-5983
▁재밌는	-5984
▁지원을	-5985
▁찾아가	-5986
▁추억이	-5987
▁친구로	-5988
▁학교는	-5989
▁행복할	-5990
▁드라마를	-5991
▁디자인이	-5992
▁세계적인	-5993
▁승무원이	-5994
▁알려주면	-5995
▁여름방학	-5996
▁영화에서	-5997
▁함께하는	-5998
▁기본적으로	-5999
▁대학교에서	-6000
▁낚	-6001
력에	-6002
리포	-6003
업에	-6004
전은	-6005
체가	-6006
체의	-6007
한데	-6008
▁45	-6009
▁IP	-6010
▁고추	-6011
▁공을	-6012
▁깊이	-6013
▁끌어	-6014
▁대상	-6015
▁리조	-6016
▁바나	-6017
▁붙어	-6018
▁살짝	-6019
▁세종	-6020
▁수령	-6021
▁스캔	-6022
▁않다	-6023
▁없애	-6024
▁여섯	-6025
▁와인	-6026
▁용돈	-6027
▁우수	-6028
▁웃는	-6029
▁제어	-6030
▁중단	-6031
▁채용	-6032
▁특허	-6033
▁파손	-6034
▁혜택	-6035
▁흡연	-6036
에게는	-6037
▁귀사에	-6038
▁김치를	-6039
▁끝내고	-6040
▁동물을	-6041
▁되어있	-6042
▁만나자	-6043
▁무조건	-6044
▁부품을	-6045
▁사용이	-6046
▁아이는	-6047
▁아파요	-6048
▁앉아서	-6049
▁얼굴에	-6050
▁영감을	-6051
▁요리는	-6052
▁장비를	-6053
▁장점은	-6054
▁전에는	-6055
▁제안을	-6056
▁조언을	-6057
▁즐기고	-6058
해줍니다	-6059
▁고등학생	-6060
▁구성되어	-6061
▁생각하면	-6062
▁선생님을	-6063
▁아버지가	-6064
▁어떤가요	-6065
▁일반적인	-6066
▁중심으로	-6067
▁학생들의	-6068
▁만났습니다	-6069
▁아이스크림	-6070
▁음식입니다	-6071
▁다녀왔습니다	-6072
us	-6073
구로	-6074
다른	-6075
바로	-6076
와는	-6077
치기	-6078
통이	-6079
▁간절	-6080
▁공원	-6081
▁달이	-6082
▁당사	-6083
▁딸은	-6084
▁먹기	-6085
▁명령	-6086
▁뭔지	-6087
▁방은	-6088
▁선배	-6089
▁손상	-6090
▁수분	-6091
▁숙제	-6092
▁순서	-6093
▁스펙	-6094
▁야간	-6095
▁야외	-6096
▁영혼	-6097
▁원해	-6098
▁유전	-6099
▁잊고	-6100
▁집단	-6101
▁찍는	-6102
▁차는	-6103
▁철저	-6104
▁쿠폰	-6105
▁팀을	-6106
▁학과	-6107
▁확대	-6108
라이언	-6109
▁결혼할	-6110
▁고민을	-6111
▁급하게	-6112
▁동영상	-6113
▁두려워	-6114
▁문화가	-6115
▁복잡한	-6116
▁상태를	-6117
▁스카이	-6118
▁애플리	-6119
▁액세서	-6120
▁없었다	-6121
▁요금은	-6122
▁유튜브	-6123
▁이들은	-6124
▁이슈가	-6125
▁인생에	-6126
▁있었을	-6127
▁전달해	-6128
▁정신이	-6129
▁중으로	-6130
▁편안한	-6131
하였으며	-6132
▁높습니다	-6133
▁당신들의	-6134
▁모두에게	-6135
▁어려워요	-6136
▁여러분이	-6137
▁오늘까지	-6138
▁이해하는	-6139
▁카메라를	-6140
▁보여줍니다	-6141
▁친구입니다	-6142
▁노력하겠습니다	-6143
▁f	-6144
▁꿀	-6145
▁낸	-6146
▁늙	-6147
▁멍	-6148
▁찌	-6149
게임	-6150
물과	-6151
배우	-6152
소는	-6153
편에	-6154
▁결코	-6155
▁계정	-6156
▁공사	-6157
▁낭비	-6158
▁다를	-6159
▁맞아	-6160
▁매번	-6161
▁밤을	-6162
▁사야	-6163
▁상해	-6164
▁섭취	-6165
▁수용	-6166
▁슬픔	-6167
▁시대	-6168
▁아팠	-6169
▁어딘	-6170
▁열차	-6171
▁와야	-6172
▁왔을	-6173
▁웃고	-6174
▁월미	-6175
▁일치	-6176
▁재생	-6177
▁커서	-6178
▁컨디	-6179
▁파괴	-6180
▁해산	-6181
▁헬스	-6182
▁회계	-6183
거리가	-6184
까지만	-6185
르세요	-6186
▁각자의	-6187
▁결제를	-6188
▁경우는	-6189
▁계약서	-6190
▁나만의	-6191
▁마이크	-6192
▁말하기	-6193
▁멕시코	-6194
▁못하게	-6195
▁박물관	-6196
▁반대로	-6197
▁보냈어	-6198
▁세상이	-6199
▁애완동	-6200
▁연구를	-6201
▁우유를	-6202
▁일본은	-6203
▁자격증	-6204
▁정해진	-6205
▁지식을	-6206
▁차이를	-6207
▁택시를	-6208
▁포함된	-6209
▁하나로	-6210
▁형태로	-6211
시다시피	-6212
▁나왔어요	-6213
▁누군가가	-6214
▁다음에는	-6215
▁보였어요	-6216
▁사람들도	-6217
▁사람이야	-6218
▁일상생활	-6219
▁적당량을	-6220
▁중국에서	-6221
▁Contr	-6222
▁되겠습니다	-6223
▁무엇보다도	-6224
▁애니메이션	-6225
▁프로젝트에	-6226
ad	-6227
겹살	-6228
금액	-6229
봤어	-6230
비에	-6231
역이	-6232
ack	-6233
ing	-6234
▁가만	-6235
▁갖게	-6236
▁구할	-6237
▁나에	-6238
▁높이	-6239
▁대만	-6240
▁로맨	-6241
▁만드	-6242
▁많지	-6243
▁보상	-6244
▁생명	-6245
▁시일	-6246
▁연필	-6247
▁오프	-6248
▁옵션	-6249
▁울고	-6250
▁절약	-6251
▁정기	-6252
▁정직	-6253
▁증거	-6254
▁차에	-6255
▁찾지	-6256
▁추진	-6257
▁측면	-6258
네시아	-6259
되어서	-6260
된다고	-6261
자리에	-6262
자마자	-6263
해보고	-6264
▁가지가	-6265
▁가지는	-6266
▁간단히	-6267
▁고기를	-6268
▁과거에	-6269
▁기분을	-6270
▁나오지	-6271
▁모델은	-6272
▁문제의	-6273
▁바꾸고	-6274
▁바닥에	-6275
▁브라질	-6276
▁빨간색	-6277
▁사고를	-6278
▁성적을	-6279
▁씁니다	-6280
▁않다고	-6281
▁않을까	-6282
▁이루고	-6283
▁자기가	-6284
▁재료를	-6285
▁주소가	-6286
▁중에는	-6287
▁크기가	-6288
▁특별히	-6289
▁평범한	-6290
▁포인트	-6291
됐습니다	-6292
▁괜찮다면	-6293
▁기다려야	-6294
▁내년에는	-6295
▁만나기로	-6296
▁사람으로	-6297
▁서비스가	-6298
▁아이템을	-6299
▁와이파이	-6300
▁이야기는	-6301
▁인천에서	-6302
▁초콜릿을	-6303
▁해수욕장	-6304
▁확인하여	-6305
▁내부적으로	-6306
▁이야기하고	-6307
▁불가능합니다	-6308
▁l	-6309
▁빗	-6310
▁휘	-6311
겠네	-6312
계가	-6313
국제	-6314
끄럽	-6315
년의	-6316
달에	-6317
라를	-6318
래도	-6319
로에	-6320
시설	-6321
치에	-6322
터로	-6323
해준	-6324
▁80	-6325
▁건데	-6326
▁기부	-6327
▁나갔	-6328
▁낯선	-6329
▁노는	-6330
▁농구	-6331
▁다리	-6332
▁때때	-6333
▁떠날	-6334
▁세팅	-6335
▁수상	-6336
▁심한	-6337
▁영문	-6338
▁예배	-6339
▁의지	-6340
▁인테	-6341
▁입는	-6342
▁추출	-6343
▁충족	-6344
▁폐기	-6345
▁해가	-6346
시키고	-6347
젠테이	-6348
▁가난한	-6349
▁가지의	-6350
▁감동을	-6351
▁강의를	-6352
▁갖추고	-6353
▁것이다	-6354
▁귀사와	-6355
▁나오면	-6356
▁나타나	-6357
▁날씨는	-6358
▁드세요	-6359
▁무서운	-6360
▁버스는	-6361
▁뿐이야	-6362
▁사소한	-6363
▁생겼어	-6364
▁수영을	-6365
▁아래에	-6366
▁업로드	-6367
▁옆에서	-6368
▁요즘에	-6369
▁적합한	-6370
▁주어진	-6371
▁줄어들	-6372
▁치킨을	-6373
▁태어난	-6374
▁파스타	-6375
▁한국과	-6376
▁했나요	-6377
▁현재의	-6378
▁희망을	-6379
봤습니다	-6380
▁교수님의	-6381
▁그것들은	-6382
▁노력하는	-6383
▁노력해요	-6384
▁들어가는	-6385
▁맞습니다	-6386
▁부모님을	-6387
▁비행기가	-6388
▁사이즈를	-6389
▁살아가는	-6390
▁얘기하고	-6391
▁이야기할	-6392
▁있는데요	-6393
▁주었어요	-6394
▁피아노를	-6395
▁사랑스러운	-6396
▁인도네시아	-6397
▁Control	-6398
▁v	-6399
▁깎	-6400
▁땀	-6401
▁몽	-6402
▁좁	-6403
▁쭉	-6404
▁콩	-6405
간의	-6406
값을	-6407
국이	-6408
님께	-6409
리러	-6410
말로	-6411
우러	-6412
은행	-6413
줬어	-6414
지길	-6415
차별	-6416
품은	-6417
해라	-6418
▁AA	-6419
▁가로	-6420
▁가보	-6421
▁결합	-6422
▁곁에	-6423
▁구축	-6424
▁끝이	-6425
▁남지	-6426
▁다소	-6427
▁들여	-6428
▁목욕	-6429
▁발효	-6430
▁번거	-6431
▁보습	-6432
▁설득	-6433
▁세미	-6434
▁어색	-6435
▁운행	-6436
▁원칙	-6437
▁유학	-6438
▁은퇴	-6439
▁응답	-6440
▁인류	-6441
▁잊을	-6442
▁재킷	-6443
▁조리	-6444
▁조카	-6445
▁줄일	-6446
▁초과	-6447
▁최신	-6448
▁출력	-6449
▁침대	-6450
▁코스	-6451
▁하느	-6452
▁하얀	-6453
사에게	-6454
시간이	-6455
이므로	-6456
자들을	-6457
▁가격과	-6458
▁갔다가	-6459
▁과정이	-6460
▁나가는	-6461
▁나아가	-6462
▁누구도	-6463
▁늘어나	-6464
▁라디오	-6465
▁메뉴는	-6466
▁모르고	-6467
▁몰랐어	-6468
▁무서워	-6469
▁미세먼	-6470
▁사과를	-6471
▁사실이	-6472
▁생각한	-6473
▁식당은	-6474
▁싶으면	-6475
▁아이들	-6476
▁엄마를	-6477
▁없는지	-6478
▁여성의	-6479
▁열정을	-6480
▁요금을	-6481
▁좋았을	-6482
▁하거나	-6483
▁화이트	-6484
▁2018	-6485
▁기반으로	-6486
▁대학에서	-6487
▁도와주는	-6488
▁무언가를	-6489
▁보내드리	-6490
▁보여주는	-6491
▁사용하기	-6492
▁서로에게	-6493
▁시스템에	-6494
▁시장에서	-6495
▁싫어해요	-6496
▁알아보고	-6497
▁앞으로의	-6498
▁이해하기	-6499
▁필요하면	-6500
▁해당하는	-6501
드렸습니다	-6502
▁가능합니까	-6503
▁괜찮습니다	-6504
▁나왔습니다	-6505
▁부족합니다	-6506
▁사이트에서	-6507
▁않겠습니다	-6508
▁요리입니다	-6509
PI	-6510
▁돋	-6511
▁뻔	-6512
▁쫓	-6513
▁팁	-6514
님을	-6515
데이	-6516
라우	-6517
받아	-6518
산은	-6519
수로	-6520
씨가	-6521
항공	-6522
▁29	-6523
▁교류	-6524
▁꽃이	-6525
▁꿈꾸	-6526
▁나지	-6527
▁내야	-6528
▁늦을	-6529
▁단백	-6530
▁되게	-6531
▁라고	-6532
▁분류	-6533
▁불렀	-6534
▁안심	-6535
▁위와	-6536
▁윈도	-6537
▁자라	-6538
▁장르	-6539
▁점에	-6540
▁제발	-6541
▁종합	-6542
▁지시	-6543
▁창조	-6544
▁쳐다	-6545
▁탑승	-6546
▁했기	-6547
▁확장	-6548
해주면	-6549
▁고객을	-6550
▁남자와	-6551
▁다녀온	-6552
▁들어갔	-6553
▁때때로	-6554
▁마음의	-6555
▁말하면	-6556
▁보려고	-6557
▁봤는데	-6558
▁사고가	-6559
▁사랑의	-6560
▁사이의	-6561
▁수술을	-6562
▁아침을	-6563
▁여행할	-6564
▁원인은	-6565
▁이내에	-6566
▁장소가	-6567
▁절대로	-6568
▁질문을	-6569
▁참여할	-6570
▁축구를	-6571
▁파일로	-6572
되었는지	-6573
셨습니까	-6574
▁그것들을	-6575
▁기다리는	-6576
▁누군가를	-6577
▁메시지가	-6578
▁보내주실	-6579
▁분야에서	-6580
▁아이들의	-6581
▁에너지를	-6582
▁필요하지	-6583
▁오른쪽으로	-6584
▁인스타그램	-6585
▁인터넷에서	-6586
▁첨부합니다	-6587
▁부탁드리겠습니다	-6588
ED	-6589
OS	-6590
ct	-6591
▁싼	-6592
경기	-6593
놓고	-6594
님은	-6595
린다	-6596
모델	-6597
사이	-6598
신이	-6599
작업	-6600
▁AS	-6601
▁같지	-6602
▁공감	-6603
▁기울	-6604
▁납기	-6605
▁도메	-6606
▁둘이	-6607
▁뒤로	-6608
▁때나	-6609
▁많았	-6610
▁무례	-6611
▁발명	-6612
▁빵을	-6613
▁상기	-6614
▁새우	-6615
▁색상	-6616
▁소식	-6617
▁송도	-6618
▁수강	-6619
▁스미	-6620
▁싱글	-6621
▁아동	-6622
▁오신	-6623
▁온도	-6624
▁유아	-6625
▁이렇	-6626
▁이민	-6627
▁입원	-6628
▁좌석	-6629
▁지어	-6630
▁체결	-6631
▁탈출	-6632
▁태풍	-6633
▁터키	-6634
▁특정	-6635
▁행정	-6636
었나요	-6637
인들의	-6638
졌으면	-6639
▁간다면	-6640
▁건강이	-6641
▁것인가	-6642
▁괜찮을	-6643
▁기술이	-6644
▁눈으로	-6645
▁당분간	-6646
▁디즈니	-6647
▁맞춰서	-6648
▁물품을	-6649
▁바이올	-6650
▁변하지	-6651
▁별도로	-6652
▁보내기	-6653
▁상태로	-6654
▁서울의	-6655
▁알려져	-6656
▁여자의	-6657
▁원하고	-6658
▁조건을	-6659
▁종류가	-6660
▁주제로	-6661
▁줬으면	-6662
▁질문에	-6663
▁찾으러	-6664
▁포스터	-6665
▁표현할	-6666
▁가게에서	-6667
▁건강하게	-6668
▁그중에서	-6669
▁대상으로	-6670
▁드릴까요	-6671
▁만들어야	-6672
▁선생님의	-6673
▁여기까지	-6674
▁편안하게	-6675
▁표현하는	-6676
▁하는데요	-6677
▁남자친구가	-6678
▁여자친구가	-6679
▁필요하다면	-6680
▁아이스크림을	-6681
▁이야기입니다	-6682
18	-6683
▁셰	-6684
▁쏟	-6685
▁핀	-6686
겠니	-6687
늦게	-6688
로가	-6689
서비	-6690
졌고	-6691
카락	-6692
▁CC	-6693
▁IS	-6694
▁갖다	-6695
▁그쪽	-6696
▁들지	-6697
▁딸을	-6698
▁레벨	-6699
▁무섭	-6700
▁반납	-6701
▁번만	-6702
▁번의	-6703
▁벌어	-6704
▁벽에	-6705
▁불평	-6706
▁서둘	-6707
▁스피	-6708
▁승리	-6709
▁실용	-6710
▁심심	-6711
▁예매	-6712
▁유익	-6713
▁이젠	-6714
▁주목	-6715
▁토익	-6716
▁편한	-6717
▁휴일	-6718
거예요	-6719
되었고	-6720
력으로	-6721
사운드	-6722
속에서	-6723
에서만	-6724
제품을	-6725
해주신	-6726
▁것이기	-6727
▁경우에	-6728
▁구매를	-6729
▁누구와	-6730
▁데리러	-6731
▁동생이	-6732
▁마사지	-6733
▁매력을	-6734
▁문화에	-6735
▁뭔가요	-6736
▁바나나	-6737
▁보여줄	-6738
▁사건이	-6739
▁살아가	-6740
▁안에는	-6741
▁예약한	-6742
▁원인을	-6743
▁유용한	-6744
▁작품은	-6745
▁잤어요	-6746
▁전화해	-6747
▁절차를	-6748
▁준다고	-6749
▁즐거워	-6750
▁첨부한	-6751
▁축하해	-6752
▁친구도	-6753
▁판매가	-6754
▁프라이	-6755
▁했다고	-6756
▁호텔은	-6757
▁회신을	-6758
▁견적서를	-6759
▁담당자가	-6760
▁듣습니다	-6761
▁머리카락	-6762
▁받아들이	-6763
▁분위기가	-6764
▁아무래도	-6765
▁이것으로	-6766
▁있으니까	-6767
▁카페에서	-6768
▁텔레비전	-6769
▁학생들을	-6770
▁도와주세요	-6771
▁리얼사운드	-6772
▁사용하세요	-6773
▁프레젠테이	-6774
▁학생입니다	-6775
ig	-6776
▁꽉	-6777
▁떼	-6778
▁캔	-6779
개로	-6780
드와	-6781
비의	-6782
사랑	-6783
세가	-6784
음에	-6785
임이	-6786
켓을	-6787
테일	-6788
할까	-6789
호텔	-6790
화는	-6791
▁가본	-6792
▁가죽	-6793
▁굳이	-6794
▁귀사	-6795
▁깨닫	-6796
▁누나	-6797
▁뉴질	-6798
▁로마	-6799
▁맡겨	-6800
▁모자	-6801
▁무한	-6802
▁바비	-6803
▁발휘	-6804
▁보라	-6805
▁부를	-6806
▁불을	-6807
▁소유	-6808
▁스노	-6809
▁스웨	-6810
▁시카	-6811
▁신분	-6812
▁신혼	-6813
▁원산	-6814
▁이슬	-6815
▁일만	-6816
▁임시	-6817
▁입사	-6818
▁주위	-6819
▁차로	-6820
▁카톡	-6821
▁틀림	-6822
면서도	-6823
픕니다	-6824
▁감정이	-6825
▁결과에	-6826
▁그림이	-6827
▁대화할	-6828
▁말아야	-6829
▁방향을	-6830
▁배송을	-6831
▁사회에	-6832
▁시간도	-6833
▁신선한	-6834
▁심하게	-6835
▁업무에	-6836
▁없는데	-6837
▁이사를	-6838
▁자료가	-6839
▁자유를	-6840
▁적당한	-6841
▁카드로	-6842
▁하시는	-6843
▁학생의	-6844
▁확인한	-6845
▁활성화	-6846
▁회사로	-6847
들이에요	-6848
사입니다	-6849
시킵니다	-6850
▁건강하고	-6851
▁것이라는	-6852
▁목소리를	-6853
▁발생하지	-6854
▁사이트에	-6855
▁사회에서	-6856
▁아프리카	-6857
▁않는다고	-6858
▁알려주길	-6859
▁요즘에는	-6860
▁우편으로	-6861
▁친절하게	-6862
▁판매하고	-6863
▁구체적으로	-6864
▁다녀왔어요	-6865
▁방법입니다	-6866
▁생각이에요	-6867
▁주겠습니다	-6868
12	-6869
od	-6870
▁g	-6871
▁둔	-6872
들께	-6873
방에	-6874
센트	-6875
셔츠	-6876
어의	-6877
였던	-6878
이버	-6879
주실	-6880
타운	-6881
프는	-6882
해줘	-6883
화의	-6884
▁고대	-6885
▁관찰	-6886
▁글쎄	-6887
▁김밥	-6888
▁넘게	-6889
▁넘버	-6890
▁덜어	-6891
▁도둑	-6892
▁마법	-6893
▁머릿	-6894
▁메세	-6895
▁물질	-6896
▁밤이	-6897
▁비롯	-6898
▁사기	-6899
▁사형	-6900
▁상업	-6901
▁설날	-6902
▁설레	-6903
▁소화	-6904
▁쉽고	-6905
▁스테	-6906
▁알바	-6907
▁여겨	-6908
▁와요	-6909
▁위협	-6910
▁인물	-6911
▁자본	-6912
▁자서	-6913
▁장착	-6914
▁재학	-6915
▁절반	-6916
▁정거	-6917
▁죽은	-6918
▁지각	-6919
▁지는	-6920
▁지적	-6921
▁최적	-6922
▁추측	-6923
▁하길	-6924
▁획득	-6925
▁갔었어	-6926
▁교통사	-6927
▁귀사가	-6928
▁그래야	-6929
▁기계를	-6930
▁노력이	-6931
▁다리를	-6932
▁로그인	-6933
▁마스터	-6934
▁만났어	-6935
▁만났을	-6936
▁변경이	-6937
▁분야에	-6938
▁블로그	-6939
▁사건을	-6940
▁사전에	-6941
▁새롭게	-6942
▁성공을	-6943
▁아프지	-6944
▁않았고	-6945
▁여기가	-6946
▁오기를	-6947
▁왔으면	-6948
▁인해서	-6949
▁일해요	-6950
▁있다가	-6951
▁지금의	-6952
▁지나가	-6953
▁지역의	-6954
▁진행될	-6955
▁첨부된	-6956
▁최소한	-6957
▁프로모	-6958
▁도착하지	-6959
▁따뜻하게	-6960
▁말하자면	-6961
▁샀습니다	-6962
▁상관없이	-6963
▁생각하기	-6964
▁아시나요	-6965
▁앞으로는	-6966
▁여자들은	-6967
▁외국인과	-6968
▁자신감이	-6969
▁가능할까요	-6970
▁문제입니다	-6971
▁얻었습니다	-6972
▁학생들에게	-6973
▁회사입니다	-6974
60	-6975
ap	-6976
ow	-6977
▁겹	-6978
▁냈	-6979
▁놔	-6980
▁멸	-6981
▁왠	-6982
단이	-6983
달을	-6984
던데	-6985
되길	-6986
불을	-6987
수와	-6988
운동	-6989
판에	-6990
▁가상	-6991
▁강림	-6992
▁강원	-6993
▁골라	-6994
▁나눌	-6995
▁드레	-6996
▁떠난	-6997
▁모래	-6998
▁무릎	-6999
▁문장	-7000
▁민감	-7001
▁버려	-7002
▁보완	-7003
▁비정	-7004
▁서서	-7005
▁셔틀	-7006
▁신입	-7007
▁암호	-7008
▁여보	-7009
▁왠지	-7010
▁의존	-7011
▁이별	-7012
▁인내	-7013
▁있나	-7014
▁자식	-7015
▁전날	-7016
▁타면	-7017
▁탄생	-7018
▁펼쳐	-7019
▁한정	-7020
▁해준	-7021
▁햇빛	-7022
년부터	-7023
되기를	-7024
드리며	-7025
해줄게	-7026
▁가게는	-7027
▁결제가	-7028
▁관리를	-7029
▁그때는	-7030
▁기능은	-7031
▁노래가	-7032
▁돌아와	-7033
▁모델을	-7034
▁못했어	-7035
▁보인다	-7036
▁서둘러	-7037
▁성과를	-7038
▁신경을	-7039
▁싶네요	-7040
▁아직은	-7041
▁안내해	-7042
▁없도록	-7043
▁오더를	-7044
▁온다고	-7045
▁입장을	-7046
▁자료는	-7047
▁중국어	-7048
▁지키지	-7049
▁찾아보	-7050
▁축제가	-7051
▁통화를	-7052
▁하나만	-7053
▁환불을	-7054
원이에요	-7055
▁갔었어요	-7056
▁귀사에서	-7057
▁났습니다	-7058
▁만들었어	-7059
▁모습으로	-7060
▁바이올린	-7061
▁사용되는	-7062
▁사용해서	-7063
▁생각하며	-7064
▁않았나요	-7065
▁자신에게	-7066
▁전화해서	-7067
▁추천해요	-7068
▁행복하고	-7069
▁기다리겠습니다	-7070
▁댄	-7071
▁랩	-7072
▁썰	-7073
▁앤	-7074
▁짝	-7075
▁캘	-7076
▁컸	-7077
가의	-7078
과를	-7079
국에	-7080
량은	-7081
르기	-7082
미터	-7083
어에	-7084
으신	-7085
주신	-7086
줄게	-7087
하라	-7088
학적	-7089
해지	-7090
500	-7091
▁90	-7092
▁CD	-7093
▁결심	-7094
▁곤란	-7095
▁구두	-7096
▁꺼내	-7097
▁놀아	-7098
▁더운	-7099
▁마리	-7100
▁무너	-7101
▁부딪	-7102
▁불쾌	-7103
▁서양	-7104
▁세안	-7105
▁소금	-7106
▁얼른	-7107
▁연관	-7108
▁운이	-7109
▁유의	-7110
▁이룰	-7111
▁임대	-7112
▁좌우	-7113
▁청년	-7114
▁초록	-7115
▁최선	-7116
▁치고	-7117
▁코드	-7118
▁표준	-7119
▁한복	-7120
사항을	-7121
적이지	-7122
▁거리를	-7123
▁기간을	-7124
▁되는데	-7125
▁되세요	-7126
▁되었을	-7127
▁떨어진	-7128
▁문제점	-7129
▁번이나	-7130
▁별도의	-7131
▁보았다	-7132
▁분위기	-7133
▁사업에	-7134
▁소개를	-7135
▁아빠는	-7136
▁않네요	-7137
▁언니가	-7138
▁영국의	-7139
▁영어에	-7140
▁예쁘게	-7141
▁오렌지	-7142
▁우산을	-7143
▁원활한	-7144
▁위해선	-7145
▁장난감	-7146
▁지난주	-7147
▁진행이	-7148
▁찾아서	-7149
▁터미널	-7150
▁하늘을	-7151
▁하루가	-7152
▁함께할	-7153
▁현상이	-7154
▁확실한	-7155
지입니다	-7156
하겠어요	-7157
해주시길	-7158
▁강아지는	-7159
▁공부해서	-7160
▁당신과의	-7161
▁많았어요	-7162
▁미국으로	-7163
▁보고서를	-7164
▁부릅니다	-7165
▁생각했어	-7166
▁엄마에게	-7167
▁여행하는	-7168
▁이용하고	-7169
▁이용하면	-7170
▁있었지만	-7171
▁조건으로	-7172
▁좋을까요	-7173
▁준비하는	-7174
▁진행되고	-7175
▁포인트를	-7176
▁내용입니다	-7177
▁이유입니다	-7178
▁조심하세요	-7179
▁효율적으로	-7180
▁발견했습니다	-7181
▁아름답습니다	-7182
VR	-7183
▁껍	-7184
▁붉	-7185
▁텍	-7186
▁틈	-7187
건을	-7188
관의	-7189
마디	-7190
매가	-7191
문의	-7192
보단	-7193
서의	-7194
세기	-7195
아를	-7196
어져	-7197
우기	-7198
월이	-7199
판이	-7200
하곤	-7201
하루	-7202
▁31	-7203
▁가공	-7204
▁간직	-7205
▁계곡	-7206
▁공기	-7207
▁금연	-7208
▁노인	-7209
▁동기	-7210
▁등산	-7211
▁딸기	-7212
▁목숨	-7213
▁무의	-7214
▁샀어	-7215
▁소파	-7216
▁속상	-7217
▁슬픈	-7218
▁식물	-7219
▁실력	-7220
▁양이	-7221
▁얻고	-7222
▁에센	-7223
▁원인	-7224
▁유머	-7225
▁유발	-7226
▁응급	-7227
▁입어	-7228
▁적혀	-7229
▁조작	-7230
▁주도	-7231
▁지니	-7232
▁짜증	-7233
▁처벌	-7234
▁카탈	-7235
▁태워	-7236
▁학원	-7237
면으로	-7238
선으로	-7239
시간에	-7240
주시기	-7241
학과에	-7242
▁가기로	-7243
▁공부에	-7244
▁공장에	-7245
▁기차를	-7246
▁나누고	-7247
▁단순한	-7248
▁대단한	-7249
▁들었다	-7250
▁마시면	-7251
▁모델의	-7252
▁문의를	-7253
▁뭐예요	-7254
▁미스터	-7255
▁믿어요	-7256
▁바라는	-7257
▁받았다	-7258
▁밤에는	-7259
▁변경할	-7260
▁보내요	-7261
▁봅시다	-7262
▁사용자	-7263
▁사회의	-7264
▁삼겹살	-7265
▁수정할	-7266
▁시원한	-7267
▁시험에	-7268
▁신뢰를	-7269
▁실시간	-7270
▁아닌지	-7271
▁용기를	-7272
▁인기를	-7273
▁있음을	-7274
▁재활용	-7275
▁좋네요	-7276
▁지갑을	-7277
▁티셔츠	-7278
▁하기로	-7279
▁해결해	-7280
▁화려한	-7281
▁힘들고	-7282
▁교환학생	-7283
▁깨끗하게	-7284
▁다운로드	-7285
▁대표하는	-7286
▁돌아오는	-7287
▁디자인은	-7288
▁못하지만	-7289
▁믿습니다	-7290
▁브랜드를	-7291
▁상대방의	-7292
▁소개하고	-7293
▁어려움을	-7294
▁요구하는	-7295
▁이것들은	-7296
▁존경하는	-7297
▁주실래요	-7298
▁카탈로그	-7299
▁피곤해요	-7300
▁후회하지	-7301
▁5,000	-7302
▁상황입니다	-7303
▁좋아하지만	-7304
▁애플리케이션	-7305
em	-7306
ir	-7307
▁끄	-7308
▁칸	-7309
▁핑	-7310
갈비	-7311
구의	-7312
는가	-7313
독교	-7314
등이	-7315
버거	-7316
소의	-7317
시죠	-7318
신저	-7319
유를	-7320
인트	-7321
했다	-7322
형이	-7323
ent	-7324
▁개는	-7325
▁거울	-7326
▁군대	-7327
▁기운	-7328
▁나름	-7329
▁너에	-7330
▁널리	-7331
▁반갑	-7332
▁부동	-7333
▁부평	-7334
▁불어	-7335
▁섹시	-7336
▁소방	-7337
▁손톱	-7338
▁순수	-7339
▁스탠	-7340
▁얻는	-7341
▁엑셀	-7342
▁열이	-7343
▁오로	-7344
▁이로	-7345
▁정정	-7346
▁주택	-7347
▁줄을	-7348
▁책상	-7349
▁체계	-7350
▁추워	-7351
▁토마	-7352
▁하이	-7353
▁흘러	-7354
까지의	-7355
역으로	-7356
했으니	-7357
▁123	-7358
▁가만히	-7359
▁갑시다	-7360
▁걸리는	-7361
▁겨울이	-7362
▁기독교	-7363
▁김치는	-7364
▁들으면	-7365
▁미끄러	-7366
▁새벽에	-7367
▁소년은	-7368
▁아쉬워	-7369
▁아이돌	-7370
▁여자와	-7371
▁오시면	-7372
▁음식에	-7373
▁의미는	-7374
▁이것의	-7375
▁이슬람	-7376
▁인생은	-7377
▁일하러	-7378
▁찾아야	-7379
▁키우는	-7380
▁피곤해	-7381
▁형태의	-7382
스러워요	-7383
▁계약서를	-7384
▁근처에서	-7385
▁다이어트	-7386
▁돌아다니	-7387
▁동일하게	-7388
▁들었는데	-7389
▁말했듯이	-7390
▁맛있어요	-7391
▁번째로는	-7392
▁비밀번호	-7393
▁사이트를	-7394
▁시스템이	-7395
▁시작하는	-7396
▁않는다는	-7397
▁여러분의	-7398
▁연락하는	-7399
▁운영하는	-7400
▁움직이는	-7401
▁인천공항	-7402
▁일자리를	-7403
▁일합니다	-7404
▁주문하고	-7405
▁지불해야	-7406
▁하더라도	-7407
▁하루하루	-7408
▁가겠습니다	-7409
▁목표입니다	-7410
▁발견했어요	-7411
▁보겠습니다	-7412
▁생각합니까	-7413
▁시작됩니다	-7414
▁어디인가요	-7415
▁요청했어요	-7416
▁친구들이랑	-7417
▁한국에서는	-7418
ST	-7419
▁샵	-7420
▁윗	-7421
간에	-7422
년도	-7423
득이	-7424
바닥	-7425
비용	-7426
선수	-7427
설을	-7428
션에	-7429
시지	-7430
왔던	-7431
유로	-7432
작용	-7433
체에	-7434
크림	-7435
킹을	-7436
확인	-7437
히고	-7438
▁2,	-7439
▁MC	-7440
▁Mr	-7441
▁개별	-7442
▁누락	-7443
▁단가	-7444
▁당첨	-7445
▁대전	-7446
▁데에	-7447
▁뚜껑	-7448
▁매너	-7449
▁반려	-7450
▁반짝	-7451
▁반찬	-7452
▁밝혀	-7453
▁벌레	-7454
▁변동	-7455
▁보존	-7456
▁보충	-7457
▁봄이	-7458
▁상을	-7459
▁선거	-7460
▁성숙	-7461
▁성인	-7462
▁손이	-7463
▁심리	-7464
▁씨가	-7465
▁올린	-7466
▁우려	-7467
▁의논	-7468
▁이력	-7469
▁이중	-7470
▁장래	-7471
▁전용	-7472
▁정식	-7473
▁지배	-7474
▁진정	-7475
▁착각	-7476
▁쿠키	-7477
▁타야	-7478
▁해낼	-7479
성으로	-7480
었다면	-7481
집에서	-7482
하게도	-7483
해주실	-7484
▁가벼운	-7485
▁간다고	-7486
▁갈까요	-7487
▁거리가	-7488
▁건물이	-7489
▁것들은	-7490
▁그곳을	-7491
▁그러고	-7492
▁달라요	-7493
▁동생은	-7494
▁드리고	-7495
▁들어온	-7496
▁만나기	-7497
▁말해줘	-7498
▁메뉴를	-7499
▁모자를	-7500
▁바비큐	-7501
▁바쁘게	-7502
▁받아요	-7503
▁발전을	-7504
▁방문해	-7505
▁방식이	-7506
▁방에서	-7507
▁분야의	-7508
▁사진의	-7509
▁생산을	-7510
▁선수가	-7511
▁성격은	-7512
▁없으니	-7513
▁여권을	-7514
▁여기로	-7515
▁의견이	-7516
▁이곳을	-7517
▁이끌어	-7518
▁인상을	-7519
▁자격이	-7520
▁장소에	-7521
▁적어도	-7522
▁전문점	-7523
▁주문은	-7524
▁피자를	-7525
▁하고자	-7526
일입니다	-7527
하자마자	-7528
▁계획하고	-7529
▁늦게까지	-7530
▁생각하게	-7531
▁어려움이	-7532
▁어린아이	-7533
▁없을까요	-7534
▁이루어진	-7535
▁적극적인	-7536
▁제주도에	-7537
▁좋아하게	-7538
▁준비되어	-7539
▁지속적인	-7540
▁피드백을	-7541
▁확인해야	-7542
▁가졌습니다	-7543
▁아름다움을	-7544
▁전체적으로	-7545
▁프로그램이	-7546
▁프로젝트의	-7547
AR	-7548
if	-7549
▁갚	-7550
▁얇	-7551
▁잭	-7552
▁훔	-7553
격을	-7554
님과	-7555
단의	-7556
량의	-7557
면의	-7558
미는	-7559
미디	-7560
복궁	-7561
볼게	-7562
서류	-7563
스티	-7564
시장	-7565
이도	-7566
주와	-7567
쳤어	-7568
▁검증	-7569
▁고속	-7570
▁관세	-7571
▁구현	-7572
▁달걀	-7573
▁담긴	-7574
▁동양	-7575
▁때면	-7576
▁몸은	-7577
▁문학	-7578
▁민주	-7579
▁믿는	-7580
▁바른	-7581
▁반환	-7582
▁밤새	-7583
▁밸런	-7584
▁성분	-7585
▁실습	-7586
▁실현	-7587
▁염색	-7588
▁예민	-7589
▁오피	-7590
▁위반	-7591
▁일기	-7592
▁입술	-7593
▁작곡	-7594
▁장단	-7595
▁저축	-7596
▁충실	-7597
▁코멘	-7598
▁튀김	-7599
▁편집	-7600
▁하다	-7601
▁하와	-7602
▁한강	-7603
▁화물	-7604
부에서	-7605
시간을	-7606
에게서	-7607
이네요	-7608
이어서	-7609
적이며	-7610
▁감사를	-7611
▁경험은	-7612
▁공부도	-7613
▁깨끗이	-7614
▁날짜에	-7615
▁다리가	-7616
▁리더십	-7617
▁만나길	-7618
▁메신저	-7619
▁메일이	-7620
▁면접을	-7621
▁미국은	-7622
▁밤늦게	-7623
▁본인의	-7624
▁불리는	-7625
▁비빔밥	-7626
▁사귀고	-7627
▁살아갈	-7628
▁살아야	-7629
▁상품에	-7630
▁성공할	-7631
▁세미나	-7632
▁소비자	-7633
▁업체에	-7634
▁완료된	-7635
▁운전을	-7636
▁인간이	-7637
▁좋지만	-7638
▁주시고	-7639
▁즐겁고	-7640
▁지불할	-7641
▁지켜야	-7642
▁태어났	-7643
▁파일은	-7644
▁패스트	-7645
▁프로세	-7646
▁하니까	-7647
▁행복이	-7648
▁행사를	-7649
함입니다	-7650
▁가능성을	-7651
▁걸리나요	-7652
▁뉴질랜드	-7653
▁다니면서	-7654
▁도착하는	-7655
▁무엇인가	-7656
▁문제점을	-7657
▁발생해요	-7658
▁보낼게요	-7659
▁부족해서	-7660
▁비행기로	-7661
▁사용해도	-7662
▁사이에서	-7663
▁선생님께	-7664
▁식당에서	-7665
▁아니라면	-7666
▁알려주실	-7667
▁엔지니어	-7668
▁여동생이	-7669
▁연락하지	-7670
▁자리에서	-7671
▁잘합니다	-7672
▁콘텐츠를	-7673
▁포함하여	-7674
▁플라스틱	-7675
▁담당자에게	-7676
▁비즈니스를	-7677
▁생각하나요	-7678
▁의미합니다	-7679
▁도착했습니다	-7680
▁완료되었습니다	-7681
▁확인하였습니다	-7682
▁말씀드리겠습니다	-7683
.2	-7684
TV	-7685
ie	-7686
ip	-7687
op	-7688
▁굽	-7689
▁덥	-7690
▁뷰	-7691
과에	-7692
놓은	-7693
다란	-7694
들어	-7695
미를	-7696
법에	-7697
비아	-7698
서로	-7699
성한	-7700
스카	-7701
았던	-7702
웠고	-7703
치와	-7704
쿠버	-7705
터는	-7706
형의	-7707
▁MO	-7708
▁xx	-7709
▁간에	-7710
▁기침	-7711
▁깜짝	-7712
▁남한	-7713
▁내지	-7714
▁대금	-7715
▁듣지	-7716
▁면을	-7717
▁면허	-7718
▁민족	-7719
▁복합	-7720
▁본격	-7721
▁불만	-7722
▁비판	-7723
▁빼앗	-7724
▁사러	-7725
▁생태	-7726
▁셔츠	-7727
▁속이	-7728
▁숨겨	-7729
▁스튜	-7730
▁심플	-7731
▁쓰면	-7732
▁어학	-7733
▁유연	-7734
▁일회	-7735
▁장학	-7736
▁채로	-7737
▁취해	-7738
▁트래	-7739
▁해운	-7740
▁현상	-7741
▁환상	-7742
더라면	-7743
메리카	-7744
했었다	-7745
▁가져야	-7746
▁감사의	-7747
▁게임이	-7748
▁경복궁	-7749
▁골프를	-7750
▁교복을	-7751
▁그곳의	-7752
▁기간에	-7753
▁기쁘게	-7754
▁기타를	-7755
▁길거리	-7756
▁남자의	-7757
▁노력해	-7758
▁단어는	-7759
▁도시의	-7760
▁뛰어나	-7761
▁목표로	-7762
▁몰라서	-7763
▁문화와	-7764
▁밀가루	-7765
▁백화점	-7766
▁선택을	-7767
▁신제품	-7768
▁아기가	-7769
▁요청에	-7770
▁원인이	-7771
▁유니폼	-7772
▁인간은	-7773
▁인형은	-7774
▁자리가	-7775
▁잘못을	-7776
▁재능이	-7777
▁좋았던	-7778
▁주어야	-7779
▁준다면	-7780
▁지나면	-7781
▁지키는	-7782
▁태권도	-7783
▁하나씩	-7784
▁학교의	-7785
▁후에도	-7786
해집니다	-7787
▁공원에서	-7788
▁그렇다고	-7789
▁기억하고	-7790
▁도와주고	-7791
▁드리도록	-7792
▁마십시오	-7793
▁말입니다	-7794
▁모르지만	-7795
▁무엇이든	-7796
▁부족해요	-7797
▁브랜드의	-7798
▁사장님이	-7799
▁아이디어	-7800
▁않았다면	-7801
▁연락처를	-7802
▁열립니다	-7803
▁예정이야	-7804
▁이루어져	-7805
▁전통적인	-7806
▁진행해야	-7807
▁처음부터	-7808
▁행복하길	-7809
▁현금으로	-7810
▁흥미로운	-7811
▁고등학교에	-7812
▁도와줍니다	-7813
▁되겠습니까	-7814
▁유명합니다	-7815
▁있겠습니다	-7816
▁행복했어요	-7817
▁환영합니다	-7818
▁문의드립니다	-7819
15	-7820
MO	-7821
▁웅	-7822
경에	-7823
급을	-7824
길을	-7825
드렸	-7826
로의	-7827
롭지	-7828
마을	-7829
산화	-7830
웠다	-7831
인치	-7832
종의	-7833
카를	-7834
트롤	-7835
팅을	-7836
함은	-7837
ter	-7838
▁35	-7839
▁IC	-7840
▁가스	-7841
▁갑작	-7842
▁강요	-7843
▁걸로	-7844
▁과자	-7845
▁군데	-7846
▁규정	-7847
▁나을	-7848
▁내릴	-7849
▁넘는	-7850
▁능숙	-7851
▁담은	-7852
▁당일	-7853
▁돕는	-7854
▁되죠	-7855
▁듣기	-7856
▁마인	-7857
▁목걸	-7858
▁미루	-7859
▁바래	-7860
▁발을	-7861
▁비상	-7862
▁빠진	-7863
▁수원	-7864
▁써서	-7865
▁안의	-7866
▁양파	-7867
▁올릴	-7868
▁위생	-7869
▁이길	-7870
▁일러	-7871
▁입맛	-7872
▁장식	-7873
▁지혜	-7874
▁쪽에	-7875
▁참을	-7876
▁축복	-7877
▁출판	-7878
▁클렌	-7879
▁하드	-7880
▁함유	-7881
▁합의	-7882
▁휴식	-7883
거리는	-7884
된다는	-7885
시에서	-7886
해지는	-7887
▁가져오	-7888
▁경향이	-7889
▁계세요	-7890
▁그래픽	-7891
▁많다고	-7892
▁맞추어	-7893
▁먹어서	-7894
▁모양의	-7895
▁문화적	-7896
▁반응을	-7897
▁방식을	-7898
▁색깔이	-7899
▁색상이	-7900
▁스미스	-7901
▁시리즈	-7902
▁시에는	-7903
▁시장의	-7904
▁얘기할	-7905
▁엄마랑	-7906
▁예쁘고	-7907
▁오래전	-7908
▁왔는데	-7909
▁자연을	-7910
▁장면은	-7911
▁정도는	-7912
▁정도에	-7913
▁주기로	-7914
▁커다란	-7915
▁텐데요	-7916
▁페이지	-7917
▁한국이	-7918
▁한마디	-7919
▁함께한	-7920
▁홍콩에	-7921
적이라고	-7922
하신다면	-7923
▁교수님이	-7924
▁너무나도	-7925
▁다녀왔어	-7926
▁마닐라에	-7927
▁마지막에	-7928
▁보았어요	-7929
▁보유하고	-7930
▁부분에서	-7931
▁요청하는	-7932
▁유명해요	-7933
▁있었나요	-7934
▁존재해요	-7935
▁지난번에	-7936
▁추가적인	-7937
▁패스트푸	-7938
보았습니다	-7939
▁계획이에요	-7940
▁괜찮을까요	-7941
▁성공적으로	-7942
▁스트레스가	-7943
▁알았습니다	-7944
▁핸드폰으로	-7945
▁확인하세요	-7946
▁알려주십시오	-7947
OT	-7948
ag	-7949
oc	-7950
~2	-7951
▁꺾	-7952
▁멘	-7953
▁젤	-7954
▁족	-7955
고루	-7956
대학	-7957
라가	-7958
료로	-7959
면허	-7960
법은	-7961
상품	-7962
역은	-7963
였고	-7964
왔다	-7965
잠을	-7966
주일	-7967
출을	-7968
해져	-7969
▁결승	-7970
▁공룡	-7971
▁기온	-7972
▁기후	-7973
▁내로	-7974
▁뉴스	-7975
▁될지	-7976
▁미소	-7977
▁베네	-7978
▁보석	-7979
▁복지	-7980
▁분은	-7981
▁붉은	-7982
▁브로	-7983
▁비트	-7984
▁빨래	-7985
▁빼고	-7986
▁상자	-7987
▁생존	-7988
▁손잡	-7989
▁수고	-7990
▁싫은	-7991
▁씨를	-7992
▁아끼	-7993
▁아픔	-7994
▁양말	-7995
▁엉망	-7996
▁연인	-7997
▁오븐	-7998
▁오페	-7999
▁입양	-8000
▁자부	-8001
▁작용	-8002
▁재배	-8003
▁찾은	-8004
▁초청	-8005
▁취향	-8006
▁크기	-8007
▁키를	-8008
▁통일	-8009
▁트렌	-8010
▁틀린	-8011
▁파워	-8012
▁파이	-8013
▁하시	-8014
단으로	-8015
드에서	-8016
시키기	-8017
였지만	-8018
▁가는데	-8019
▁걱정을	-8020
▁경찰이	-8021
▁골고루	-8022
▁관하여	-8023
▁그러지	-8024
▁기간은	-8025
▁기사를	-8026
▁내용과	-8027
▁누구를	-8028
▁다름이	-8029
▁도중에	-8030
▁되어요	-8031
▁먹방을	-8032
▁바다에	-8033
▁바라며	-8034
▁박스에	-8035
▁빛나는	-8036
▁빠르고	-8037
▁사정이	-8038
▁사회를	-8039
▁샐러드	-8040
▁시대에	-8041
▁시도해	-8042
▁식당에	-8043
▁썼어요	-8044
▁아빠와	-8045
▁아이콘	-8046
▁안전을	-8047
▁않았기	-8048
▁알지만	-8049
▁여행에	-8050
▁예약할	-8051
▁의견에	-8052
▁잘해요	-8053
▁장애인	-8054
▁재고를	-8055
▁전공을	-8056
▁전쟁을	-8057
▁주부터	-8058
▁주위에	-8059
▁진행해	-8060
▁축제에	-8061
▁측에서	-8062
▁테니까	-8063
▁판매할	-8064
▁피부가	-8065
▁학교가	-8066
▁한복을	-8067
▁했는지	-8068
▁형태를	-8069
▁환불해	-8070
했었어요	-8071
혔습니다	-8072
▁거기에는	-8073
▁구매하고	-8074
▁매력적인	-8075
▁매장에서	-8076
▁모르겠다	-8077
▁목소리가	-8078
▁보내드릴	-8079
▁보내주길	-8080
▁상태에서	-8081
▁아름다워	-8082
▁아름답게	-8083
▁언젠가는	-8084
▁연락하고	-8085
▁왼쪽으로	-8086
▁요리하는	-8087
▁이상으로	-8088
▁재미있고	-8089
▁제공하고	-8090
▁중요성을	-8091
▁참여하는	-8092
▁포함해서	-8093
▁한국인이	-8094
하셨습니다	-8095
해주십시오	-8096
▁비밀번호를	-8097
▁사람이라고	-8098
▁사용했어요	-8099
▁생각됩니다	-8100
▁어떻습니까	-8101
▁연락해주세요	-8102
80	-8103
▁w	-8104
▁닉	-8105
▁웬	-8106
▁윌	-8107
▁융	-8108
▁잦	-8109
▁징	-8110
결을	-8111
눈에	-8112
미가	-8113
버스	-8114
보자	-8115
부와	-8116
심한	-8117
았고	-8118
전한	-8119
점과	-8120
트리	-8121
피를	-8122
▁가려	-8123
▁갈색	-8124
▁걷는	-8125
▁것의	-8126
▁공휴	-8127
▁길어	-8128
▁나고	-8129
▁넣은	-8130
▁놓은	-8131
▁대행	-8132
▁로스	-8133
▁마늘	-8134
▁마술	-8135
▁멋지	-8136
▁모험	-8137
▁바르	-8138
▁밝고	-8139
▁볶음	-8140
▁불꽃	-8141
▁사막	-8142
▁상쾌	-8143
▁생물	-8144
▁선주	-8145
▁성취	-8146
▁소망	-8147
▁시공	-8148
▁엄격	-8149
▁에서	-8150
▁이따	-8151
▁자율	-8152
▁전철	-8153
▁첫날	-8154
▁캠페	-8155
▁키즈	-8156
▁투표	-8157
▁트럭	-8158
▁형식	-8159
▁호환	-8160
가에서	-8161
건가요	-8162
방에서	-8163
으시면	-8164
▁거대한	-8165
▁건물은	-8166
▁계획에	-8167
▁고객과	-8168
▁관광지	-8169
▁남편과	-8170
▁내에서	-8171
▁느끼지	-8172
▁도시에	-8173
▁때로는	-8174
▁때에는	-8175
▁만들지	-8176
▁머무를	-8177
▁먹었다	-8178
▁멋있는	-8179
▁모습은	-8180
▁못하면	-8181
▁문제없	-8182
▁뭐든지	-8183
▁보내길	-8184
▁볼게요	-8185
▁생각도	-8186
▁생각만	-8187
▁생기는	-8188
▁선적을	-8189
▁설명할	-8190
▁스키를	-8191
▁시간의	-8192
▁시계를	-8193
▁안타까	-8194
▁약속한	-8195
▁올리는	-8196
▁위치에	-8197
▁인천에	-8198
▁전체에	-8199
▁제시한	-8200
▁주었다	-8201
▁중간에	-8202
▁초점을	-8203
▁축제를	-8204
▁특이한	-8205
▁할인을	-8206
▁휴대전	-8207
뿐이에요	-8208
▁검토하고	-8209
▁누군가의	-8210
▁다닙니다	-8211
▁들어가서	-8212
▁디자인의	-8213
▁뜻이에요	-8214
▁배웠어요	-8215
▁불편하게	-8216
▁사정으로	-8217
▁싶었지만	-8218
▁않을까요	-8219
▁여동생은	-8220
▁여자들이	-8221
▁예전부터	-8222
▁오프라인	-8223
▁자세하게	-8224
▁저녁에는	-8225
▁제품들은	-8226
▁주인공이	-8227
▁중에서도	-8228
▁즐거움을	-8229
▁처음에는	-8230
▁캐나다에	-8231
▁컨디션이	-8232
▁컴퓨터가	-8233
▁필요하신	-8234
▁효과적인	-8235
▁힘듭니다	-8236
▁그중에서도	-8237
▁대한민국의	-8238
▁아이디어를	-8239
▁알려줄게요	-8240
▁연락하세요	-8241
▁준비했어요	-8242
하시겠습니까	-8243
▁진행하겠습니다	-8244
▁댁	-8245
▁엽	-8246
과정	-8247
국은	-8248
기한	-8249
다를	-8250
러그	-8251
말고	-8252
모습	-8253
무게	-8254
번의	-8255
션은	-8256
아가	-8257
아의	-8258
았을	-8259
액을	-8260
어와	-8261
오를	-8262
진은	-8263
질은	-8264
처리	-8265
터의	-8266
퍼를	-8267
회는	-8268
▁가라	-8269
▁격려	-8270
▁그로	-8271
▁기한	-8272
▁길게	-8273
▁김연	-8274
▁넣을	-8275
▁농담	-8276
▁높여	-8277
▁담고	-8278
▁대량	-8279
▁멀티	-8280
▁물류	-8281
▁사냥	-8282
▁살지	-8283
▁상영	-8284
▁소풍	-8285
▁수면	-8286
▁스와	-8287
▁심사	-8288
▁알레	-8289
▁양을	-8290
▁옳은	-8291
▁유창	-8292
▁육체	-8293
▁일일	-8294
▁잠재	-8295
▁장례	-8296
▁조합	-8297
▁추후	-8298
▁출석	-8299
▁터치	-8300
▁해양	-8301
▁현황	-8302
▁후원	-8303
가지를	-8304
겁니다	-8305
국에서	-8306
스럽고	-8307
시스코	-8308
았는데	-8309
원에게	-8310
웠지만	-8311
지면서	-8312
하기는	-8313
▁50%	-8314
▁가게를	-8315
▁건물을	-8316
▁걸어가	-8317
▁계기가	-8318
▁계좌를	-8319
▁과거의	-8320
▁과일을	-8321
▁관련한	-8322
▁기억을	-8323
▁나라로	-8324
▁놀라운	-8325
▁눈물이	-8326
▁도서관	-8327
▁마음껏	-8328
▁말했어	-8329
▁못했던	-8330
▁바람을	-8331
▁배송비	-8332
▁배워야	-8333
▁번역이	-8334
▁뽀로로	-8335
▁사이가	-8336
▁상세한	-8337
▁생각나	-8338
▁생명을	-8339
▁서울로	-8340
▁성장할	-8341
▁스트랩	-8342
▁스파게	-8343
▁습관을	-8344
▁식당이	-8345
▁안경을	-8346
▁연기를	-8347
▁영원한	-8348
▁오리지	-8349
▁오빠가	-8350
▁외국에	-8351
▁원산지	-8352
▁위대한	-8353
▁이번엔	-8354
▁일하게	-8355
▁있었기	-8356
▁주려고	-8357
▁주어서	-8358
▁주제는	-8359
▁주제에	-8360
▁참석할	-8361
▁처리를	-8362
▁키우고	-8363
▁피해가	-8364
▁행사가	-8365
▁회의가	-8366
▁2013	-8367
▁겨울방학	-8368
▁결정하는	-8369
▁고양이가	-8370
▁그때부터	-8371
▁기숙사에	-8372
▁담당하고	-8373
▁되었나요	-8374
▁보내드린	-8375
▁보냈는데	-8376
▁수수료를	-8377
▁스타일을	-8378
▁스타일이	-8379
▁알려줄게	-8380
▁우체국에	-8381
▁운동하는	-8382
▁운전면허	-8383
▁인터뷰를	-8384
▁제공해요	-8385
▁졸업하고	-8386
▁중요하지	-8387
▁증가하고	-8388
▁참고하여	-8389
▁책임감을	-8390
▁추천하고	-8391
▁결과적으로	-8392
▁고객들에게	-8393
▁봉사활동을	-8394
▁부모님에게	-8395
▁살았습니다	-8396
▁선택했어요	-8397
▁실례합니다	-8398
▁페이스북에	-8399
▁설명하겠습니다	-8400
id	-8401
▁몬	-8402
▁뼈	-8403
▁앓	-8404
▁튼	-8405
기업	-8406
당에	-8407
당이	-8408
러를	-8409
리티	-8410
마저	-8411
모가	-8412
번을	-8413
스피	-8414
실로	-8415
요청	-8416
우며	-8417
유한	-8418
쟁이	-8419
제의	-8420
처를	-8421
프란	-8422
300	-8423
▁36	-8424
▁가짜	-8425
▁값을	-8426
▁같고	-8427
▁경계	-8428
▁고백	-8429
▁관객	-8430
▁구별	-8431
▁기내	-8432
▁나만	-8433
▁도면	-8434
▁돌봐	-8435
▁때를	-8436
▁라는	-8437
▁룸메	-8438
▁리그	-8439
▁묘사	-8440
▁문이	-8441
▁미디	-8442
▁밑에	-8443
▁반도	-8444
▁발음	-8445
▁방사	-8446
▁보실	-8447
▁부자	-8448
▁부재	-8449
▁부지	-8450
▁분홍	-8451
▁비닐	-8452
▁빛을	-8453
▁사로	-8454
▁사의	-8455
▁씨는	-8456
▁약한	-8457
▁얻어	-8458
▁에스	-8459
▁왕복	-8460
▁유도	-8461
▁잡는	-8462
▁잡지	-8463
▁저것	-8464
▁조회	-8465
▁중고	-8466
▁줬어	-8467
▁체중	-8468
▁치는	-8469
▁해본	-8470
▁해줘	-8471
▁향이	-8472
▁호기	-8473
▁화폐	-8474
▁회화	-8475
▁휴무	-8476
개월이	-8477
겠군요	-8478
당에서	-8479
봤는데	-8480
팀에서	-8481
하므로	-8482
▁가능해	-8483
▁거라는	-8484
▁결혼식	-8485
▁경기도	-8486
▁고민이	-8487
▁교육이	-8488
▁내려가	-8489
▁내리는	-8490
▁놀이터	-8491
▁느꼈어	-8492
▁늦어도	-8493
▁늦어서	-8494
▁도전을	-8495
▁똑똑한	-8496
▁라면을	-8497
▁마이클	-8498
▁메일은	-8499
▁모양을	-8500
▁몸무게	-8501
▁물어본	-8502
▁배우기	-8503
▁보이고	-8504
▁부분의	-8505
▁사업이	-8506
▁선적이	-8507
▁선택이	-8508
▁손해를	-8509
▁스타벅	-8510
▁스타트	-8511
▁실험을	-8512
▁싶었던	-8513
▁아시안	-8514
▁않기를	-8515
▁연결이	-8516
▁워크숍	-8517
▁유치원	-8518
▁인생이	-8519
▁일기를	-8520
▁일회용	-8521
▁전문가	-8522
▁좋은데	-8523
▁직업에	-8524
▁충격을	-8525
▁친하게	-8526
▁탔어요	-8527
▁토대로	-8528
▁특징은	-8529
▁파일에	-8530
▁편리한	-8531
▁호텔이	-8532
▁흥미가	-8533
대학교에	-8534
하면서도	-8535
했습니까	-8536
▁가르치는	-8537
▁고양이는	-8538
▁도움으로	-8539
▁드라이브	-8540
▁들어오는	-8541
▁마케팅을	-8542
▁만들었다	-8543
▁바이어가	-8544
▁비디오를	-8545
▁사람한테	-8546
▁사랑하지	-8547
▁아버지와	-8548
▁않았다고	-8549
▁여기에는	-8550
▁외국에서	-8551
▁전반적인	-8552
▁첨부하여	-8553
▁취소하고	-8554
▁프로그래	-8555
▁휴대폰을	-8556
▁다이어트를	-8557
▁대중교통을	-8558
▁보였습니다	-8559
▁외국인에게	-8560
▁다하겠습니다	-8561
▁만들어졌습니다	-8562
▁넉	-8563
▁둥	-8564
▁뚫	-8565
▁랜	-8566
▁맵	-8567
▁밟	-8568
▁얹	-8569
▁쾌	-8570
▁톰	-8571
▁횟	-8572
▁흉	-8573
개발	-8574
거지	-8575
교를	-8576
구이	-8577
권이	-8578
기능	-8579
년대	-8580
단계	-8581
따라	-8582
리콘	-8583
리트	-8584
보를	-8585
복지	-8586
세계	-8587
속을	-8588
스탄	-8589
양을	-8590
위의	-8591
일과	-8592
절을	-8593
테고	-8594
팀에	-8595
프의	-8596
행을	-8597
▁갈비	-8598
▁갖는	-8599
▁거북	-8600
▁거쳐	-8601
▁기관	-8602
▁길로	-8603
▁길은	-8604
▁깨어	-8605
▁낮아	-8606
▁논문	-8607
▁데는	-8608
▁동반	-8609
▁동화	-8610
▁마켓	-8611
▁마크	-8612
▁맞은	-8613
▁맞춤	-8614
▁명시	-8615
▁분노	-8616
▁불쌍	-8617
▁삽입	-8618
▁상하	-8619
▁서두	-8620
▁성경	-8621
▁슬리	-8622
▁쓰기	-8623
▁얼음	-8624
▁열고	-8625
▁왕이	-8626
▁외식	-8627
▁일한	-8628
▁자가	-8629
▁자금	-8630
▁적게	-8631
▁정비	-8632
▁정체	-8633
▁주민	-8634
▁죽기	-8635
▁지고	-8636
▁지진	-8637
▁침해	-8638
▁탁월	-8639
▁튼튼	-8640
▁팀의	-8641
▁팔고	-8642
▁포토	-8643
▁한다	-8644
단에서	-8645
라인을	-8646
볼까요	-8647
았으면	-8648
일에는	-8649
작업을	-8650
주시고	-8651
하오니	-8652
▁가방은	-8653
▁가시면	-8654
▁가져갈	-8655
▁가지로	-8656
▁개발을	-8657
▁경우도	-8658
▁기숙사	-8659
▁날짜가	-8660
▁다녀요	-8661
▁달러를	-8662
▁대회에	-8663
▁들어와	-8664
▁디저트	-8665
▁만나야	-8666
▁문화의	-8667
▁미팅이	-8668
▁바다가	-8669
▁베스트	-8670
▁부담이	-8671
▁부지런	-8672
▁분들은	-8673
▁산책을	-8674
▁상담을	-8675
▁성인이	-8676
▁세금을	-8677
▁시끄러	-8678
▁어두운	-8679
▁어디를	-8680
▁어떨까	-8681
▁연구는	-8682
▁열정이	-8683
▁영화도	-8684
▁옛날에	-8685
▁오나요	-8686
▁오빠는	-8687
▁움직일	-8688
▁음식도	-8689
▁입어야	-8690
▁장면을	-8691
▁장점을	-8692
▁정보와	-8693
▁중간고	-8694
▁중국의	-8695
▁지역을	-8696
▁취업을	-8697
▁카페에	-8698
▁케이스	-8699
▁클럽에	-8700
▁특성을	-8701
▁프린트	-8702
▁회의에	-8703
▁강아지가	-8704
▁계약서에	-8705
▁놀았어요	-8706
▁대해서도	-8707
▁마음대로	-8708
▁말씀하신	-8709
▁몰랐어요	-8710
▁바라보는	-8711
▁사용자가	-8712
▁시스템은	-8713
▁아픕니다	-8714
▁오리지널	-8715
▁원하시는	-8716
▁유치원에	-8717
▁이미지가	-8718
▁일러스트	-8719
▁일어나지	-8720
▁있잖아요	-8721
▁자신만의	-8722
▁제출해야	-8723
▁제품들을	-8724
▁지급해야	-8725
▁지원하게	-8726
▁출발하는	-8727
▁확실하게	-8728
시켰습니다	-8729
주시겠어요	-8730
▁가능하다고	-8731
▁도서관에서	-8732
▁맛있습니다	-8733
▁사랑한다고	-8734
▁생각입니다	-8735
▁소프트웨어	-8736
▁영화입니다	-8737
▁읽었습니다	-8738
▁10,000	-8739
▁변경되었습니다	-8740
IP	-8741
MP	-8742
ab	-8743
ur	-8744
▁갱	-8745
▁래	-8746
▁맹	-8747
▁샴	-8748
▁탓	-8749
각형	-8750
구조	-8751
급이	-8752
맞은	-8753
박스	-8754
사용	-8755
수도	-8756
수술	-8757
아는	-8758
정도	-8759
졌을	-8760
천에	-8761
통에	-8762
편을	-8763
프레	-8764
히지	-8765
▁DB	-8766
▁갔던	-8767
▁경유	-8768
▁나니	-8769
▁났어	-8770
▁녹음	-8771
▁니가	-8772
▁닮은	-8773
▁대사	-8774
▁도달	-8775
▁두께	-8776
▁드림	-8777
▁뜻이	-8778
▁막을	-8779
▁매칭	-8780
▁명은	-8781
▁모으	-8782
▁묻고	-8783
▁바삭	-8784
▁변환	-8785
▁보드	-8786
▁불과	-8787
▁사인	-8788
▁산에	-8789
▁서운	-8790
▁소주	-8791
▁시달	-8792
▁액션	-8793
▁양의	-8794
▁어서	-8795
▁언덕	-8796
▁엑스	-8797
▁여긴	-8798
▁예비	-8799
▁오징	-8800
▁유래	-8801
▁의도	-8802
▁일해	-8803
▁읽은	-8804
▁잤어	-8805
▁줄이	-8806
▁지낸	-8807
▁지친	-8808
▁지킬	-8809
▁추적	-8810
▁출산	-8811
▁카운	-8812
▁콜라	-8813
▁토끼	-8814
▁특성	-8815
▁패킹	-8816
▁포도	-8817
▁폭력	-8818
▁합쳐	-8819
▁혁신	-8820
▁호주	-8821
▁흐름	-8822
▁힘내	-8823
관계를	-8824
드리는	-8825
쌉니다	-8826
임에도	-8827
▁관련이	-8828
▁교훈을	-8829
▁국가의	-8830
▁군대에	-8831
▁그날은	-8832
▁나와요	-8833
▁느껴요	-8834
▁다문화	-8835
▁떠나는	-8836
▁말해줄	-8837
▁모델이	-8838
▁모르게	-8839
▁모습에	-8840
▁모임이	-8841
▁바라고	-8842
▁변경을	-8843
▁보시면	-8844
▁봉사를	-8845
▁불만을	-8846
▁살아남	-8847
▁상황은	-8848
▁샘플에	-8849
▁설치할	-8850
▁순간을	-8851
▁순수한	-8852
▁시까지	-8853
▁시장을	-8854
▁아이와	-8855
▁야구를	-8856
▁오토바	-8857
▁윈도우	-8858
▁제주도	-8859
▁조치를	-8860
▁처리할	-8861
▁최초의	-8862
▁카테고	-8863
▁플러그	-8864
▁학교로	-8865
▁햄버거	-8866
▁행운이	-8867
으시다면	-8868
적으로는	-8869
줬습니다	-8870
하겠다고	-8871
▁남자에게	-8872
▁너희들이	-8873
▁당신들은	-8874
▁데이터가	-8875
▁들으면서	-8876
▁디자인에	-8877
▁맞습니까	-8878
▁번역기를	-8879
▁보내려고	-8880
▁서비스는	-8881
▁쉽습니다	-8882
▁스타일의	-8883
▁스튜디오	-8884
▁시험에서	-8885
▁아름답고	-8886
▁아침부터	-8887
▁안정적인	-8888
▁운영하고	-8889
▁이야기해	-8890
▁친구한테	-8891
▁카메라는	-8892
▁한국말을	-8893
▁합리적인	-8894
▁해결해야	-8895
주었습니다	-8896
▁금요일까지	-8897
▁기다립니다	-8898
▁모르겠네요	-8899
▁불가합니다	-8900
▁카카오톡을	-8901
▁효과적으로	-8902
▁노력했습니다	-8903
▁발생했습니다	-8904
▁위해서입니다	-8905
40	-8906
TS	-8907
ea	-8908
▁빚	-8909
▁잉	-8910
▁젓	-8911
▁큐	-8912
같은	-8913
글라	-8914
념을	-8915
드니	-8916
론을	-8917
률을	-8918
리그	-8919
상태	-8920
시쯤	-8921
우니	-8922
율은	-8923
있다	-8924
쟁을	-8925
호가	-8926
and	-8927
▁EM	-8928
▁LC	-8929
▁간격	-8930
▁간다	-8931
▁거면	-8932
▁겨우	-8933
▁공중	-8934
▁교사	-8935
▁금메	-8936
▁낮에	-8937
▁내린	-8938
▁넉넉	-8939
▁다짐	-8940
▁단점	-8941
▁담겨	-8942
▁답이	-8943
▁대접	-8944
▁독점	-8945
▁드린	-8946
▁딱히	-8947
▁레슨	-8948
▁말자	-8949
▁바꿨	-8950
▁부과	-8951
▁부대	-8952
▁부인	-8953
▁설비	-8954
▁소포	-8955
▁송장	-8956
▁숨을	-8957
▁스태	-8958
▁스터	-8959
▁않니	-8960
▁옥수	-8961
▁옮기	-8962
▁옷에	-8963
▁왜곡	-8964
▁요약	-8965
▁워킹	-8966
▁유료	-8967
▁유사	-8968
▁의자	-8969
▁이성	-8970
▁점차	-8971
▁조만	-8972
▁주름	-8973
▁크루	-8974
▁편히	-8975
▁포워	-8976
▁프라	-8977
▁한꺼	-8978
▁향후	-8979
▁헤드	-8980
놀이를	-8981
디자인	-8982
렀어요	-8983
티스트	-8984
하지도	-8985
해줘서	-8986
▁가수가	-8987
▁간호사	-8988
▁걸까요	-8989
▁경험과	-8990
▁고통을	-8991
▁그러다	-8992
▁기술의	-8993
▁나무를	-8994
▁내려서	-8995
▁놀이기	-8996
▁다음날	-8997
▁도시락	-8998
▁도시를	-8999
▁되면서	-9000
▁라벨을	-9001
▁마카오	-9002
▁모여서	-9003
▁받으실	-9004
▁버리고	-9005
▁보내도	-9006
▁보내서	-9007
▁삶에서	-9008
▁샌프란	-9009
▁생산이	-9010
▁소식이	-9011
▁속도를	-9012
▁신나게	-9013
▁실리콘	-9014
▁아내가	-9015
▁아니기	-9016
▁아닐까	-9017
▁않다면	-9018
▁알아봐	-9019
▁압니다	-9020
▁언급한	-9021
▁오로지	-9022
▁옵션을	-9023
▁요청할	-9024
▁용돈을	-9025
▁운동이	-9026
▁웃음을	-9027
▁위험이	-9028
▁유학을	-9029
▁의사는	-9030
▁이것과	-9031
▁인증을	-9032
▁있잖아	-9033
▁자원봉	-9034
▁저희의	-9035
▁전달할	-9036
▁정신을	-9037
▁종이를	-9038
▁주까지	-9039
▁주말을	-9040
▁주소는	-9041
▁줄이기	-9042
▁중국인	-9043
▁중요시	-9044
▁처리가	-9045
▁컨트롤	-9046
▁태국에	-9047
▁토마토	-9048
▁파란색	-9049
▁파일이	-9050
▁하겠다	-9051
▁하다가	-9052
▁하려면	-9053
▁해결을	-9054
▁행동에	-9055
▁행사에	-9056
▁화나게	-9057
뿐입니다	-9058
수입니다	-9059
하기에는	-9060
해주시고	-9061
▁감사하고	-9062
▁게임에서	-9063
▁고려하여	-9064
▁공부해야	-9065
▁관점에서	-9066
▁대화하고	-9067
▁대회에서	-9068
▁마셨어요	-9069
▁못했지만	-9070
▁방문하여	-9071
▁부산에서	-9072
▁사이즈로	-9073
▁서비스에	-9074
▁선생님과	-9075
▁아파트에	-9076
▁액세서리	-9077
▁어머니가	-9078
▁여자에게	-9079
▁여행에서	-9080
▁오래전에	-9081
▁유지하고	-9082
▁잃어버린	-9083
▁있는지요	-9084
▁정상적인	-9085
▁주셨으면	-9086
▁주인공은	-9087
▁진행되는	-9088
▁집안일을	-9089
▁창의적인	-9090
▁친절하고	-9091
▁한꺼번에	-9092
▁화장실이	-9093
▁확인해서	-9094
▁활용하여	-9095
▁힘들었어	-9096
▁갔었습니다	-9097
▁것만으로도	-9098
▁나라에서는	-9099
▁남자친구와	-9100
▁무엇일까요	-9101
▁생각하기에	-9102
▁소개합니다	-9103
▁시간이에요	-9104
▁어디입니까	-9105
▁음식이에요	-9106
▁좋아했어요	-9107
▁진행됩니다	-9108
▁텔레비전을	-9109
▁했었습니다	-9110
▁샌프란시스코	-9111
-2	-9112
16	-9113
▁끔	-9114
▁몹	-9115
▁뭉	-9116
▁쉐	-9117
▁춘	-9118
▁칩	-9119
▁퀄	-9120
▁탕	-9121
개씩	-9122
거래	-9123
단은	-9124
됐어	-9125
디는	-9126
리며	-9127
방이	-9128
시의	-9129
실은	-9130
업이	-9131
오가	-9132
오염	-9133
정책	-9134
제에	-9135
진다	-9136
튀김	-9137
ate	-9138
▁CE	-9139
▁CO	-9140
▁OE	-9141
▁겸손	-9142
▁고소	-9143
▁구운	-9144
▁그립	-9145
▁금일	-9146
▁끔찍	-9147
▁노란	-9148
▁달콤	-9149
▁듣게	-9150
▁몰래	-9151
▁몹시	-9152
▁무대	-9153
▁바뀔	-9154
▁방콕	-9155
▁벗어	-9156
▁보살	-9157
▁부엌	-9158
▁빌릴	-9159
▁섞어	-9160
▁선사	-9161
▁세련	-9162
▁시합	-9163
▁식탁	-9164
▁심장	-9165
▁써요	-9166
▁쓰러	-9167
▁여왕	-9168
▁예로	-9169
▁오실	-9170
▁용기	-9171
▁용접	-9172
▁원격	-9173
▁원숭	-9174
▁위안	-9175
▁이럴	-9176
▁이쁜	-9177
▁이집	-9178
▁인하	-9179
▁잃은	-9180
▁입국	-9181
▁장치	-9182
▁재정	-9183
▁저가	-9184
▁전국	-9185
▁제약	-9186
▁조명	-9187
▁조치	-9188
▁죽음	-9189
▁지향	-9190
▁진심	-9191
▁짓는	-9192
▁창업	-9193
▁측에	-9194
▁태그	-9195
▁한옥	-9196
▁헌신	-9197
▁화면	-9198
▁환승	-9199
▁환자	-9200
들과의	-9201
스트라	-9202
에게도	-9203
쪽에서	-9204
편으로	-9205
해서는	-9206
했으며	-9207
힙니다	-9208
▁가격도	-9209
▁가득한	-9210
▁갈아타	-9211
▁공원에	-9212
▁과목을	-9213
▁귀찮게	-9214
▁그리는	-9215
▁긴장을	-9216
▁나눠서	-9217
▁날에는	-9218
▁날짜는	-9219
▁뉴욕에	-9220
▁다음주	-9221
▁대답을	-9222
▁대학의	-9223
▁돌아온	-9224
▁돼지고	-9225
▁떡볶이	-9226
▁마을에	-9227
▁말해서	-9228
▁말해야	-9229
▁메뉴가	-9230
▁목적을	-9231
▁무거운	-9232
▁미소를	-9233
▁바꾸는	-9234
▁바라보	-9235
▁받기를	-9236
▁받으러	-9237
▁발표할	-9238
▁방학이	-9239
▁배터리	-9240
▁변화에	-9241
▁보내줘	-9242
▁본인이	-9243
▁부동산	-9244
▁분들이	-9245
▁비교적	-9246
▁비트코	-9247
▁빠져나	-9248
▁서버에	-9249
▁서울은	-9250
▁선적할	-9251
▁성공한	-9252
▁성분이	-9253
▁세계에	-9254
▁소스를	-9255
▁속도가	-9256
▁솔루션	-9257
▁시설이	-9258
▁시장이	-9259
▁알아서	-9260
▁여성이	-9261
▁여행의	-9262
▁오스트	-9263
▁오페라	-9264
▁오해가	-9265
▁올리고	-9266
▁의자를	-9267
▁의지가	-9268
▁이곳의	-9269
▁이유에	-9270
▁있으나	-9271
▁잡니다	-9272
▁저번에	-9273
▁전화로	-9274
▁주변의	-9275
▁줄이고	-9276
▁증상이	-9277
▁지역은	-9278
▁차이는	-9279
▁콘서트	-9280
▁트레이	-9281
▁패턴을	-9282
▁프리미	-9283
▁하늘이	-9284
▁해결책	-9285
▁혜택을	-9286
▁힘들지	-9287
들로부터	-9288
장입니다	-9289
하더라도	-9290
▁가능하게	-9291
▁다양하게	-9292
▁때입니다	-9293
▁마십니다	-9294
▁먹으면서	-9295
▁물어보고	-9296
▁보내줄게	-9297
▁생각해야	-9298
▁생깁니다	-9299
▁서비스로	-9300
▁성공적인	-9301
▁소중함을	-9302
▁솔직하게	-9303
▁여러분께	-9304
▁연락할게	-9305
▁예전에는	-9306
▁원했어요	-9307
▁의미해요	-9308
▁이것들을	-9309
▁이벤트를	-9310
▁일본으로	-9311
▁자신들의	-9312
▁친구들도	-9313
▁친구들의	-9314
▁커뮤니티	-9315
▁프로모션	-9316
▁하나님의	-9317
▁할아버지	-9318
▁홈페이지	-9319
▁확인하는	-9320
▁효율적인	-9321
▁디자인으로	-9322
▁방법이에요	-9323
▁사용됩니다	-9324
▁소개하려고	-9325
▁싫어합니다	-9326
▁아이디어가	-9327
▁홈페이지에	-9328
▁확인합니다	-9329
▁돌아왔습니다	-9330
▁사과드립니다	-9331
▁알려드립니다	-9332
▁우리나라에서	-9333
32	-9334
ob	-9335
oo	-9336
▁걔	-9337
▁챔	-9338
▁턱	-9339
감은	-9340
것을	-9341
계약	-9342
과학	-9343
관광	-9344
권은	-9345
났어	-9346
대화	-9347
라미	-9348
법이	-9349
보드	-9350
색이	-9351
석은	-9352
스텔	-9353
식과	-9354
여야	-9355
연을	-9356
움에	-9357
입을	-9358
있지	-9359
적은	-9360
적일	-9361
질러	-9362
코올	-9363
투를	-9364
파서	-9365
필요	-9366
행이	-9367
▁EX	-9368
▁LA	-9369
▁PD	-9370
▁가리	-9371
▁감옥	-9372
▁강제	-9373
▁갖춘	-9374
▁게으	-9375
▁과도	-9376
▁권장	-9377
▁균형	-9378
▁근본	-9379
▁금전	-9380
▁기쁜	-9381
▁길러	-9382
▁나간	-9383
▁나중	-9384
▁더블	-9385
▁듯이	-9386
▁때만	-9387
▁마신	-9388
▁맛집	-9389
▁맞을	-9390
▁멍청	-9391
▁명세	-9392
▁무지	-9393
▁뭐죠	-9394
▁바뀐	-9395
▁바쁠	-9396
▁발레	-9397
▁배신	-9398
▁버클	-9399
▁북극	-9400
▁사우	-9401
▁세포	-9402
▁수동	-9403
▁술에	-9404
▁씨의	-9405
▁안경	-9406
▁양산	-9407
▁어둠	-9408
▁연동	-9409
▁오버	-9410
▁일곱	-9411
▁일과	-9412
▁읽기	-9413
▁잃지	-9414
▁적립	-9415
▁접촉	-9416
▁접할	-9417
▁조종	-9418
▁차려	-9419
▁현금	-9420
▁황금	-9421
▁후로	-9422
능력을	-9423
로서의	-9424
리나요	-9425
생활에	-9426
지기를	-9427
층으로	-9428
플레이	-9429
하라는	-9430
▁150	-9431
▁API	-9432
▁걸리지	-9433
▁것일까	-9434
▁경기는	-9435
▁관계는	-9436
▁규정에	-9437
▁규칙을	-9438
▁기준이	-9439
▁끝나서	-9440
▁누구의	-9441
▁뉴스를	-9442
▁다가가	-9443
▁다녀오	-9444
▁다르기	-9445
▁다음번	-9446
▁다하고	-9447
▁당신만	-9448
▁대하는	-9449
▁독일의	-9450
▁되돌아	-9451
▁두번째	-9452
▁드려요	-9453
▁드리는	-9454
▁들어올	-9455
▁등으로	-9456
▁떨어뜨	-9457
▁만든다	-9458
▁멋지게	-9459
▁모임에	-9460
▁목록을	-9461
▁반지를	-9462
▁받아볼	-9463
▁받았고	-9464
▁방송을	-9465
▁번호로	-9466
▁보고서	-9467
▁보았을	-9468
▁보여준	-9469
▁부탁해	-9470
▁사람에	-9471
▁사로잡	-9472
▁상처가	-9473
▁샘플로	-9474
▁소중히	-9475
▁수정이	-9476
▁시대의	-9477
▁시장은	-9478
▁아들을	-9479
▁않았던	-9480
▁알코올	-9481
▁업체와	-9482
▁연예인	-9483
▁음료를	-9484
▁음식의	-9485
▁이름과	-9486
▁이름의	-9487
▁이에요	-9488
▁이외에	-9489
▁일으키	-9490
▁잠시만	-9491
▁장비의	-9492
▁재능을	-9493
▁재료가	-9494
▁전체를	-9495
▁축제는	-9496
▁친환경	-9497
▁침대에	-9498
▁코미디	-9499
▁특유의	-9500
▁패키지	-9501
▁풍부한	-9502
▁하시면	-9503
▁환자의	-9504
▁활동에	-9505
▁활동이	-9506
▁2012	-9507
▁공부하기	-9508
▁교회에서	-9509
▁나머지는	-9510
▁내용으로	-9511
▁노력해서	-9512
▁느꼈어요	-9513
▁룸메이트	-9514
▁받았는데	-9515
▁베트남에	-9516
▁보내주면	-9517
▁비행기에	-9518
▁선호하는	-9519
▁싫습니다	-9520
▁썼습니다	-9521
▁아니라는	-9522
▁아메리카	-9523
▁어떠세요	-9524
▁외국어를	-9525
▁음식으로	-9526
▁이외에도	-9527
▁있었는지	-9528
▁적용되는	-9529
▁전체적인	-9530
▁죄송해요	-9531
▁하겠어요	-9532
▁현장에서	-9533
▁2,000	-9534
▁것이었어요	-9535
▁고등학교를	-9536
▁안타깝게도	-9537
▁알려주시길	-9538
▁우리에게는	-9539
▁제공됩니다	-9540
▁존재합니다	-9541
▁지원합니다	-9542
▁진행합니다	-9543
▁힘들었어요	-9544
되어있습니다	-9545
▁되어있습니다	-9546
▁들어갔습니다	-9547
▁이루어집니다	-9548
▁준비했습니다	-9549
70	-9550
~3	-9551
▁-	-9552
▁e	-9553
▁n	-9554
▁꼽	-9555
▁꽂	-9556
▁넥	-9557
▁쏘	-9558
▁옹	-9559
▁잇	-9560
▁찜	-9561
▁핼	-9562
공간	-9563
길에	-9564
놓을	-9565
대왕	-9566
되게	-9567
러는	-9568
사업	-9569
센터	-9570
스테	-9571
심에	-9572
아도	-9573
용품	-9574
움은	-9575
이든	-9576
저히	-9577
지능	-9578
체로	-9579
토리	-9580
편이	-9581
피언	-9582
형은	-9583
화폐	-9584
회사	-9585
▁간접	-9586
▁감염	-9587
▁게이	-9588
▁겪고	-9589
▁끝낼	-9590
▁놀랐	-9591
▁달아	-9592
▁데뷔	-9593
▁도덕	-9594
▁동그	-9595
▁딸의	-9596
▁때에	-9597
▁망가	-9598
▁먹었	-9599
▁면역	-9600
▁모를	-9601
▁뭐니	-9602
▁밤은	-9603
▁보수	-9604
▁빛이	-9605
▁사다	-9606
▁서툴	-9607
▁습득	-9608
▁시기	-9609
▁쌓아	-9610
▁쏟아	-9611
▁아껴	-9612
▁알기	-9613
▁압박	-9614
▁얻게	-9615
▁에세	-9616
▁엔진	-9617
▁용감	-9618
▁우아	-9619
▁원을	-9620
▁인수	-9621
▁입찰	-9622
▁장을	-9623
▁적을	-9624
▁전액	-9625
▁점도	-9626
▁직진	-9627
▁진료	-9628
▁진입	-9629
▁짧게	-9630
▁차분	-9631
▁창문	-9632
▁창출	-9633
▁충고	-9634
▁타러	-9635
▁테마	-9636
▁트위	-9637
▁하신	-9638
되었던	-9639
으로도	-9640
정보를	-9641
▁가정을	-9642
▁걸려서	-9643
▁계좌로	-9644
▁공장을	-9645
▁광고는	-9646
▁그다지	-9647
▁김치찌	-9648
▁나가야	-9649
▁나에겐	-9650
▁내리고	-9651
▁넘치는	-9652
▁노력한	-9653
▁놀이를	-9654
▁단점이	-9655
▁당사의	-9656
▁데이비	-9657
▁동성애	-9658
▁등록이	-9659
▁로맨틱	-9660
▁마셔요	-9661
▁많았어	-9662
▁모양이	-9663
▁반면에	-9664
▁반죽을	-9665
▁방문한	-9666
▁방해가	-9667
▁베이징	-9668
▁본다면	-9669
▁분석을	-9670
▁불편을	-9671
▁색상은	-9672
▁생활이	-9673
▁서로에	-9674
▁선물이	-9675
▁세상의	-9676
▁소원을	-9677
▁아기를	-9678
▁아래로	-9679
▁않다는	-9680
▁알려진	-9681
▁알리는	-9682
▁어울릴	-9683
▁여성은	-9684
▁역사에	-9685
▁연구의	-9686
▁예정이	-9687
▁와인을	-9688
▁완벽히	-9689
▁완성된	-9690
▁요리가	-9691
▁요즘엔	-9692
▁우수한	-9693
▁원단을	-9694
▁원래는	-9695
▁원하면	-9696
▁월드컵	-9697
▁일해야	-9698
▁있겠니	-9699
▁자기의	-9700
▁잘생긴	-9701
▁잠에서	-9702
▁장시간	-9703
▁전체가	-9704
▁주기를	-9705
▁주소와	-9706
▁주었어	-9707
▁죽음을	-9708
▁지도를	-9709
▁창고에	-9710
▁찾아볼	-9711
▁채팅을	-9712
▁청구서	-9713
▁치즈를	-9714
▁틀림없	-9715
▁평가를	-9716
▁표현한	-9717
▁해줘요	-9718
▁호주에	-9719
고등학교	-9720
되었다고	-9721
렀습니다	-9722
받았어요	-9723
▁가족들은	-9724
▁겨울에는	-9725
▁고객님의	-9726
▁고객들이	-9727
▁내렸어요	-9728
▁뉴욕에서	-9729
▁당신께서	-9730
▁대략적인	-9731
▁대학교를	-9732
▁대한항공	-9733
▁데이트를	-9734
▁도착했을	-9735
▁되었는지	-9736
▁뜻입니다	-9737
▁리포트를	-9738
▁못한다면	-9739
▁물고기를	-9740
▁바다에서	-9741
▁방문하고	-9742
▁배경으로	-9743
▁보이지만	-9744
▁부드럽고	-9745
▁선호해요	-9746
▁수수료가	-9747
▁수영장에	-9748
▁수정하여	-9749
▁스포츠를	-9750
▁시작하고	-9751
▁실례지만	-9752
▁아버지를	-9753
▁아쉬워요	-9754
▁아쉽게도	-9755
▁아티스트	-9756
▁어머니의	-9757
▁여러분도	-9758
▁여러분을	-9759
▁연락해서	-9760
▁외국인을	-9761
▁요청으로	-9762
▁유지하는	-9763
▁인테리어	-9764
▁일어나면	-9765
▁일하면서	-9766
▁입장에서	-9767
▁있겠지만	-9768
▁존재하는	-9769
▁존재하지	-9770
▁중국어를	-9771
▁지금처럼	-9772
▁컴퓨터로	-9773
▁하나하나	-9774
▁핸드폰에	-9775
▁희망해요	-9776
▁걸렸습니다	-9777
▁기뻤습니다	-9778
▁발라줍니다	-9779
▁아시다시피	-9780
▁업데이트된	-9781
▁이해합니다	-9782
▁일본에서는	-9783
▁있습니다고	-9784
▁좋아하는데	-9785
▁죄송하지만	-9786
▁프로젝트는	-9787
▁해외여행을	-9788
▁행복했으면	-9789
▁확인해보니	-9790
AN	-9791
▁깃	-9792
▁깼	-9793
▁껴	-9794
▁잎	-9795
▁탱	-9796
▁튜	-9797
▁팥	-9798
▁퓨	-9799
▁힙	-9800
가스	-9801
감에	-9802
걸요	-9803
권에	-9804
더를	-9805
림이	-9806
볶음	-9807
산의	-9808
송을	-9809
아몬	-9810
여름	-9811
였기	-9812
옷을	-9813
이상	-9814
일간	-9815
장애	-9816
질과	-9817
쯤은	-9818
퍼런	-9819
품의	-9820
학기	-9821
ver	-9822
▁CS	-9823
▁가길	-9824
▁감성	-9825
▁개설	-9826
▁갤럭	-9827
▁걷고	-9828
▁걸렸	-9829
▁걸쳐	-9830
▁곳도	-9831
▁공모	-9832
▁구독	-9833
▁끓인	-9834
▁낚시	-9835
▁남북	-9836
▁네게	-9837
▁논리	-9838
▁데로	-9839
▁동대	-9840
▁듯한	-9841
▁맡아	-9842
▁명예	-9843
▁물고	-9844
▁발이	-9845
▁별도	-9846
▁부가	-9847
▁부적	-9848
▁빠질	-9849
▁사귄	-9850
▁산타	-9851
▁살게	-9852
▁살려	-9853
▁상위	-9854
▁샴푸	-9855
▁선발	-9856
▁속도	-9857
▁수립	-9858
▁숫자	-9859
▁신이	-9860
▁어리	-9861
▁여부	-9862
▁열린	-9863
▁원치	-9864
▁유산	-9865
▁의문	-9866
▁이가	-9867
▁잔디	-9868
▁잘라	-9869
▁잡을	-9870
▁재현	-9871
▁정지	-9872
▁주가	-9873
▁중순	-9874
▁지은	-9875
▁짓을	-9876
▁책에	-9877
▁최악	-9878
▁치유	-9879
▁키울	-9880
▁특수	-9881
▁하룻	-9882
▁협동	-9883
▁호흡	-9884
거리를	-9885
되기도	-9886
되면서	-9887
되어요	-9888
버스를	-9889
상에서	-9890
시간은	-9891
였으면	-9892
월까지	-9893
이에서	-9894
졌다고	-9895
해져서	-9896
▁198	-9897
▁EMS	-9898
▁가격의	-9899
▁것이야	-9900
▁게이트	-9901
▁계시는	-9902
▁과정은	-9903
▁귀엽고	-9904
▁그러기	-9905
▁그러던	-9906
▁그렇죠	-9907
▁글쎄요	-9908
▁깊었던	-9909
▁끝나는	-9910
▁내용의	-9911
▁누르면	-9912
▁느꼈다	-9913
▁다음의	-9914
▁달라는	-9915
▁되네요	-9916
▁드레스	-9917
▁마셨어	-9918
▁많지만	-9919
▁모아서	-9920
▁문장은	-9921
▁문장이	-9922
▁바람에	-9923
▁바이오	-9924
▁보이게	-9925
▁부르는	-9926
▁부탁을	-9927
▁서류에	-9928
▁송금할	-9929
▁시카고	-9930
▁시험공	-9931
▁식당을	-9932
▁신나는	-9933
▁어른이	-9934
▁어우러	-9935
▁영국에	-9936
▁예약해	-9937
▁운동할	-9938
▁운전할	-9939
▁위치가	-9940
▁유익한	-9941
▁의해서	-9942
▁이라는	-9943
▁있듯이	-9944
▁있지요	-9945
▁장면이	-9946
▁저녁은	-9947
▁적용할	-9948
▁점에서	-9949
▁정책을	-9950
▁제품도	-9951
▁조사를	-9952
▁주에는	-9953
▁줄래요	-9954
▁중학생	-9955
▁직원을	-9956
▁촬영을	-9957
▁친구야	-9958
▁커피숍	-9959
▁투자를	-9960
▁포스팅	-9961
▁표정을	-9962
▁표정이	-9963
▁품질을	-9964
▁학원을	-9965
▁한눈에	-9966
▁해결방	-9967
▁해야만	-9968
▁해외에	-9969
드릴까요	-9970
롭습니다	-9971
리입니다	-9972
시겠지만	-9973
으신가요	-9974
▁가족에게	-9975
▁결혼식에	-9976
▁관리하는	-9977
▁들어가면	-9978
▁떠오르는	-9979
▁리스트에	-9980
▁마칩니다	-9981
▁만났으면	-9982
▁사이즈는	-9983
▁스파게티	-9984
▁알려주고	-9985
▁알려주신	-9986
▁어렵다고	-9987
▁어머니는	-9988
▁업체에서	-9989
▁에어컨을	-9990
▁예정이니	-9991
▁오후에는	-9992
▁우리들은	-9993
▁우리에겐	-9994
▁인터넷에	-9995
▁있었다면	-9996
▁장소에서	-9997
▁재미있을	-9998
▁조심해야	-9999
▁지원하는	-10000
▁진지하게	-10001
▁참석하지	-10002
▁처음이라	-10003
▁페이지를	-10004
▁편리하게	-10005
▁하루종일	-10006
▁확인하기	-10007
▁3,000	-10008
▁게임입니다	-10009
▁공부했어요	-10010
▁넣어주세요	-10011
▁동의합니다	-10012
▁드렸습니다	-10013
▁보여주세요	-10014
▁싱가포르에	-10015
▁언제인가요	-10016
▁오래전부터	-10017
▁의사소통이	-10018
▁정기적으로	-10019
▁지났습니다	-10020
해보겠습니다	-10021
▁도착하자마자	-10022
▁선택했습니다	-10023
▁알려드릴게요	-10024
▁첨부하였습니다	-10025
??	-10026
AS	-10027
ec	-10028
un	-10029
ve	-10030
▁r	-10031
▁는	-10032
▁돔	-10033
▁릴	-10034
▁뷔	-10035
▁샷	-10036
▁찢	-10037
▁칵	-10038
겼어	-10039
공원	-10040
규모	-10041
나리	-10042
다녔	-10043
다시	-10044
둥이	-10045
디아	-10046
라노	-10047
러워	-10048
먼트	-10049
명과	-10050
바람	-10051
배송	-10052
서도	-10053
석이	-10054
쇼핑	-10055
씨는	-10056
씨를	-10057
왔고	-10058
으실	-10059
자리	-10060
저녁	-10061
즈가	-10062
직을	-10063
체는	-10064
카메	-10065
크가	-10066
크로	-10067
표가	-10068
der	-10069
▁3,	-10070
▁가급	-10071
▁갤러	-10072
▁공주	-10073
▁교정	-10074
▁극단	-10075
▁기를	-10076
▁까지	-10077
▁깎아	-10078
▁꾸며	-10079
▁끝냈	-10080
▁나뭇	-10081
▁남의	-10082
▁납부	-10083
▁내면	-10084
▁대구	-10085
▁둘은	-10086
▁로고	-10087
▁로드	-10088
▁리드	-10089
▁맑은	-10090
▁면세	-10091
▁모션	-10092
▁목이	-10093
▁박사	-10094
▁박지	-10095
▁범위	-10096
▁법인	-10097
▁병을	-10098
▁비난	-10099
▁사내	-10100
▁사물	-10101
▁살인	-10102
▁상반	-10103
▁선진	-10104
▁수를	-10105
▁시티	-10106
▁신비	-10107
▁씨와	-10108
▁아울	-10109
▁알람	-10110
▁알파	-10111
▁어찌	-10112
▁여쭤	-10113
▁오니	-10114
▁외교	-10115
▁워싱	-10116
▁원자	-10117
▁이날	-10118
▁이리	-10119
▁인구	-10120
▁인원	-10121
▁잃고	-10122
▁자막	-10123
▁장의	-10124
▁재발	-10125
▁주방	-10126
▁주셨	-10127
▁죽는	-10128
▁준수	-10129
▁줄은	-10130
▁중복	-10131
▁지폐	-10132
▁철학	-10133
▁치마	-10134
▁캠프	-10135
▁키우	-10136
▁타워	-10137
▁투입	-10138
▁파란	-10139
▁팔찌	-10140
▁폭발	-10141
▁풀고	-10142
▁형제	-10143
립니까	-10144
시스템	-10145
으로만	-10146
조차도	-10147
학년이	-10148
했으나	-10149
▁400	-10150
▁가져올	-10151
▁강하게	-10152
▁같으니	-10153
▁거니까	-10154
▁검사가	-10155
▁계약이	-10156
▁계정은	-10157
▁공유할	-10158
▁과제가	-10159
▁교육의	-10160
▁그러는	-10161
▁그중에	-10162
▁나오고	-10163
▁나이는	-10164
▁나이에	-10165
▁나타난	-10166
▁넣어서	-10167
▁노란색	-10168
▁단점은	-10169
▁대금을	-10170
▁되지만	-10171
▁디바이	-10172
▁마시지	-10173
▁면에서	-10174
▁모두의	-10175
▁못했을	-10176
▁문서는	-10177
▁방문을	-10178
▁배송은	-10179
▁버스로	-10180
▁부러워	-10181
▁사회가	-10182
▁생각과	-10183
▁서로가	-10184
▁서포리	-10185
▁설치를	-10186
▁수학을	-10187
▁숙소에	-10188
▁순간이	-10189
▁시드니	-10190
▁시리얼	-10191
▁시선을	-10192
▁식사는	-10193
▁신문을	-10194
▁싶나요	-10195
▁아들의	-10196
▁아빠의	-10197
▁아이스	-10198
▁언니는	-10199
▁없어도	-10200
▁없으며	-10201
▁역에서	-10202
▁열쇠를	-10203
▁영향이	-10204
▁오라고	-10205
▁요청이	-10206
▁우선순	-10207
▁음식과	-10208
▁음악에	-10209
▁이곳이	-10210
▁이동할	-10211
▁이루는	-10212
▁인원이	-10213
▁있기에	-10214
▁작업에	-10215
▁장비가	-10216
▁적용된	-10217
▁전시회	-10218
▁조건이	-10219
▁좋을까	-10220
▁주머니	-10221
▁주문에	-10222
▁지난번	-10223
▁챔피언	-10224
▁첨부해	-10225
▁태도를	-10226
▁프레임	-10227
▁하기를	-10228
▁하나인	-10229
▁하라고	-10230
▁하룻밤	-10231
▁학생을	-10232
▁한글을	-10233
▁현상을	-10234
리포니아	-10235
었습니까	-10236
▁Jack	-10237
▁결혼하고	-10238
▁경기에서	-10239
▁나타나는	-10240
▁남들보다	-10241
▁단계에서	-10242
▁모니터링	-10243
▁문의하신	-10244
▁바랄게요	-10245
▁보이네요	-10246
▁사랑하게	-10247
▁사진에서	-10248
▁생긴다면	-10249
▁싶었는데	-10250
▁아이디를	-10251
▁에너지가	-10252
▁여름에는	-10253
▁완료되면	-10254
▁우리들의	-10255
▁운동하고	-10256
▁인공지능	-10257
▁일정으로	-10258
▁읽었어요	-10259
▁전공하고	-10260
▁전문가가	-10261
▁주말에는	-10262
▁프랑스에	-10263
▁필요해서	-10264
▁핸드폰이	-10265
적이었어요	-10266
▁공부합니다	-10267
▁내용이에요	-10268
▁노력했어요	-10269
▁도시입니다	-10270
▁돌아왔어요	-10271
▁반대합니다	-10272
▁선호합니다	-10273
▁여자친구와	-10274
▁영광입니다	-10275
▁우리나라에	-10276
▁이야기하는	-10277
▁제품이에요	-10278
▁중요하지만	-10279
▁찍었습니다	-10280
▁캐나다에서	-10281
▁확인하시고	-10282
▁힘들었지만	-10283
▁보내주십시오	-10284
▁생각하십니까	-10285
▁커뮤니케이션	-10286
▁행복했습니다	-10287
▁연락드리겠습니다	-10288
▁h	-10289
▁갇	-10290
▁곱	-10291
▁똥	-10292
▁빕	-10293
▁삐	-10294
▁찰	-10295
건은	-10296
그룹	-10297
나마	-10298
나와	-10299
나의	-10300
놀이	-10301
등록	-10302
러윈	-10303
리즘	-10304
마켓	-10305
마크	-10306
보지	-10307
봐도	-10308
업의	-10309
외로	-10310
우를	-10311
음식	-10312
자면	-10313
즈는	-10314
치면	-10315
포먼	-10316
폰을	-10317
하긴	-10318
ort	-10319
▁In	-10320
▁간섭	-10321
▁갈까	-10322
▁감명	-10323
▁값이	-10324
▁거는	-10325
▁걸까	-10326
▁계시	-10327
▁곳곳	-10328
▁공존	-10329
▁공지	-10330
▁공학	-10331
▁그릴	-10332
▁기구	-10333
▁나눴	-10334
▁남이	-10335
▁눈썹	-10336
▁다할	-10337
▁닦아	-10338
▁단단	-10339
▁대출	-10340
▁드실	-10341
▁따르	-10342
▁뜻을	-10343
▁라운	-10344
▁막아	-10345
▁맛은	-10346
▁매표	-10347
▁명을	-10348
▁모터	-10349
▁바깥	-10350
▁반성	-10351
▁법률	-10352
▁보길	-10353
▁본인	-10354
▁부부	-10355
▁불면	-10356
▁뷔페	-10357
▁사격	-10358
▁사탕	-10359
▁서핑	-10360
▁소지	-10361
▁수직	-10362
▁술은	-10363
▁스킬	-10364
▁스프	-10365
▁승진	-10366
▁실질	-10367
▁안락	-10368
▁안아	-10369
▁양보	-10370
▁여태	-10371
▁염려	-10372
▁오르	-10373
▁왕산	-10374
▁욕망	-10375
▁원료	-10376
▁위를	-10377
▁유대	-10378
▁자외	-10379
▁전원	-10380
▁접착	-10381
▁정중	-10382
▁정한	-10383
▁제임	-10384
▁좋겠	-10385
▁주관	-10386
▁처방	-10387
▁첨가	-10388
▁초밥	-10389
▁출항	-10390
▁치과	-10391
▁통계	-10392
▁투명	-10393
▁티브	-10394
▁한데	-10395
▁해제	-10396
▁흔히	-10397
소리를	-10398
스트를	-10399
주의를	-10400
줄게요	-10401
타인데	-10402
해주기	-10403
해주지	-10404
▁20%	-10405
▁30%	-10406
▁LED	-10407
▁UPS	-10408
▁가수는	-10409
▁가슴이	-10410
▁갈아입	-10411
▁같다는	-10412
▁경기에	-10413
▁고개를	-10414
▁고맙고	-10415
▁나라가	-10416
▁나이를	-10417
▁남에게	-10418
▁노력은	-10419
▁놓치지	-10420
▁다해서	-10421
▁달러로	-10422
▁대구에	-10423
▁대체로	-10424
▁데스크	-10425
▁도시는	-10426
▁동물이	-10427
▁등록된	-10428
▁떠나고	-10429
▁렌즈를	-10430
▁매력이	-10431
▁매운맛	-10432
▁목숨을	-10433
▁미국과	-10434
▁발송할	-10435
▁보냈던	-10436
▁보니까	-10437
▁보상을	-10438
▁보시고	-10439
▁보여서	-10440
▁보이기	-10441
▁부끄럽	-10442
▁부득이	-10443
▁불량이	-10444
▁비밀을	-10445
▁사랑과	-10446
▁사려고	-10447
▁상태에	-10448
▁서울을	-10449
▁설탕을	-10450
▁성장을	-10451
▁수리를	-10452
▁수준의	-10453
▁스터디	-10454
▁시험은	-10455
▁실수가	-10456
▁아내는	-10457
▁아프게	-10458
▁않아야	-10459
▁어렵다	-10460
▁영어와	-10461
▁외국어	-10462
▁요구를	-10463
▁음식점	-10464
▁의무가	-10465
▁의자에	-10466
▁이렇듯	-10467
▁이베이	-10468
▁인턴십	-10469
▁자신과	-10470
▁잘해야	-10471
▁제목은	-10472
▁조만간	-10473
▁조심히	-10474
▁종류를	-10475
▁진심을	-10476
▁차이나	-10477
▁책임이	-10478
▁처리해	-10479
▁추워서	-10480
▁컬러를	-10481
▁퀄리티	-10482
▁퍼포먼	-10483
▁풍경을	-10484
▁해줘서	-10485
▁핼러윈	-10486
▁했었어	-10487
▁활용할	-10488
▁회신해	-10489
되었으면	-10490
버렸어요	-10491
하십니다	-10492
해졌어요	-10493
▁가능하며	-10494
▁가득하길	-10495
▁개발하고	-10496
▁계십니다	-10497
▁고객들은	-10498
▁당신이랑	-10499
▁도시에서	-10500
▁드라마는	-10501
▁들어가야	-10502
▁만나기를	-10503
▁문제인지	-10504
▁박물관에	-10505
▁사용자의	-10506
▁사진들을	-10507
▁생각해서	-10508
▁선수들이	-10509
▁세종대왕	-10510
▁소비자의	-10511
▁순서대로	-10512
▁시작하기	-10513
▁시작해서	-10514
▁신용카드	-10515
▁아이템은	-10516
▁오늘따라	-10517
▁요청하고	-10518
▁이메일이	-10519
▁인터넷이	-10520
▁있거든요	-10521
▁자유로운	-10522
▁주변에는	-10523
▁중국으로	-10524
▁증명서를	-10525
▁지역에서	-10526
▁참여하고	-10527
▁책임감이	-10528
▁청구서를	-10529
▁추가하여	-10530
▁추천하는	-10531
▁컴퓨터에	-10532
▁클라이언	-10533
▁탔습니다	-10534
▁포함하고	-10535
▁프라이팬	-10536
▁했었어요	-10537
▁현재까지	-10538
▁화장실에	-10539
▁걱정됩니다	-10540
▁경제적으로	-10541
▁고급스러운	-10542
▁규칙적으로	-10543
▁다음부터는	-10544
▁다행이에요	-10545
▁도착합니다	-10546
▁먹방입니다	-10547
▁본격적으로	-10548
▁상대적으로	-10549
▁샌드위치를	-10550
▁선생님에게	-10551
▁소요됩니다	-10552
▁여러분에게	-10553
▁월요일까지	-10554
▁캘리포니아	-10555
▁카카오톡으로	-10556
▁발표하겠습니다	-10557
19	-10558
ce	-10559
ke	-10560
▁Z	-10561
▁굶	-10562
▁닥	-10563
▁덧	-10564
▁뱀	-10565
▁뱅	-10566
▁헷	-10567
가짐	-10568
건이	-10569
관과	-10570
구니	-10571
나고	-10572
내지	-10573
량에	-10574
로도	-10575
루를	-10576
리토	-10577
리한	-10578
만은	-10579
빨리	-10580
뿐인	-10581
욕이	-10582
움과	-10583
원과	-10584
위해	-10585
정과	-10586
주인	-10587
추는	-10588
티가	-10589
팀은	-10590
학습	-10591
험을	-10592
...	-10593
oll	-10594
▁32	-10595
▁34	-10596
▁An	-10597
▁BL	-10598
▁MP	-10599
▁SM	-10600
▁간식	-10601
▁감지	-10602
▁개방	-10603
▁것들	-10604
▁교복	-10605
▁귀를	-10606
▁까먹	-10607
▁끓여	-10608
▁높게	-10609
▁늦지	-10610
▁당근	-10611
▁댄스	-10612
▁도보	-10613
▁되찾	-10614
▁두꺼	-10615
▁든다	-10616
▁든든	-10617
▁등급	-10618
▁땅에	-10619
▁렌트	-10620
▁만두	-10621
▁맞출	-10622
▁먹자	-10623
▁멈춰	-10624
▁몰입	-10625
▁밀어	-10626
▁바지	-10627
▁반에	-10628
▁밴드	-10629
▁버릴	-10630
▁복용	-10631
▁뵙고	-10632
▁부른	-10633
▁뿌려	-10634
▁사교	-10635
▁새끼	-10636
▁세대	-10637
▁수의	-10638
▁수취	-10639
▁스무	-10640
▁슬펐	-10641
▁실무	-10642
▁싸게	-10643
▁쌓고	-10644
▁아예	-10645
▁아저	-10646
▁아플	-10647
▁않길	-10648
▁언론	-10649
▁에버	-10650
▁연령	-10651
▁예능	-10652
▁오일	-10653
▁와도	-10654
▁용이	-10655
▁우산	-10656
▁이래	-10657
▁인재	-10658
▁일시	-10659
▁정당	-10660
▁정돈	-10661
▁제기	-10662
▁조개	-10663
▁조깅	-10664
▁종업	-10665
▁짐이	-10666
▁첫인	-10667
▁최저	-10668
▁취한	-10669
▁침착	-10670
▁클레	-10671
▁팁을	-10672
▁판타	-10673
▁패스	-10674
▁필터	-10675
▁헷갈	-10676
▁환전	-10677
▁회전	-10678
가지의	-10679
감으로	-10680
더군요	-10681
되도록	-10682
되었을	-10683
원들이	-10684
해보는	-10685
▁USD	-10686
▁가게가	-10687
▁가을에	-10688
▁가을이	-10689
▁간식을	-10690
▁갔는데	-10691
▁개발한	-10692
▁거기는	-10693
▁검토를	-10694
▁결정이	-10695
▁결제는	-10696
▁고유의	-10697
▁공급이	-10698
▁교육에	-10699
▁그것도	-10700
▁그분은	-10701
▁기계는	-10702
▁기대를	-10703
▁기록을	-10704
▁기준을	-10705
▁기차가	-10706
▁나쁘지	-10707
▁내일도	-10708
▁너희들	-10709
▁누군지	-10710
▁다루는	-10711
▁단점을	-10712
▁대학원	-10713
▁데려가	-10714
▁도메인	-10715
▁드시면	-10716
▁들어야	-10717
▁만났던	-10718
▁많은데	-10719
▁맛있어	-10720
▁모르겠	-10721
▁바다로	-10722
▁베네치	-10723
▁보내게	-10724
▁보았어	-10725
▁보였어	-10726
▁부모가	-10727
▁부산의	-10728
▁북한의	-10729
▁불필요	-10730
▁사고로	-10731
▁사인을	-10732
▁색상을	-10733
▁소통을	-10734
▁소통할	-10735
▁소포를	-10736
▁수량에	-10737
▁수영장	-10738
▁시절에	-10739
▁신발은	-10740
▁알레르	-10741
▁알아볼	-10742
▁애들이	-10743
▁언어로	-10744
▁언제가	-10745
▁업무가	-10746
▁에러가	-10747
▁여배우	-10748
▁역할은	-10749
▁연결된	-10750
▁예술가	-10751
▁오셔서	-10752
▁오해를	-10753
▁올해의	-10754
▁요구한	-10755
▁유사한	-10756
▁의식을	-10757
▁의향이	-10758
▁이것저	-10759
▁이번이	-10760
▁이제야	-10761
▁인형이	-10762
▁일이야	-10763
▁있을게	-10764
▁잘못한	-10765
▁재미를	-10766
▁정도면	-10767
▁제공한	-10768
▁제안한	-10769
▁주인이	-10770
▁지니고	-10771
▁지키기	-10772
▁진행한	-10773
▁집중할	-10774
▁찾아갈	-10775
▁체크해	-10776
▁최선의	-10777
▁크기의	-10778
▁클래식	-10779
▁통증이	-10780
▁통화할	-10781
▁팀에서	-10782
▁파티가	-10783
▁페인트	-10784
▁프로토	-10785
▁할인이	-10786
▁함부로	-10787
▁환불이	-10788
스입니다	-10789
하셨나요	-10790
하셨어요	-10791
하였으나	-10792
▁거기에서	-10793
▁고속도로	-10794
▁궁금하신	-10795
▁그리워요	-10796
▁기본으로	-10797
▁깔끔하게	-10798
▁놀랐어요	-10799
▁다이아몬	-10800
▁다행히도	-10801
▁당신처럼	-10802
▁대부분이	-10803
▁동료들과	-10804
▁듯합니다	-10805
▁떨어져서	-10806
▁물건들을	-10807
▁방문하는	-10808
▁생각했던	-10809
▁생산하는	-10810
▁서비스의	-10811
▁스타일은	-10812
▁시작으로	-10813
▁신혼여행	-10814
▁얘기하는	-10815
▁얼마인지	-10816
▁없었으면	-10817
▁에이전트	-10818
▁이곳으로	-10819
▁이메일에	-10820
▁이미지는	-10821
▁이상하게	-10822
▁잠자리에	-10823
▁전까지는	-10824
▁정리해서	-10825
▁좋겠다고	-10826
▁지불하고	-10827
▁직장에서	-10828
▁카메라의	-10829
▁케이스를	-10830
▁테스트가	-10831
▁프리미엄	-10832
▁필요한지	-10833
▁하시나요	-10834
▁함께하고	-10835
▁행동으로	-10836
▁끝났습니다	-10837
▁들어갑니다	-10838
▁물어보세요	-10839
▁바이어에게	-10840
▁발생했어요	-10841
▁배드민턴을	-10842
▁백화점에서	-10843
▁버렸습니다	-10844
▁불가능해요	-10845
▁아름다워요	-10846
▁와이파이가	-10847
▁일요일에는	-10848
▁장소입니다	-10849
▁축하합니다	-10850
▁페이스북을	-10851
▁필리핀으로	-10852
▁서비스입니다	-10853
▁크리스마스를	-10854
.7	-10855
CC	-10856
ON	-10857
▁뚱	-10858
▁럭	-10859
▁룰	-10860
▁를	-10861
▁립	-10862
▁쫄	-10863
▁탭	-10864
길이	-10865
꺼이	-10866
도그	-10867
동은	-10868
력의	-10869
마한	-10870
모레	-10871
백을	-10872
버리	-10873
비와	-10874
살에	-10875
소로	-10876
쉽게	-10877
스케	-10878
시안	-10879
신은	-10880
었지	-10881
전의	-10882
주년	-10883
즈의	-10884
증에	-10885
차는	-10886
치로	-10887
클럽	-10888
킬로	-10889
표로	-10890
풍이	-10891
혀서	-10892
▁3~	-10893
▁CP	-10894
▁LG	-10895
▁Pl	-10896
▁in	-10897
▁가구	-10898
▁가꾸	-10899
▁갈래	-10900
▁감시	-10901
▁걸고	-10902
▁고르	-10903
▁곳의	-10904
▁교차	-10905
▁귀가	-10906
▁귀중	-10907
▁근로	-10908
▁글은	-10909
▁김포	-10910
▁까다	-10911
▁깜빡	-10912
▁끼워	-10913
▁나로	-10914
▁남았	-10915
▁내서	-10916
▁넣는	-10917
▁다닌	-10918
▁단독	-10919
▁들의	-10920
▁때와	-10921
▁뚱뚱	-10922
▁러브	-10923
▁마중	-10924
▁망설	-10925
▁맨날	-10926
▁맺고	-10927
▁모공	-10928
▁모던	-10929
▁무기	-10930
▁문구	-10931
▁물은	-10932
▁믿음	-10933
▁방수	-10934
▁방안	-10935
▁버그	-10936
▁보너	-10937
▁보편	-10938
▁비벼	-10939
▁빨라	-10940
▁사면	-10941
▁성별	-10942
▁센서	-10943
▁소모	-10944
▁소형	-10945
▁시너	-10946
▁시야	-10947
▁싸고	-10948
▁영역	-10949
▁오디	-10950
▁옮길	-10951
▁옳지	-10952
▁요인	-10953
▁원어	-10954
▁원할	-10955
▁웨딩	-10956
▁의류	-10957
▁의상	-10958
▁의학	-10959
▁이쪽	-10960
▁자면	-10961
▁재무	-10962
▁저지	-10963
▁저항	-10964
▁적도	-10965
▁제휴	-10966
▁주연	-10967
▁지워	-10968
▁초래	-10969
▁총을	-10970
▁충돌	-10971
▁테러	-10972
▁평등	-10973
▁학창	-10974
▁합법	-10975
▁했지	-10976
▁행위	-10977
▁활기	-10978
▁힙합	-10979
가락을	-10980
님께서	-10981
되었기	-10982
레인지	-10983
렸는데	-10984
뿐이야	-10985
사들이	-10986
사항이	-10987
산으로	-10988
살이고	-10989
센터에	-10990
았지만	-10991
일에서	-10992
지라도	-10993
처리를	-10994
품으로	-10995
하셔도	-10996
함으로	-10997
▁600	-10998
▁GMO	-10999
▁가르치	-11000
▁가방이	-11001
▁간절히	-11002
▁갈수록	-11003
▁개선이	-11004
▁걱정돼	-11005
▁겨울은	-11006
▁결정할	-11007
▁경치가	-11008
▁고려해	-11009
▁곳이야	-11010
▁과정에	-11011
▁관계에	-11012
▁국가가	-11013
▁그림의	-11014
▁극대화	-11015
▁기계가	-11016
▁기꺼이	-11017
▁기름을	-11018
▁기말고	-11019
▁기쁘다	-11020
▁기차는	-11021
▁나가고	-11022
▁날씨에	-11023
▁넘어가	-11024
▁노하우	-11025
▁높이는	-11026
▁더러운	-11027
▁돌아왔	-11028
▁또다시	-11029
▁마시러	-11030
▁마음과	-11031
▁마음속	-11032
▁많다는	-11033
▁매일매	-11034
▁매장에	-11035
▁머무는	-11036
▁먹으며	-11037
▁미국을	-11038
▁바쁘신	-11039
▁반응이	-11040
▁발송이	-11041
▁방학을	-11042
▁병원을	-11043
▁보낼게	-11044
▁봤으면	-11045
▁비교해	-11046
▁사용될	-11047
▁상관이	-11048
▁상상할	-11049
▁세상은	-11050
▁세일즈	-11051
▁소녀는	-11052
▁손바닥	-11053
▁손쉽게	-11054
▁송장을	-11055
▁수준이	-11056
▁슬퍼요	-11057
▁승인이	-11058
▁어학연	-11059
▁언니와	-11060
▁여름이	-11061
▁영화와	-11062
▁오늘을	-11063
▁외에는	-11064
▁이것도	-11065
▁이들이	-11066
▁일부러	-11067
▁전략을	-11068
▁전화할	-11069
▁점수가	-11070
▁좋았다	-11071
▁지내요	-11072
▁지진이	-11073
▁집까지	-11074
▁취미로	-11075
▁클렌징	-11076
▁텍스트	-11077
▁펌웨어	-11078
▁품질이	-11079
▁프린팅	-11080
▁피곤한	-11081
▁피곤할	-11082
▁학기에	-11083
▁핫도그	-11084
▁헤어진	-11085
▁현재는	-11086
국제공항	-11087
▁CCTV	-11088
▁가족들을	-11089
▁개인정보	-11090
▁경험하고	-11091
▁깨끗하고	-11092
▁나갔어요	-11093
▁남습니다	-11094
▁넣습니다	-11095
▁독일에서	-11096
▁돌아가고	-11097
▁디자인과	-11098
▁만납니다	-11099
▁무상으로	-11100
▁문제점이	-11101
▁물어봐도	-11102
▁받아들일	-11103
▁배송비를	-11104
▁사무실로	-11105
▁살아가고	-11106
▁생각으로	-11107
▁생각이야	-11108
▁생각하니	-11109
▁소통하는	-11110
▁수정해서	-11111
▁스케줄은	-11112
▁않으려고	-11113
▁알았는데	-11114
▁연결되어	-11115
▁예쁘다고	-11116
▁요청했던	-11117
▁우리한테	-11118
▁운전하는	-11119
▁이것저것	-11120
▁이번에도	-11121
▁익숙하지	-11122
▁인간관계	-11123
▁인종차별	-11124
▁있을게요	-11125
▁정리하고	-11126
▁주문하면	-11127
▁주변에서	-11128
▁지연되고	-11129
▁참여하지	-11130
▁책입니다	-11131
▁해외여행	-11132
▁화장실을	-11133
해졌습니다	-11134
▁결론적으로	-11135
▁기도합니다	-11136
▁문의합니다	-11137
▁사진이에요	-11138
▁상황이에요	-11139
▁자연스러운	-11140
▁전문적으로	-11141
▁주문했는데	-11142
▁찾았습니다	-11143
▁즐거웠습니다	-11144
▁태어났습니다	-11145
▁발송하겠습니다	-11146
▁주문하겠습니다	-11147
IF	-11148
ut	-11149
▁k	-11150
▁갯	-11151
▁넷	-11152
▁붐	-11153
▁숟	-11154
▁얽	-11155
▁톤	-11156
▁흙	-11157
간다	-11158
갔어	-11159
개에	-11160
거를	-11161
계에	-11162
계탕	-11163
과도	-11164
능한	-11165
닝을	-11166
당을	-11167
데렐	-11168
듬뿍	-11169
면은	-11170
방울	-11171
보내	-11172
비앤	-11173
스키	-11174
었죠	-11175
유가	-11176
을까	-11177
절이	-11178
주기	-11179
주길	-11180
터리	-11181
폴리	-11182
표는	-11183
해본	-11184
화할	-11185
ard	-11186
▁Ch	-11187
▁IR	-11188
▁감당	-11189
▁감싸	-11190
▁거실	-11191
▁건의	-11192
▁것일	-11193
▁겪은	-11194
▁고구	-11195
▁곡을	-11196
▁골든	-11197
▁국립	-11198
▁군인	-11199
▁규격	-11200
▁기둥	-11201
▁기쁠	-11202
▁기상	-11203
▁너네	-11204
▁놓아	-11205
▁눈빛	-11206
▁단종	-11207
▁댁에	-11208
▁되며	-11209
▁들과	-11210
▁로비	-11211
▁만료	-11212
▁맛도	-11213
▁맞죠	-11214
▁맡고	-11215
▁멀어	-11216
▁멜로	-11217
▁뮤직	-11218
▁반은	-11219
▁밥도	-11220
▁방어	-11221
▁배정	-11222
▁변형	-11223
▁보건	-11224
▁보신	-11225
▁복습	-11226
▁본사	-11227
▁분할	-11228
▁사지	-11229
▁선교	-11230
▁선착	-11231
▁섬세	-11232
▁소진	-11233
▁수납	-11234
▁수제	-11235
▁수치	-11236
▁수하	-11237
▁쉬어	-11238
▁신의	-11239
▁예시	-11240
▁온몸	-11241
▁욕심	-11242
▁욕을	-11243
▁웃게	-11244
▁위기	-11245
▁위원	-11246
▁유출	-11247
▁의식	-11248
▁일의	-11249
▁자러	-11250
▁자제	-11251
▁작고	-11252
▁저작	-11253
▁주간	-11254
▁주거	-11255
▁중지	-11256
▁지능	-11257
▁지출	-11258
▁진단	-11259
▁짜장	-11260
▁체포	-11261
▁최우	-11262
▁추세	-11263
▁출전	-11264
▁치워	-11265
▁친근	-11266
▁커요	-11267
▁투어	-11268
▁팀에	-11269
▁퍼즐	-11270
▁폭포	-11271
▁피로	-11272
▁필름	-11273
▁해상	-11274
▁협업	-11275
▁호랑	-11276
▁홀로	-11277
▁흥분	-11278
개월간	-11279
국으로	-11280
되었어	-11281
리어가	-11282
시험을	-11283
하겠어	-11284
▁2~3	-11285
▁ASM	-11286
▁DVR	-11287
▁가봐야	-11288
▁가져온	-11289
▁가져와	-11290
▁가지만	-11291
▁감성을	-11292
▁갑니까	-11293
▁강제로	-11294
▁같지만	-11295
▁거리는	-11296
▁건물의	-11297
▁게임에	-11298
▁결혼은	-11299
▁결혼한	-11300
▁경험해	-11301
▁고장이	-11302
▁공기가	-11303
▁공기를	-11304
▁공부가	-11305
▁공유해	-11306
▁관심과	-11307
▁권리를	-11308
▁권한을	-11309
▁그때의	-11310
▁그레이	-11311
▁기업이	-11312
▁김연아	-11313
▁나무는	-11314
▁날이야	-11315
▁낮에는	-11316
▁내부에	-11317
▁냄새를	-11318
▁느껴져	-11319
▁달라질	-11320
▁도와준	-11321
▁레시피	-11322
▁만남을	-11323
▁매콤한	-11324
▁모두들	-11325
▁모른다	-11326
▁목소리	-11327
▁무례한	-11328
▁문의한	-11329
▁뭐에요	-11330
▁믿음을	-11331
▁바빠요	-11332
▁바지를	-11333
▁발전에	-11334
▁방법과	-11335
▁방식은	-11336
▁방안을	-11337
▁병원이	-11338
▁보라카	-11339
▁부재중	-11340
▁비용과	-11341
▁비정상	-11342
▁사업자	-11343
▁색깔을	-11344
▁색다른	-11345
▁생기지	-11346
▁생일에	-11347
▁생일은	-11348
▁송금을	-11349
▁수정을	-11350
▁수정한	-11351
▁스웨덴	-11352
▁스티브	-11353
▁시도를	-11354
▁신데렐	-11355
▁아내와	-11356
▁아들과	-11357
▁안내를	-11358
▁양식을	-11359
▁어디가	-11360
▁얼마를	-11361
▁업체는	-11362
▁없이는	-11363
▁영상이	-11364
▁예약은	-11365
▁온도가	-11366
▁온도를	-11367
▁올해도	-11368
▁요소를	-11369
▁원어민	-11370
▁월급을	-11371
▁은행이	-11372
▁의견은	-11373
▁이상을	-11374
▁이슈에	-11375
▁인연이	-11376
▁일상을	-11377
▁일하지	-11378
▁읽었어	-11379
▁있으신	-11380
▁자재를	-11381
▁재미가	-11382
▁적부터	-11383
▁적용이	-11384
▁절차가	-11385
▁정부가	-11386
▁정부의	-11387
▁정하지	-11388
▁제작할	-11389
▁중인데	-11390
▁지급을	-11391
▁지원이	-11392
▁창문을	-11393
▁책임질	-11394
▁초대해	-11395
▁최고로	-11396
▁코리아	-11397
▁피로를	-11398
▁하느라	-11399
▁행사는	-11400
▁호텔의	-11401
▁화면을	-11402
▁화물을	-11403
▁환경이	-11404
▁활동은	-11405
▁활용한	-11406
도입니다	-11407
에서부터	-11408
하였으니	-11409
▁가정에서	-11410
▁간호사가	-11411
▁감사하게	-11412
▁고민하고	-11413
▁국제적인	-11414
▁궁금해서	-11415
▁그런데도	-11416
▁남자들은	-11417
▁냉장고에	-11418
▁누르세요	-11419
▁다가오는	-11420
▁당신하고	-11421
▁당했어요	-11422
▁도착하여	-11423
▁동아리에	-11424
▁되었는데	-11425
▁마음가짐	-11426
▁말인가요	-11427
▁먹으려고	-11428
▁모양으로	-11429
▁받으세요	-11430
▁발생하고	-11431
▁방지하기	-11432
▁불편함을	-11433
▁비쌉니다	-11434
▁빠졌어요	-11435
▁상대방이	-11436
▁설치되어	-11437
▁수업에서	-11438
▁스티커를	-11439
▁시작하면	-11440
▁심각하게	-11441
▁아이에게	-11442
▁알려줘야	-11443
▁어땠어요	-11444
▁얻습니다	-11445
▁에어비앤	-11446
▁원하시면	-11447
▁유창하게	-11448
▁이력서를	-11449
▁일했어요	-11450
▁읽으면서	-11451
▁있음으로	-11452
▁작성하여	-11453
▁작성해서	-11454
▁점이에요	-11455
▁주신다면	-11456
▁준비해서	-11457
▁지냈어요	-11458
▁진정으로	-11459
▁콘서트를	-11460
▁포인트가	-11461
▁표현하고	-11462
▁할머니를	-11463
▁해결책을	-11464
▁해외에서	-11465
▁확인하지	-11466
▁환경에서	-11467
▁힘들어서	-11468
▁가족들에게	-11469
▁기다렸어요	-11470
▁누구에게나	-11471
▁때문이라고	-11472
▁레스토랑은	-11473
▁메뉴입니다	-11474
▁밸런타인데	-11475
▁선택하세요	-11476
▁스마트폰은	-11477
▁알려줍니다	-11478
▁연락할게요	-11479
▁일어났어요	-11480
▁자랑스러워	-11481
▁정류장에서	-11482
▁주문했어요	-11483
▁주셨습니다	-11484
▁즐거웠어요	-11485
▁학교생활을	-11486
▁나타났습니다	-11487
▁못하였습니다	-11488
▁연락드립니다	-11489
▁인천국제공항	-11490
▁요청하였습니다	-11491
-1	-11492
/2	-11493
17	-11494
OB	-11495
ub	-11496
um	-11497
▁놈	-11498
▁땄	-11499
▁벼	-11500
▁붕	-11501
▁솜	-11502
▁쳤	-11503
▁헛	-11504
▁혐	-11505
▁횡	-11506
▁휠	-11507
▁흠	-11508
값이	-11509
개만	-11510
겨서	-11511
견을	-11512
기념	-11513
니깐	-11514
달라	-11515
대와	-11516
도시	-11517
딩을	-11518
라에	-11519
련을	-11520
렸던	-11521
로써	-11522
르트	-11523
마가	-11524
마리	-11525
목이	-11526
박을	-11527
버린	-11528
월의	-11529
위원	-11530
장한	-11531
졌기	-11532
지역	-11533
짬뽕	-11534
층의	-11535
토니	-11536
티콘	-11537
팀이	-11538
펠탑	-11539
하에	-11540
호선	-11541
▁ID	-11542
▁Jo	-11543
▁SP	-11544
▁St	-11545
▁가속	-11546
▁거듭	-11547
▁검정	-11548
▁결재	-11549
▁고무	-11550
▁과장	-11551
▁교과	-11552
▁그라	-11553
▁길드	-11554
▁나뉘	-11555
▁노예	-11556
▁놀랍	-11557
▁놓을	-11558
▁돌고	-11559
▁돌보	-11560
▁뒤집	-11561
▁딸과	-11562
▁때쯤	-11563
▁렌터	-11564
▁마친	-11565
▁먹으	-11566
▁멘토	-11567
▁멸종	-11568
▁모둠	-11569
▁무늬	-11570
▁무선	-11571
▁미군	-11572
▁박람	-11573
▁반면	-11574
▁변함	-11575
▁보유	-11576
▁볼펜	-11577
▁봤던	-11578
▁부활	-11579
▁붙잡	-11580
▁뷰티	-11581
▁빠르	-11582
▁사본	-11583
▁산출	-11584
▁색채	-11585
▁서랍	-11586
▁석사	-11587
▁세럼	-11588
▁센트	-11589
▁셰익	-11590
▁소득	-11591
▁소수	-11592
▁수락	-11593
▁수월	-11594
▁식민	-11595
▁쓰게	-11596
▁안고	-11597
▁안부	-11598
▁앱은	-11599
▁양식	-11600
▁양치	-11601
▁없지	-11602
▁에티	-11603
▁연봉	-11604
▁연설	-11605
▁연수	-11606
▁오길	-11607
▁외계	-11608
▁왼손	-11609
▁우측	-11610
▁원피	-11611
▁유해	-11612
▁이란	-11613
▁이만	-11614
▁이뻐	-11615
▁인권	-11616
▁자요	-11617
▁자지	-11618
▁장미	-11619
▁재질	-11620
▁저랑	-11621
▁정품	-11622
▁조화	-11623
▁좌절	-11624
▁주무	-11625
▁주입	-11626
▁주저	-11627
▁지우	-11628
▁짓고	-11629
▁채식	-11630
▁촉진	-11631
▁타깃	-11632
▁파리	-11633
▁펌프	-11634
▁표정	-11635
▁하려	-11636
▁항의	-11637
▁향한	-11638
▁허리	-11639
▁후의	-11640
▁힘드	-11641
나가는	-11642
랜드에	-11643
려고요	-11644
명으로	-11645
받아야	-11646
서에서	-11647
스테이	-11648
으므로	-11649
인지는	-11650
해줘요	-11651
형으로	-11652
▁것이니	-11653
▁경찰에	-11654
▁고객사	-11655
▁곧바로	-11656
▁공간은	-11657
▁공급할	-11658
▁공연은	-11659
▁광고가	-11660
▁구하고	-11661
▁그릇에	-11662
▁꾸준한	-11663
▁나누는	-11664
▁나이키	-11665
▁날씨를	-11666
▁내일이	-11667
▁냅니다	-11668
▁냉장고	-11669
▁네이버	-11670
▁농구를	-11671
▁다르다	-11672
▁당사는	-11673
▁당시에	-11674
▁대상이	-11675
▁도저히	-11676
▁들으며	-11677
▁등록을	-11678
▁디테일	-11679
▁뚜껑을	-11680
▁라이선	-11681
▁라인을	-11682
▁말씀이	-11683
▁머리에	-11684
▁모두를	-11685
▁모티브	-11686
▁목표가	-11687
▁무한한	-11688
▁물고기	-11689
▁믿음이	-11690
▁바뀌는	-11691
▁받았을	-11692
▁방학에	-11693
▁배웠어	-11694
▁밴쿠버	-11695
▁버리지	-11696
▁변경될	-11697
▁보거나	-11698
▁보내니	-11699
▁보람을	-11700
▁보스턴	-11701
▁부담을	-11702
▁분홍색	-11703
▁불러요	-11704
▁불만이	-11705
▁블록체	-11706
▁비롯한	-11707
▁사건에	-11708
▁사람인	-11709
▁사탕을	-11710
▁상자를	-11711
▁샘플과	-11712
▁설명이	-11713
▁설문조	-11714
▁세관에	-11715
▁센터에	-11716
▁소재를	-11717
▁속도로	-11718
▁시설을	-11719
▁아닌가	-11720
▁아무튼	-11721
▁않으니	-11722
▁알아듣	-11723
▁야채를	-11724
▁어렵게	-11725
▁얼굴은	-11726
▁없었기	-11727
▁에펠탑	-11728
▁역량을	-11729
▁연극을	-11730
▁열려요	-11731
▁용기가	-11732
▁움직이	-11733
▁웃음이	-11734
▁워싱턴	-11735
▁유지할	-11736
▁의하면	-11737
▁이들의	-11738
▁이따가	-11739
▁이라고	-11740
▁인식이	-11741
▁인천아	-11742
▁일하기	-11743
▁입금이	-11744
▁자기소	-11745
▁자연의	-11746
▁자원을	-11747
▁잡지를	-11748
▁장난을	-11749
▁장비는	-11750
▁장소로	-11751
▁정도가	-11752
▁정리를	-11753
▁제안에	-11754
▁제작을	-11755
▁제출할	-11756
▁조건은	-11757
▁주변을	-11758
▁주셔야	-11759
▁주시는	-11760
▁책으로	-11761
▁카드는	-11762
▁쿠폰을	-11763
▁타입의	-11764
▁트래킹	-11765
▁특징을	-11766
▁팀워크	-11767
▁포장을	-11768
▁학생회	-11769
▁행위를	-11770
기보다는	-11771
되었나요	-11772
제입니다	-11773
해달라고	-11774
▁간편하게	-11775
▁같았어요	-11776
▁결혼식을	-11777
▁고객님이	-11778
▁구매자가	-11779
▁구매하는	-11780
▁구매하신	-11781
▁군대에서	-11782
▁근무하고	-11783
▁기억해요	-11784
▁나오나요	-11785
▁남동생이	-11786
▁누구한테	-11787
▁다양하고	-11788
▁담당자와	-11789
▁대부분은	-11790
▁대통령이	-11791
▁대화하는	-11792
▁들어가고	-11793
▁떨어지는	-11794
▁마사지를	-11795
▁마스크를	-11796
▁말하세요	-11797
▁물어보는	-11798
▁배터리가	-11799
▁백화점에	-11800
▁버스에서	-11801
▁불립니다	-11802
▁살아있는	-11803
▁선택하는	-11804
▁셰익스피	-11805
▁아이템이	-11806
▁어디서나	-11807
▁어제부터	-11808
▁열정적인	-11809
▁오른쪽에	-11810
▁요리사가	-11811
▁음식들을	-11812
▁의미하는	-11813
▁이후에는	-11814
▁일이라고	-11815
▁적용하여	-11816
▁좋아하니	-11817
▁주었으면	-11818
▁찾습니다	-11819
▁추구하는	-11820
▁테니스를	-11821
▁포기하고	-11822
▁학원에서	-11823
▁할머니가	-11824
▁해결하는	-11825
▁화장품을	-11826
▁같았습니다	-11827
▁고객님께서	-11828
▁그곳에서는	-11829
▁나갔습니다	-11830
▁내렸습니다	-11831
▁떨어졌어요	-11832
▁보내주시길	-11833
▁아니었어요	-11834
▁아메리카노	-11835
▁영화관에서	-11836
▁예약했는데	-11837
▁예정입니까	-11838
▁오스트리아	-11839
▁일어납니다	-11840
▁재미있었어	-11841
▁전해주세요	-11842
▁지금까지도	-11843
▁진행하도록	-11844
▁표현했어요	-11845
▁필요하다는	-11846
▁한국에서도	-11847
▁할아버지가	-11848
▁진행했습니다	-11849
▁크리스마스에	-11850
',	-11851
45	-11852
AC	-11853
IN	-11854
IT	-11855
▁?	-11856
▁록	-11857
▁붓	-11858
▁뻗	-11859
▁숭	-11860
▁찻	-11861
▁툴	-11862
감도	-11863
검사	-11864
것이	-11865
기엔	-11866
네랄	-11867
다운	-11868
담을	-11869
당은	-11870
러블	-11871
렸고	-11872
리랑	-11873
링이	-11874
말이	-11875
미의	-11876
병을	-11877
보가	-11878
보험	-11879
살을	-11880
상황	-11881
선은	-11882
언이	-11883
였을	-11884
유럽	-11885
이션	-11886
있게	-11887
작을	-11888
조를	-11889
주민	-11890
지원	-11891
추어	-11892
칭을	-11893
타임	-11894
팀과	-11895
피아	-11896
해에	-11897
환을	-11898
▁DD	-11899
▁US	-11900
▁VR	-11901
▁감탄	-11902
▁강릉	-11903
▁거친	-11904
▁걸을	-11905
▁고칠	-11906
▁관습	-11907
▁교실	-11908
▁구역	-11909
▁권리	-11910
▁귀걸	-11911
▁귀국	-11912
▁깊어	-11913
▁노후	-11914
▁눈앞	-11915
▁늘려	-11916
▁다크	-11917
▁닿지	-11918
▁동창	-11919
▁두렵	-11920
▁듬뿍	-11921
▁등등	-11922
▁땅을	-11923
▁뜨고	-11924
▁레드	-11925
▁마요	-11926
▁막기	-11927
▁매월	-11928
▁면이	-11929
▁미칠	-11930
▁민속	-11931
▁바가	-11932
▁바를	-11933
▁반입	-11934
▁방의	-11935
▁버킷	-11936
▁번은	-11937
▁보답	-11938
▁복싱	-11939
▁부어	-11940
▁부킹	-11941
▁불고	-11942
▁선을	-11943
▁세척	-11944
▁셀러	-11945
▁소매	-11946
▁소스	-11947
▁소시	-11948
▁술이	-11949
▁시켰	-11950
▁심어	-11951
▁알리	-11952
▁어지	-11953
▁없니	-11954
▁오브	-11955
▁온난	-11956
▁울산	-11957
▁웃음	-11958
▁유쾌	-11959
▁은혜	-11960
▁인근	-11961
▁일방	-11962
▁잔인	-11963
▁재판	-11964
▁접어	-11965
▁정션	-11966
▁조그	-11967
▁좋기	-11968
▁죄를	-11969
▁주사	-11970
▁진한	-11971
▁집어	-11972
▁집착	-11973
▁짬뽕	-11974
▁청바	-11975
▁초반	-11976
▁커리	-11977
▁토너	-11978
▁팬이	-11979
▁평상	-11980
▁표지	-11981
▁플랜	-11982
▁학업	-11983
▁해라	-11984
▁핸들	-11985
▁했니	-11986
▁환율	-11987
년에는	-11988
느냐에	-11989
드리지	-11990
들한테	-11991
리라고	-11992
법으로	-11993
보드를	-11994
스티벌	-11995
역까지	-11996
웨어를	-11997
층에서	-11998
학과를	-11999
화하는	-12000
▁AAA	-12001
▁Mar	-12002
▁가는지	-12003
▁가르침	-12004
▁가정의	-12005
▁검색을	-12006
▁게임의	-12007
▁계기로	-12008
▁계란을	-12009
▁계정이	-12010
▁고맙게	-12011
▁고향에	-12012
▁구경할	-12013
▁구매가	-12014
▁규정을	-12015
▁기계에	-12016
▁기억나	-12017
▁기억은	-12018
▁기억해	-12019
▁기운이	-12020
▁나가지	-12021
▁나아요	-12022
▁나오기	-12023
▁남편을	-12024
▁남편의	-12025
▁너희는	-12026
▁넣으면	-12027
▁단어가	-12028
▁단위로	-12029
▁대해선	-12030
▁동네에	-12031
▁뜻으로	-12032
▁링크를	-12033
▁만족할	-12034
▁말까지	-12035
▁먹는다	-12036
▁명확한	-12037
▁목적이	-12038
▁몰라도	-12039
▁문화재	-12040
▁물어볼	-12041
▁밀라노	-12042
▁반도체	-12043
▁발견할	-12044
▁발음이	-12045
▁버전을	-12046
▁보기에	-12047
▁북한은	-12048
▁사업은	-12049
▁사업의	-12050
▁살펴보	-12051
▁상태는	-12052
▁생활은	-12053
▁생활의	-12054
▁선수는	-12055
▁선수의	-12056
▁설치된	-12057
▁섹시한	-12058
▁수수료	-12059
▁숨겨진	-12060
▁스토리	-12061
▁시작은	-12062
▁안토니	-12063
▁않을래	-12064
▁알맞은	-12065
▁어울려	-12066
▁언어는	-12067
▁업체가	-12068
▁역사와	-12069
▁연결해	-12070
▁영역을	-12071
▁예뻐요	-12072
▁오기로	-12073
▁오디오	-12074
▁올게요	-12075
▁왼쪽에	-12076
▁용량이	-12077
▁우울한	-12078
▁움직임	-12079
▁인간과	-12080
▁인형의	-12081
▁일부분	-12082
▁있거나	-12083
▁있구나	-12084
▁있군요	-12085
▁자세를	-12086
▁작아서	-12087
▁작품이	-12088
▁잘해서	-12089
▁적당히	-12090
▁좋아질	-12091
▁줄여야	-12092
▁지원한	-12093
▁직원은	-12094
▁진짜로	-12095
▁찍었어	-12096
▁채소를	-12097
▁채소와	-12098
▁체험을	-12099
▁카드가	-12100
▁캠핑을	-12101
▁코스를	-12102
▁크림을	-12103
▁편지가	-12104
▁포장해	-12105
▁하루는	-12106
▁하루도	-12107
▁해보는	-12108
▁확신이	-12109
▁훈련을	-12110
▁흐르는	-12111
▁흥미로	-12112
드리도록	-12113
물입니다	-12114
일이에요	-12115
프로그램	-12116
▁거리에서	-12117
▁공부해요	-12118
▁교통사고	-12119
▁근무하는	-12120
▁나갑니다	-12121
▁남자들이	-12122
▁너희들은	-12123
▁노력하면	-12124
▁데이터는	-12125
▁돌아가는	-12126
▁돌아와서	-12127
▁떠납니다	-12128
▁매일매일	-12129
▁머무르고	-12130
▁바빴어요	-12131
▁배려하는	-12132
▁배웁니다	-12133
▁변경하여	-12134
▁본사에서	-12135
▁분위기는	-12136
▁비행기는	-12137
▁사람마다	-12138
▁사항들을	-12139
▁사회복지	-12140
▁선적서류	-12141
▁아쉽지만	-12142
▁알려주기	-12143
▁알려주지	-12144
▁어디까지	-12145
▁여행하고	-12146
▁영향으로	-12147
▁예정이며	-12148
▁오토바이	-12149
▁움직임을	-12150
▁이곳에는	-12151
▁이루어질	-12152
▁이모티콘	-12153
▁이용하기	-12154
▁입습니다	-12155
▁있었다는	-12156
▁자동차가	-12157
▁자부심을	-12158
▁잤습니다	-12159
▁저녁으로	-12160
▁정식으로	-12161
▁중학교에	-12162
▁직원들이	-12163
▁찾았어요	-12164
▁최소한의	-12165
▁친구라고	-12166
▁친구예요	-12167
▁침대에서	-12168
▁해주시면	-12169
▁홍콩에서	-12170
▁확실하지	-12171
▁확인하면	-12172
▁기대됩니다	-12173
▁나라입니다	-12174
▁날이었어요	-12175
▁다양합니다	-12176
▁마닐라에서	-12177
▁먹방이에요	-12178
▁방문했어요	-12179
▁보시다시피	-12180
▁살아갑니다	-12181
▁성격입니다	-12182
▁언제입니까	-12183
▁여자친구를	-12184
▁운동장에서	-12185
▁월요일부터	-12186
▁웹사이트에	-12187
▁제안합니다	-12188
▁조금이라도	-12189
▁좋아하나요	-12190
▁찬성합니다	-12191
▁해왔습니다	-12192
▁고맙겠습니다	-12193
▁기다려주세요	-12194
▁들어있습니다	-12195
▁예약했습니다	-12196
▁일어났습니다	-12197
▁좋아했습니다	-12198
▁완료하였습니다	-12199
AT	-12200
BS	-12201
ER	-12202
IC	-12203
OC	-12204
ul	-12205
up	-12206
▁/	-12207
▁i	-12208
▁y	-12209
▁굿	-12210
▁띠	-12211
▁램	-12212
▁뱃	-12213
▁숯	-12214
▁씩	-12215
▁앙	-12216
갔다	-12217
경찰	-12218
구매	-12219
국수	-12220
내용	-12221
능력	-12222
더가	-12223
두는	-12224
라의	-12225
레를	-12226
마에	-12227
밀한	-12228
반을	-12229
백화	-12230
보호	-12231
생을	-12232
서야	-12233
선에	-12234
세포	-12235
소리	-12236
실한	-12237
양이	-12238
연구	-12239
열을	-12240
예술	-12241
유는	-12242
음악	-12243
의가	-12244
의로	-12245
익을	-12246
인분	-12247
일리	-12248
일으	-12249
종합	-12250
증명	-12251
지않	-12252
체육	-12253
카드	-12254
케어	-12255
토를	-12256
티즌	-12257
포인	-12258
하늘	-12259
all	-12260
art	-12261
ess	-12262
est	-12263
ice	-12264
▁$1	-12265
▁1.	-12266
▁AI	-12267
▁CR	-12268
▁sh	-12269
▁간략	-12270
▁갈지	-12271
▁개미	-12272
▁개와	-12273
▁객관	-12274
▁거고	-12275
▁경고	-12276
▁곁들	-12277
▁공짜	-12278
▁과외	-12279
▁구름	-12280
▁구비	-12281
▁규제	-12282
▁그대	-12283
▁근대	-12284
▁기자	-12285
▁길고	-12286
▁난방	-12287
▁날카	-12288
▁너만	-12289
▁넥타	-12290
▁녹차	-12291
▁높고	-12292
▁높일	-12293
▁눈은	-12294
▁단말	-12295
▁달빛	-12296
▁닮았	-12297
▁대왕	-12298
▁덕에	-12299
▁돌이	-12300
▁돕고	-12301
▁돕기	-12302
▁동굴	-12303
▁동행	-12304
▁되자	-12305
▁드셔	-12306
▁들러	-12307
▁들었	-12308
▁레몬	-12309
▁막걸	-12310
▁맛과	-12311
▁목에	-12312
▁미쳐	-12313
▁바위	-12314
▁발렌	-12315
▁배로	-12316
▁밸브	-12317
▁베풀	-12318
▁별을	-12319
▁병이	-12320
▁보행	-12321
▁복수	-12322
▁볼륨	-12323
▁부스	-12324
▁부합	-12325
▁빌리	-12326
▁빌린	-12327
▁산을	-12328
▁새겨	-12329
▁소문	-12330
▁수능	-12331
▁수화	-12332
▁스릴	-12333
▁시킬	-12334
▁아랍	-12335
▁안나	-12336
▁어머	-12337
▁어묵	-12338
▁억제	-12339
▁없던	-12340
▁엉덩	-12341
▁에드	-12342
▁에디	-12343
▁여가	-12344
▁연간	-12345
▁열릴	-12346
▁워터	-12347
▁윌리	-12348
▁윤리	-12349
▁을왕	-12350
▁응용	-12351
▁이스	-12352
▁인출	-12353
▁읽지	-12354
▁입지	-12355
▁자취	-12356
▁작아	-12357
▁잠금	-12358
▁잡은	-12359
▁재난	-12360
▁전역	-12361
▁전투	-12362
▁절망	-12363
▁정규	-12364
▁정답	-12365
▁정산	-12366
▁정서	-12367
▁정착	-12368
▁조성	-12369
▁주식	-12370
▁주최	-12371
▁줄래	-12372
▁중시	-12373
▁지닌	-12374
▁지쳐	-12375
▁창피	-12376
▁체력	-12377
▁치열	-12378
▁캠퍼	-12379
▁케빈	-12380
▁케어	-12381
▁탔어	-12382
▁패널	-12383
▁포커	-12384
▁푸른	-12385
▁학부	-12386
▁한류	-12387
▁한해	-12388
▁해고	-12389
▁해를	-12390
▁해볼	-12391
▁협상	-12392
▁형이	-12393
▁환급	-12394
▁흑인	-12395
데이터	-12396
만큼은	-12397
문화를	-12398
번째로	-12399
비용은	-12400
서비스	-12401
스터를	-12402
시키지	-12403
업무를	-12404
월에는	-12405
읍시다	-12406
이니까	-12407
졌지만	-12408
주인공	-12409
해지기	-12410
▁000	-12411
▁250	-12412
▁OEM	-12413
▁가면서	-12414
▁가방에	-12415
▁가족들	-12416
▁갈등을	-12417
▁감기가	-12418
▁개성을	-12419
▁건강과	-12420
▁겨울을	-12421
▁계정에	-12422
▁관계로	-12423
▁관광을	-12424
▁구경을	-12425
▁구조를	-12426
▁그림과	-12427
▁근무를	-12428
▁긍정적	-12429
▁기재된	-12430
▁기준에	-12431
▁깨닫게	-12432
▁꿈꾸는	-12433
▁끼치는	-12434
▁나타내	-12435
▁네티즌	-12436
▁노래에	-12437
▁논문을	-12438
▁대기업	-12439
▁도구를	-12440
▁도시가	-12441
▁동물의	-12442
▁동생과	-12443
▁뒤에서	-12444
▁드려야	-12445
▁리뷰를	-12446
▁마트에	-12447
▁많으면	-12448
▁먹어본	-12449
▁무리가	-12450
▁무언가	-12451
▁미네랄	-12452
▁미션을	-12453
▁미팅에	-12454
▁바랄게	-12455
▁받으며	-12456
▁발송을	-12457
▁발송한	-12458
▁방문객	-12459
▁배우가	-12460
▁배우게	-12461
▁범죄를	-12462
▁변화는	-12463
▁보네요	-12464
▁보도록	-12465
▁보시는	-12466
▁분야를	-12467
▁불고기	-12468
▁비용에	-12469
▁사이로	-12470
▁사회는	-12471
▁상당한	-12472
▁샤워를	-12473
▁선글라	-12474
▁선물은	-12475
▁소금을	-12476
▁소녀가	-12477
▁소년이	-12478
▁소설을	-12479
▁수행할	-12480
▁쉬어야	-12481
▁습관이	-12482
▁시계는	-12483
▁시작된	-12484
▁시트를	-12485
▁실력은	-12486
▁싸우는	-12487
▁안되는	-12488
▁양념을	-12489
▁어려서	-12490
▁없잖아	-12491
▁역할이	-12492
▁연구가	-12493
▁연락도	-12494
▁연주를	-12495
▁오시는	-12496
▁온다는	-12497
▁올라갈	-12498
▁요리에	-12499
▁위험을	-12500
▁음악이	-12501
▁의사를	-12502
▁의하여	-12503
▁이산화	-12504
▁이전의	-12505
▁인도의	-12506
▁일본을	-12507
▁일해서	-12508
▁입력해	-12509
▁입어요	-12510
▁입장이	-12511
▁작성한	-12512
▁재물을	-12513
▁재확인	-12514
▁적응을	-12515
▁전통의	-12516
▁정거장	-12517
▁정신적	-12518
▁제작한	-12519
▁조건에	-12520
▁조화를	-12521
▁존재가	-12522
▁좋으면	-12523
▁주위를	-12524
▁줄이는	-12525
▁진실한	-12526
▁집에는	-12527
▁집중이	-12528
▁취소를	-12529
▁코멘트	-12530
▁편의점	-12531
▁풍경이	-12532
▁하는가	-12533
▁하루만	-12534
▁학생들	-12535
▁할인된	-12536
▁해주길	-12537
▁해주실	-12538
▁했다면	-12539
▁향상을	-12540
▁협의가	-12541
▁협조를	-12542
개입니다	-12543
주십시오	-12544
케이션을	-12545
켰습니다	-12546
했었는데	-12547
ation	-12548
▁가르치고	-12549
▁가집니다	-12550
▁결혼해서	-12551
▁경험으로	-12552
▁공식적인	-12553
▁공유하고	-12554
▁공항까지	-12555
▁교수님께	-12556
▁그곳으로	-12557
▁금메달을	-12558
▁기뻤어요	-12559
▁나중에는	-12560
▁노력으로	-12561
▁때문이죠	-12562
▁만나자고	-12563
▁메세지를	-12564
▁목소리로	-12565
▁문제없이	-12566
▁미세먼지	-12567
▁미안한데	-12568
▁받았다고	-12569
▁발생하면	-12570
▁보내도록	-12571
▁브라이언	-12572
▁비슷해요	-12573
▁사랑으로	-12574
▁상대방을	-12575
▁생각해보	-12576
▁성실하게	-12577
▁쇼핑하러	-12578
▁슈퍼마켓	-12579
▁스케줄에	-12580
▁시간으로	-12581
▁신속하게	-12582
▁아침밥을	-12583
▁안됩니다	-12584
▁영국에서	-12585
▁유행하는	-12586
▁이벤트가	-12587
▁이상적인	-12588
▁이야기도	-12589
▁이용하지	-12590
▁있었다고	-12591
▁자원봉사	-12592
▁작동하지	-12593
▁장학금을	-12594
▁저렴하게	-12595
▁저에게는	-12596
▁제공하지	-12597
▁주문서를	-12598
▁즐거웠던	-12599
▁즐기면서	-12600
▁지불하는	-12601
▁직원들의	-12602
▁캐릭터를	-12603
▁퇴근하고	-12604
▁파트너가	-12605
▁필리핀을	-12606
▁필요성을	-12607
▁하셨어요	-12608
▁학생에게	-12609
▁핸드폰은	-12610
▁했었는데	-12611
▁행동하는	-12612
▁행복하지	-12613
▁걱정이에요	-12614
▁놀았습니다	-12615
▁레스토랑을	-12616
▁반갑습니다	-12617
▁사랑한다는	-12618
▁상대방에게	-12619
▁스마트폰이	-12620
▁원하신다면	-12621
▁원했습니다	-12622
▁위함입니다	-12623
▁유감스럽게	-12624
▁음식점에서	-12625
▁일했습니다	-12626
▁있습니다면	-12627
▁전화할게요	-12628
▁하셨습니다	-12629
적이었습니다	-12630
▁Jackal	-12631
▁괜찮으시다면	-12632
▁이야기이에요	-12633
▁첨부했습니다	-12634
▁시작하겠습니다	-12635
▁연락하겠습니다	-12636
.3	-12637
13	-12638
14	-12639
AP	-12640
ID	-12641
RL	-12642
▁덴	-12643
▁쇠	-12644
▁씹	-12645
▁찼	-12646
▁콤	-12647
▁훼	-12648
계는	-12649
계의	-12650
계절	-12651
공학	-12652
길동	-12653
나이	-12654
디에	-12655
라리	-12656
라엘	-12657
률은	-12658
립을	-12659
메뉴	-12660
면과	-12661
문학	-12662
미한	-12663
밀리	-12664
받기	-12665
분석	-12666
불이	-12667
산업	-12668
색의	-12669
셨다	-12670
시대	-12671
애틀	-12672
앤젤	-12673
언을	-12674
연이	-12675
우저	-12676
인다	-12677
일의	-12678
있고	-12679
초에	-12680
크에	-12681
타워	-12682
터와	-12683
튼을	-12684
플레	-12685
피가	-12686
했니	-12687
:00	-12688
▁OS	-12689
▁Pr	-12690
▁갖춰	-12691
▁갯벌	-12692
▁고래	-12693
▁고령	-12694
▁곡은	-12695
▁관여	-12696
▁꽃은	-12697
▁꾸미	-12698
▁끊어	-12699
▁네일	-12700
▁달을	-12701
▁당당	-12702
▁도구	-12703
▁도매	-12704
▁된장	-12705
▁드론	-12706
▁리듬	-12707
▁마른	-12708
▁마우	-12709
▁막상	-12710
▁멋져	-12711
▁명심	-12712
▁몽골	-12713
▁무관	-12714
▁무인	-12715
▁바꾼	-12716
▁발매	-12717
▁배낭	-12718
▁버리	-12719
▁버섯	-12720
▁변할	-12721
▁볶아	-12722
▁본래	-12723
▁부럽	-12724
▁불교	-12725
▁브런	-12726
▁비치	-12727
▁빈칸	-12728
▁뽑아	-12729
▁살균	-12730
▁살을	-12731
▁세월	-12732
▁소심	-12733
▁손은	-12734
▁수단	-12735
▁시술	-12736
▁씻고	-12737
▁씻어	-12738
▁야경	-12739
▁야기	-12740
▁약혼	-12741
▁어댑	-12742
▁어떡	-12743
▁어플	-12744
▁억울	-12745
▁여의	-12746
▁연계	-12747
▁연료	-12748
▁열려	-12749
▁온천	-12750
▁외할	-12751
▁요코	-12752
▁우는	-12753
▁운명	-12754
▁유령	-12755
▁융합	-12756
▁인디	-12757
▁입에	-12758
▁있긴	-12759
▁잔잔	-12760
▁잘게	-12761
▁장갑	-12762
▁장벽	-12763
▁재촉	-12764
▁저런	-12765
▁전설	-12766
▁질의	-12767
▁질투	-12768
▁집의	-12769
▁추정	-12770
▁친화	-12771
▁칼로	-12772
▁컨설	-12773
▁코코	-12774
▁크지	-12775
▁탄력	-12776
▁털어	-12777
▁투숙	-12778
▁틀어	-12779
▁파우	-12780
▁포항	-12781
▁플레	-12782
▁해내	-12783
▁해봤	-12784
▁허가	-12785
▁화재	-12786
▁회수	-12787
▁훼손	-12788
▁휴양	-12789
기에서	-12790
께서는	-12791
달라는	-12792
선생님	-12793
시기를	-12794
신다면	-12795
자로서	-12796
질수록	-12797
해지면	-12798
3001	-12799
▁가르칠	-12800
▁감정에	-12801
▁갤럭시	-12802
▁검토해	-12803
▁견적서	-12804
▁결과로	-12805
▁결제한	-12806
▁계단을	-12807
▁공공장	-12808
▁공무원	-12809
▁교육은	-12810
▁권한이	-12811
▁그것과	-12812
▁기술은	-12813
▁기업은	-12814
▁기회는	-12815
▁기회에	-12816
▁깔끔한	-12817
▁껍질을	-12818
▁낮잠을	-12819
▁놀아요	-12820
▁눈물을	-12821
▁다니엘	-12822
▁다이빙	-12823
▁다하는	-12824
▁단가를	-12825
▁달라서	-12826
▁달리는	-12827
▁당연한	-12828
▁대만에	-12829
▁대체할	-12830
▁도시로	-12831
▁도쿄에	-12832
▁동안의	-12833
▁드리지	-12834
▁들었던	-12835
▁들었을	-12836
▁때보다	-12837
▁떠나지	-12838
▁떨어질	-12839
▁리더쉽	-12840
▁마음도	-12841
▁만나도	-12842
▁멈추지	-12843
▁무리한	-12844
▁물건에	-12845
▁미국이	-12846
▁민감한	-12847
▁박스를	-12848
▁반려동	-12849
▁반품을	-12850
▁받았던	-12851
▁발전할	-12852
▁보관할	-12853
▁보관해	-12854
▁보기를	-12855
▁부르고	-12856
▁부모의	-12857
▁부분도	-12858
▁부산은	-12859
▁빕니다	-12860
▁빠지게	-12861
▁사귀는	-12862
▁사본을	-12863
▁생선을	-12864
▁생활할	-12865
▁성적에	-12866
▁소녀의	-12867
▁수요가	-12868
▁수정해	-12869
▁스위치	-12870
▁스페셜	-12871
▁슬프게	-12872
▁시기에	-12873
▁시작해	-12874
▁신청한	-12875
▁아기는	-12876
▁안드로	-12877
▁알았다	-12878
▁야경을	-12879
▁얘기한	-12880
▁어떤지	-12881
▁어렵지	-12882
▁업체를	-12883
▁없었던	-12884
▁없었을	-12885
▁여성을	-12886
▁역사적	-12887
▁연인이	-12888
▁열차는	-12889
▁오르는	-12890
▁오른손	-12891
▁올리브	-12892
▁요청해	-12893
▁유전자	-12894
▁음식물	-12895
▁인간을	-12896
▁인재가	-12897
▁일본이	-12898
▁일부는	-12899
▁일정한	-12900
▁입으면	-12901
▁자유의	-12902
▁작가가	-12903
▁장애를	-12904
▁장치를	-12905
▁적어서	-12906
▁전달을	-12907
▁전망이	-12908
▁전하고	-12909
▁점검을	-12910
▁정도를	-12911
▁정부는	-12912
▁정해져	-12913
▁지내길	-12914
▁진로에	-12915
▁차가운	-12916
▁채널을	-12917
▁책임감	-12918
▁출근을	-12919
▁출발할	-12920
▁취미를	-12921
▁커버를	-12922
▁커플이	-12923
▁크기를	-12924
▁클라우	-12925
▁타세요	-12926
▁태어날	-12927
▁태풍이	-12928
▁판타지	-12929
▁프리랜	-12930
▁하기도	-12931
▁하기에	-12932
▁하우스	-12933
▁행운을	-12934
▁허락을	-12935
▁현장에	-12936
▁협의를	-12937
▁홍길동	-12938
▁화장을	-12939
▁흐름을	-12940
▁힘으로	-12941
되었다는	-12942
되었으며	-12943
번입니다	-12944
시안게임	-12945
하겠지만	-12946
▁가까이에	-12947
▁걱정하는	-12948
▁고려해야	-12949
▁관리하고	-12950
▁괜찮나요	-12951
▁그랬어요	-12952
▁그렇기에	-12953
▁기다리게	-12954
▁내립니다	-12955
▁냈습니다	-12956
▁누구인지	-12957
▁느껴져요	-12958
▁다음에도	-12959
▁당신들과	-12960
▁대학생이	-12961
▁도전하는	-12962
▁도착하기	-12963
▁따뜻하고	-12964
▁로스앤젤	-12965
▁먹었는데	-12966
▁메시지는	-12967
▁받아들여	-12968
▁방문하면	-12969
▁보다시피	-12970
▁보이나요	-12971
▁봐주세요	-12972
▁불러일으	-12973
▁불필요한	-12974
▁사람들에	-12975
▁생각나는	-12976
▁생활하고	-12977
▁샤워하고	-12978
▁서울에는	-12979
▁성형수술	-12980
▁손님들이	-12981
▁스타트업	-12982
▁시작해야	-12983
▁시절부터	-12984
▁식사하고	-12985
▁신중하게	-12986
▁신청서를	-12987
▁않겠어요	-12988
▁알려주는	-12989
▁어제저녁	-12990
▁얻었어요	-12991
▁여기서는	-12992
▁여러가지	-12993
▁영화관에	-12994
▁옛날부터	-12995
▁외국인은	-12996
▁이미지와	-12997
▁이용해요	-12998
▁이태원에	-12999
▁있겠어요	-13000
▁자랑하는	-13001
▁전달하는	-13002
▁제작하는	-13003
▁좋아지고	-13004
▁즐거웠어	-13005
▁즐깁니다	-13006
▁지하철이	-13007
▁직접적인	-13008
▁진행하기	-13009
▁집중하고	-13010
▁충분하지	-13011
▁케이스가	-13012
▁콘서트에	-13013
▁파악하고	-13014
▁페스티벌	-13015
▁풍부하게	-13016
▁프로토콜	-13017
▁학교생활	-13018
▁해주셔서	-13019
▁활동하고	-13020
▁감사드려요	-13021
▁걱정입니다	-13022
▁마셨습니다	-13023
▁만족합니다	-13024
▁부정적으로	-13025
▁부족하지만	-13026
▁사실입니다	-13027
▁입었습니다	-13028
▁제주도에서	-13029
▁직접적으로	-13030
▁참고하세요	-13031
▁최종적으로	-13032
▁편리합니다	-13033
▁표시됩니다	-13034
▁필요한가요	-13035
▁홈페이지를	-13036
▁공부했습니다	-13037
▁보내드릴게요	-13038
▁사용했습니다	-13039
▁실례합니다만	-13040
▁안녕하십니까	-13041
▁웹사이트에서	-13042
▁프레젠테이션	-13043
▁프로그램에서	-13044
▁게스트하우스에	-13045
▁준비하겠습니다	-13046
▁프레젠테이션을	-13047
43	-13048
75	-13049
BA	-13050
IS	-13051
MA	-13052
OP	-13053
RE	-13054
TC	-13055
ee	-13056
ft	-13057
og	-13058
▁윷	-13059
가족	-13060
개와	-13061
계좌	-13062
고한	-13063
군을	-13064
권의	-13065
기관	-13066
날에	-13067
날이	-13068
단다	-13069
달이	-13070
덜란	-13071
들고	-13072
들아	-13073
듯한	-13074
때는	-13075
랐다	-13076
리즈	-13077
마는	-13078
박물	-13079
방송	-13080
벤져	-13081
비로	-13082
사도	-13083
생이	-13084
성도	-13085
아리	-13086
았기	-13087
었니	-13088
웨이	-13089
적에	-13090
정의	-13091
즈음	-13092
차피	-13093
창을	-13094
층이	-13095
큐멘	-13096
크라	-13097
텐데	-13098
토록	-13099
회전	-13100
효과	-13101
후에	-13102
ell	-13103
▁5%	-13104
▁FW	-13105
▁QM	-13106
▁re	-13107
▁가동	-13108
▁간장	-13109
▁간주	-13110
▁강사	-13111
▁개만	-13112
▁개입	-13113
▁거두	-13114
▁겁이	-13115
▁공제	-13116
▁공평	-13117
▁교내	-13118
▁구해	-13119
▁궁극	-13120
▁그분	-13121
▁금속	-13122
▁깨워	-13123
▁꿀벌	-13124
▁꿈과	-13125
▁끝을	-13126
▁남긴	-13127
▁내성	-13128
▁네팔	-13129
▁년에	-13130
▁논란	-13131
▁놓여	-13132
▁누르	-13133
▁눈과	-13134
▁눈치	-13135
▁닫아	-13136
▁담임	-13137
▁도중	-13138
▁독자	-13139
▁동계	-13140
▁동남	-13141
▁등은	-13142
▁디테	-13143
▁뜻깊	-13144
▁롤러	-13145
▁마녀	-13146
▁마땅	-13147
▁말과	-13148
▁명백	-13149
▁명품	-13150
▁모국	-13151
▁모색	-13152
▁미숙	-13153
▁미역	-13154
▁밥과	-13155
▁배에	-13156
▁버릇	-13157
▁벌기	-13158
▁변해	-13159
▁복숭	-13160
▁봤다	-13161
▁분해	-13162
▁불빛	-13163
▁비를	-13164
▁상점	-13165
▁섬유	-13166
▁세우	-13167
▁소량	-13168
▁손수	-13169
▁수사	-13170
▁수십	-13171
▁수줍	-13172
▁스쿨	-13173
▁슬플	-13174
▁습관	-13175
▁시점	-13176
▁신랑	-13177
▁실을	-13178
▁싶니	-13179
▁써도	-13180
▁알면	-13181
▁앓고	-13182
▁야근	-13183
▁양도	-13184
▁억압	-13185
▁열광	-13186
▁오케	-13187
▁오퍼	-13188
▁워낙	-13189
▁위임	-13190
▁유로	-13191
▁음성	-13192
▁음주	-13193
▁이주	-13194
▁익힌	-13195
▁일식	-13196
▁입증	-13197
▁잔뜩	-13198
▁잡혀	-13199
▁정할	-13200
▁제니	-13201
▁제도	-13202
▁져야	-13203
▁조율	-13204
▁주된	-13205
▁지면	-13206
▁지점	-13207
▁체류	-13208
▁충동	-13209
▁키는	-13210
▁파견	-13211
▁팔을	-13212
▁평온	-13213
▁평창	-13214
▁포지	-13215
▁푸드	-13216
▁프런	-13217
▁피겨	-13218
▁한식	-13219
▁한쪽	-13220
▁할리	-13221
▁해킹	-13222
▁현명	-13223
▁휴학	-13224
과정을	-13225
년도에	-13226
동에서	-13227
때문에	-13228
렸지만	-13229
로에서	-13230
받아서	-13231
뿐만이	-13232
상하고	-13233
안에서	-13234
였는데	-13235
인데도	-13236
일수록	-13237
전에서	-13238
주의는	-13239
페이지	-13240
하여서	-13241
했듯이	-13242
port	-13243
▁120	-13244
▁180	-13245
▁MOQ	-13246
▁OTA	-13247
▁URL	-13248
▁가기를	-13249
▁감정은	-13250
▁갔으면	-13251
▁같았어	-13252
▁건물에	-13253
▁건으로	-13254
▁겉모습	-13255
▁결론을	-13256
▁경치를	-13257
▁공부는	-13258
▁공부해	-13259
▁공장의	-13260
▁굉장한	-13261
▁교사가	-13262
▁교통이	-13263
▁근처의	-13264
▁기온이	-13265
▁나라와	-13266
▁나뭇잎	-13267
▁나와의	-13268
▁나왔어	-13269
▁네덜란	-13270
▁논의를	-13271
▁다가올	-13272
▁다니기	-13273
▁다쳐서	-13274
▁더이상	-13275
▁동물은	-13276
▁되기도	-13277
▁되니까	-13278
▁둘째로	-13279
▁레슨을	-13280
▁레이저	-13281
▁로고를	-13282
▁롤모델	-13283
▁만들면	-13284
▁만족을	-13285
▁매출이	-13286
▁멋있어	-13287
▁모임을	-13288
▁문의가	-13289
▁문제도	-13290
▁바꿔서	-13291
▁방문이	-13292
▁방식의	-13293
▁벚꽃이	-13294
▁변동이	-13295
▁보냈다	-13296
▁보아야	-13297
▁볶음밥	-13298
▁본사에	-13299
▁볼까요	-13300
▁브라운	-13301
▁사건은	-13302
▁사기를	-13303
▁사라져	-13304
▁사라질	-13305
▁사람만	-13306
▁사례가	-13307
▁사생활	-13308
▁사실상	-13309
▁사장이	-13310
▁색으로	-13311
▁선물해	-13312
▁설거지	-13313
▁세우고	-13314
▁센트럴	-13315
▁소녀를	-13316
▁손님을	-13317
▁수량과	-13318
▁수분을	-13319
▁쉬세요	-13320
▁시각을	-13321
▁심장이	-13322
▁심플한	-13323
▁쓰세요	-13324
▁씨에게	-13325
▁아빠를	-13326
▁아울러	-13327
▁애인이	-13328
▁어차피	-13329
▁언어의	-13330
▁없었고	-13331
▁없음을	-13332
▁여기저	-13333
▁여자애	-13334
▁여지가	-13335
▁열차를	-13336
▁영상은	-13337
▁예배를	-13338
▁오징어	-13339
▁외롭지	-13340
▁외모를	-13341
▁용도로	-13342
▁원본을	-13343
▁위기에	-13344
▁위로가	-13345
▁위치는	-13346
▁윌리엄	-13347
▁유기농	-13348
▁유학생	-13349
▁이걸로	-13350
▁이대로	-13351
▁이번주	-13352
▁일본어	-13353
▁일부를	-13354
▁읽으면	-13355
▁입금을	-13356
▁있으시	-13357
▁자금을	-13358
▁작가의	-13359
▁장례식	-13360
▁정보에	-13361
▁졸업한	-13362
▁종류에	-13363
▁좋다는	-13364
▁좋을지	-13365
▁준비는	-13366
▁중국을	-13367
▁중요해	-13368
▁중이고	-13369
▁지나고	-13370
▁진실을	-13371
▁착하고	-13372
▁참가할	-13373
▁참여한	-13374
▁철저히	-13375
▁체력이	-13376
▁초록색	-13377
▁최상의	-13378
▁추가할	-13379
▁추천할	-13380
▁출구로	-13381
▁컬러는	-13382
▁티켓은	-13383
▁팔로우	-13384
▁편해요	-13385
▁포스트	-13386
▁표시된	-13387
▁표현이	-13388
▁하셔야	-13389
▁항목을	-13390
▁해외로	-13391
▁해줄게	-13392
▁했으나	-13393
▁향기가	-13394
▁혼란을	-13395
▁화면이	-13396
▁확률이	-13397
▁회신이	-13398
▁후회할	-13399
되어있는	-13400
적으로도	-13401
적이어서	-13402
하였는데	-13403
해줄게요	-13404
형입니다	-13405
▁가을에는	-13406
▁강아지와	-13407
▁것이었어	-13408
▁공간에서	-13409
▁그녀한테	-13410
▁근처에는	-13411
▁낮습니다	-13412
▁내년에도	-13413
▁누군가와	-13414
▁다르다는	-13415
▁다음번에	-13416
▁돌아오면	-13417
▁되어있어	-13418
▁드림파크	-13419
▁들어가기	-13420
▁들어오면	-13421
▁들어와서	-13422
▁따릅니다	-13423
▁마음속에	-13424
▁말씀드렸	-13425
▁명확하게	-13426
▁무시하고	-13427
▁방문해서	-13428
▁버렸어요	-13429
▁사람보다	-13430
▁사용하던	-13431
▁사용했던	-13432
▁사이즈의	-13433
▁사이트의	-13434
▁샌드위치	-13435
▁세부적인	-13436
▁세상에는	-13437
▁소중하게	-13438
▁솔루션을	-13439
▁스카이프	-13440
▁스포츠는	-13441
▁시간에는	-13442
▁아마존에	-13443
▁않겠다고	-13444
▁않았는데	-13445
▁않으시면	-13446
▁않을래요	-13447
▁알려줘요	-13448
▁어머니를	-13449
▁없으니까	-13450
▁움직이지	-13451
▁월요일과	-13452
▁유용하게	-13453
▁은행으로	-13454
▁음료수를	-13455
▁이스라엘	-13456
▁이야기한	-13457
▁이해해요	-13458
▁인터넷은	-13459
▁일본어로	-13460
▁일어나야	-13461
▁있겠네요	-13462
▁정리하여	-13463
▁정확하지	-13464
▁주문번호	-13465
▁주인공의	-13466
▁준비해요	-13467
▁지금보다	-13468
▁지나치게	-13469
▁지난달에	-13470
▁진행하면	-13471
▁진행하지	-13472
▁찾으려고	-13473
▁컴퓨터는	-13474
▁트레이닝	-13475
▁페이지에	-13476
▁함으로써	-13477
▁항공권을	-13478
▁항공으로	-13479
▁해결하고	-13480
▁호주에서	-13481
▁그래서인지	-13482
▁그렇습니다	-13483
▁긍정적이고	-13484
▁남았습니다	-13485
▁누구입니까	-13486
▁늦었습니다	-13487
▁대단하다고	-13488
▁디자이너가	-13489
▁부탁드리며	-13490
▁불렀습니다	-13491
▁안드로이드	-13492
▁업데이트를	-13493
▁여러분들이	-13494
▁웹사이트를	-13495
▁의사소통을	-13496
▁이동합니다	-13497
▁이야기해요	-13498
▁이탈리아의	-13499
▁인보이스에	-13500
▁있겠습니까	-13501
▁전화했어요	-13502
▁좋아한다고	-13503
▁지냈습니다	-13504
▁편의점에서	-13505
▁하나이에요	-13506
▁한국에서의	-13507
▁해수욕장은	-13508
▁확신합니다	-13509
▁것이었습니다	-13510
▁들어왔습니다	-13511
▁생각하시나요	-13512
▁외국인들에게	-13513
▁재미있었어요	-13514
▁전문점입니다	-13515
▁진행해주세요	-13516
▁시작되었습니다	-13517
▁알아보겠습니다	-13518
▁입금하겠습니다	-13519
▁프로그램입니다	-13520
-3	-13521
31	-13522
5%	-13523
TD	-13524
TM	-13525
ex	-13526
hn	-13527
pe	-13528
▁굵	-13529
▁긁	-13530
▁꿨	-13531
▁녀	-13532
▁뜯	-13533
▁맙	-13534
▁뵈	-13535
▁째	-13536
▁콧	-13537
▁퀴	-13538
▁힌	-13539
각을	-13540
건에	-13541
겨울	-13542
경영	-13543
구와	-13544
근혜	-13545
급한	-13546
기기	-13547
나갈	-13548
났다	-13549
노소	-13550
디를	-13551
르타	-13552
를린	-13553
리다	-13554
마의	-13555
망을	-13556
모를	-13557
발은	-13558
버를	-13559
버릴	-13560
보에	-13561
사진	-13562
소와	-13563
신청	-13564
심과	-13565
씨와	-13566
오지	-13567
욕을	-13568
으론	-13569
있던	-13570
조가	-13571
차례	-13572
쳤을	-13573
초를	-13574
치의	-13575
코드	-13576
토벤	-13577
톨릭	-13578
풀이	-13579
호를	-13580
호에	-13581
화와	-13582
화장	-13583
히면	-13584
▁MF	-13585
▁PP	-13586
▁QR	-13587
▁SD	-13588
▁SK	-13589
▁각질	-13590
▁갈등	-13591
▁감수	-13592
▁개구	-13593
▁갱신	-13594
▁거다	-13595
▁계열	-13596
▁골목	-13597
▁공이	-13598
▁공인	-13599
▁공화	-13600
▁글이	-13601
▁끌고	-13602
▁낮추	-13603
▁낳고	-13604
▁내의	-13605
▁농업	-13606
▁눈의	-13607
▁단골	-13608
▁단기	-13609
▁단호	-13610
▁달린	-13611
▁더워	-13612
▁도출	-13613
▁독서	-13614
▁돈에	-13615
▁돋보	-13616
▁등교	-13617
▁디스	-13618
▁리모	-13619
▁맞춘	-13620
▁맡게	-13621
▁맡길	-13622
▁매체	-13623
▁먹게	-13624
▁목사	-13625
▁무용	-13626
▁묻는	-13627
▁밝게	-13628
▁버티	-13629
▁법에	-13630
▁보류	-13631
▁복구	-13632
▁볼링	-13633
▁부채	-13634
▁불합	-13635
▁비틀	-13636
▁뿌리	-13637
▁사상	-13638
▁색은	-13639
▁생생	-13640
▁섞여	-13641
▁선도	-13642
▁선보	-13643
▁손목	-13644
▁수송	-13645
▁신축	-13646
▁실크	-13647
▁싸우	-13648
▁악용	-13649
▁알릴	-13650
▁압축	-13651
▁양쪽	-13652
▁에러	-13653
▁연상	-13654
▁연합	-13655
▁열대	-13656
▁옷의	-13657
▁완화	-13658
▁왔고	-13659
▁운반	-13660
▁웃을	-13661
▁원더	-13662
▁웨이	-13663
▁이들	-13664
▁인적	-13665
▁일제	-13666
▁자장	-13667
▁잔금	-13668
▁잔돈	-13669
▁잠자	-13670
▁재해	-13671
▁절실	-13672
▁죄책	-13673
▁주유	-13674
▁직면	-13675
▁직무	-13676
▁진로	-13677
▁쪽이	-13678
▁찜질	-13679
▁차의	-13680
▁참아	-13681
▁코를	-13682
▁코트	-13683
▁크레	-13684
▁타서	-13685
▁테크	-13686
▁튜브	-13687
▁트로	-13688
▁파라	-13689
▁표본	-13690
▁품고	-13691
▁하든	-13692
▁합성	-13693
▁호수	-13694
▁혼합	-13695
▁회식	-13696
▁효능	-13697
갑시다	-13698
거라고	-13699
거리에	-13700
건으로	-13701
것으로	-13702
계획을	-13703
교육을	-13704
냈어요	-13705
네스코	-13706
닙니까	-13707
동으로	-13708
되는데	-13709
린다고	-13710
마저도	-13711
문으로	-13712
미디어	-13713
번호가	-13714
분으로	-13715
사이트	-13716
사항에	-13717
속으로	-13718
스럽지	-13719
었으니	-13720
용품을	-13721
이라니	-13722
일랜드	-13723
파이어	-13724
하기엔	-13725
하였을	-13726
▁70%	-13727
▁가게의	-13728
▁가리지	-13729
▁가시는	-13730
▁가자고	-13731
▁개발이	-13732
▁거라면	-13733
▁결정에	-13734
▁고정관	-13735
▁공연이	-13736
▁과도한	-13737
▁관람객	-13738
▁관리할	-13739
▁관세를	-13740
▁구성된	-13741
▁구성원	-13742
▁국민의	-13743
▁기관에	-13744
▁기대가	-13745
▁기쁨을	-13746
▁기여할	-13747
▁기준은	-13748
▁길이가	-13749
▁길이를	-13750
▁김치와	-13751
▁꽃들이	-13752
▁끝났어	-13753
▁끝내야	-13754
▁나처럼	-13755
▁내리면	-13756
▁놀라게	-13757
▁뉴욕의	-13758
▁느낌의	-13759
▁다수의	-13760
▁다음엔	-13761
▁다큐멘	-13762
▁담배는	-13763
▁더워서	-13764
▁독일은	-13765
▁됐으면	-13766
▁두꺼운	-13767
▁듯해요	-13768
▁디스크	-13769
▁때문이	-13770
▁리포트	-13771
▁마라톤	-13772
▁만남은	-13773
▁말았어	-13774
▁머물러	-13775
▁먹기로	-13776
▁메이저	-13777
▁모습과	-13778
▁무엇에	-13779
▁미래가	-13780
▁바꾸어	-13781
▁바다는	-13782
▁바람직	-13783
▁바빴어	-13784
▁발송해	-13785
▁방사능	-13786
▁버전이	-13787
▁변경해	-13788
▁변호사	-13789
▁별다른	-13790
▁보기엔	-13791
▁보증금	-13792
▁부서에	-13793
▁부자가	-13794
▁빠지는	-13795
▁사고방	-13796
▁사례를	-13797
▁사실에	-13798
▁선택의	-13799
▁성실한	-13800
▁성향을	-13801
▁세심한	-13802
▁세트를	-13803
▁소고기	-13804
▁손상된	-13805
▁수리가	-13806
▁스피커	-13807
▁슬픔을	-13808
▁시애틀	-13809
▁시작을	-13810
▁싫어서	-13811
▁아닌데	-13812
▁아프고	-13813
▁얘기는	-13814
▁어벤져	-13815
▁어울리	-13816
▁언어가	-13817
▁여유를	-13818
▁여행객	-13819
▁연구에	-13820
▁연주할	-13821
▁영어의	-13822
▁예뻐서	-13823
▁옮기는	-13824
▁와이프	-13825
▁외식을	-13826
▁요소가	-13827
▁욕심을	-13828
▁욕심이	-13829
▁운임을	-13830
▁원주민	-13831
▁웨이터	-13832
▁음악과	-13833
▁음악의	-13834
▁의무를	-13835
▁이용이	-13836
▁이하의	-13837
▁인구가	-13838
▁인재를	-13839
▁일전에	-13840
▁자연과	-13841
▁작품에	-13842
▁잘생겼	-13843
▁장거리	-13844
▁적용될	-13845
▁전공과	-13846
▁전체의	-13847
▁점심은	-13848
▁정치적	-13849
▁제작이	-13850
▁조식을	-13851
▁종류는	-13852
▁좋아하	-13853
▁주제가	-13854
▁중심에	-13855
▁중이라	-13856
▁중이며	-13857
▁지원할	-13858
▁짜증이	-13859
▁차이로	-13860
▁참고해	-13861
▁첫사랑	-13862
▁최소화	-13863
▁최초로	-13864
▁취미가	-13865
▁취소해	-13866
▁친구인	-13867
▁카페가	-13868
▁카페를	-13869
▁타이어	-13870
▁탁월한	-13871
▁태도가	-13872
▁태도는	-13873
▁테니스	-13874
▁통하는	-13875
▁특성상	-13876
▁특정한	-13877
▁특징이	-13878
▁패스워	-13879
▁표시가	-13880
▁풍성한	-13881
▁하였고	-13882
▁학교와	-13883
▁한계가	-13884
▁한계를	-13885
▁항공사	-13886
▁햇빛이	-13887
▁했잖아	-13888
▁허가를	-13889
▁화제가	-13890
▁환불은	-13891
▁활발한	-13892
음으로써	-13893
▁2019	-13894
▁John	-13895
▁강합니다	-13896
▁거였어요	-13897
▁걱정하고	-13898
▁걸립니까	-13899
▁고객사에	-13900
▁고양이와	-13901
▁관계없이	-13902
▁관해서는	-13903
▁괜찮다고	-13904
▁그다음에	-13905
▁그러면서	-13906
▁근본적인	-13907
▁금요일은	-13908
▁기술적인	-13909
▁꼼꼼하게	-13910
▁꿈입니다	-13911
▁끝났어요	-13912
▁남동생은	-13913
▁다음주에	-13914
▁당신으로	-13915
▁대부분을	-13916
▁대중교통	-13917
▁도착해야	-13918
▁돌아오지	-13919
▁동물들을	-13920
▁동물들이	-13921
▁되었다고	-13922
▁등장하는	-13923
▁리스트는	-13924
▁무엇일까	-13925
▁바라보고	-13926
▁바쁩니다	-13927
▁반가워요	-13928
▁반대해요	-13929
▁받으려면	-13930
▁변했어요	-13931
▁변화하는	-13932
▁병원으로	-13933
▁브라우저	-13934
▁사라지고	-13935
▁사람이랑	-13936
▁사용자는	-13937
▁수행하는	-13938
▁스케이트	-13939
▁시작했어	-13940
▁아파트를	-13941
▁안전하고	-13942
▁어제보다	-13943
▁여성들이	-13944
▁여행사에	-13945
▁오전에는	-13946
▁올립니다	-13947
▁웃으면서	-13948
▁유일하게	-13949
▁유지하기	-13950
▁이벤트에	-13951
▁있을지도	-13952
▁있음에도	-13953
▁재미있어	-13954
▁제공되는	-13955
▁지불하지	-13956
▁찍었어요	-13957
▁차이점은	-13958
▁추가해서	-13959
▁포함되지	-13960
▁표현하지	-13961
▁해줄게요	-13962
▁확신해요	-13963
버렸습니다	-13964
▁공간입니다	-13965
▁기다릴게요	-13966
▁나타납니다	-13967
▁다녔습니다	-13968
▁다음으로는	-13969
▁다행입니다	-13970
▁당신에게서	-13971
▁떠났습니다	-13972
▁마쳤습니다	-13973
▁몰랐습니다	-13974
▁밤늦게까지	-13975
▁보내줄게요	-13976
▁비슷합니다	-13977
▁스케이트를	-13978
▁스페인어를	-13979
▁알레르기가	-13980
▁업데이트가	-13981
▁여자입니다	-13982
▁열정적으로	-13983
▁오토바이를	-13984
▁와이파이를	-13985
▁우리나라가	-13986
▁이루어지지	-13987
▁이용합니다	-13988
▁있으십니까	-13989
▁전자레인지	-13990
▁존경합니다	-13991
▁주의하세요	-13992
▁프로그래밍	-13993
▁하루였어요	-13994
▁확인됩니다	-13995
▁게스트하우스	-13996
▁고객으로부터	-13997
▁깨달았습니다	-13998
▁보내드리도록	-13999
▁실망했습니다	-14000
▁주문했습니다	-14001
▁표현했습니다	-14002
▁홈페이지에서	-14003
▁확인해보세요	-14004
▁인천아시안게임	-14005
25	-14006
67	-14007
OM	-14008
eb	-14009
na	-14010
ra	-14011
ue	-14012
vo	-14013
▁듀	-14014
▁랭	-14015
▁싹	-14016
▁썩	-14017
▁씌	-14018
▁웰	-14019
▁잼	-14020
▁져	-14021
▁줌	-14022
▁쪄	-14023
▁폼	-14024
▁헐	-14025
가야	-14026
거니	-14027
군이	-14028
극을	-14029
나라	-14030
니는	-14031
니스	-14032
렬한	-14033
로스	-14034
리안	-14035
린은	-14036
무늬	-14037
미도	-14038
보기	-14039
불로	-14040
사무	-14041
설계	-14042
세는	-14043
시게	-14044
시와	-14045
싶어	-14046
에너	-14047
온난	-14048
왔기	-14049
우드	-14050
웠을	-14051
이게	-14052
일러	-14053
입에	-14054
있을	-14055
전자	-14056
절은	-14057
접한	-14058
종을	-14059
책에	-14060
추를	-14061
층은	-14062
치료	-14063
치킨	-14064
타를	-14065
퍼가	-14066
평가	-14067
품에	-14068
현실	-14069
200	-14070
ine	-14071
▁DC	-14072
▁FC	-14073
▁가다	-14074
▁가맹	-14075
▁가이	-14076
▁간혹	-14077
▁값진	-14078
▁개씩	-14079
▁개혁	-14080
▁건네	-14081
▁걷기	-14082
▁고난	-14083
▁고유	-14084
▁고전	-14085
▁광주	-14086
▁교장	-14087
▁군사	-14088
▁글쓰	-14089
▁끈을	-14090
▁끼고	-14091
▁나노	-14092
▁난다	-14093
▁낭만	-14094
▁낮춰	-14095
▁내구	-14096
▁냉동	-14097
▁녹화	-14098
▁단축	-14099
▁닭을	-14100
▁대고	-14101
▁데서	-14102
▁돈과	-14103
▁동봉	-14104
▁되요	-14105
▁디렉	-14106
▁뚜렷	-14107
▁뜻은	-14108
▁랜덤	-14109
▁마다	-14110
▁만납	-14111
▁말만	-14112
▁맛의	-14113
▁메르	-14114
▁면도	-14115
▁목격	-14116
▁몸과	-14117
▁묵을	-14118
▁미뤄	-14119
▁밀려	-14120
▁방영	-14121
▁방출	-14122
▁배구	-14123
▁배부	-14124
▁번지	-14125
▁베어	-14126
▁변한	-14127
▁병사	-14128
▁봄에	-14129
▁부위	-14130
▁비례	-14131
▁산이	-14132
▁살던	-14133
▁삼각	-14134
▁소독	-14135
▁스팸	-14136
▁시의	-14137
▁실업	-14138
▁쌀쌀	-14139
▁썰어	-14140
▁아냐	-14141
▁악영	-14142
▁안될	-14143
▁안을	-14144
▁알림	-14145
▁앞당	-14146
▁얇게	-14147
▁어긋	-14148
▁없네	-14149
▁역에	-14150
▁열을	-14151
▁예산	-14152
▁오락	-14153
▁온실	-14154
▁용어	-14155
▁웃어	-14156
▁유심	-14157
▁유적	-14158
▁이라	-14159
▁이자	-14160
▁익스	-14161
▁인력	-14162
▁임금	-14163
▁입체	-14164
▁자아	-14165
▁작별	-14166
▁재산	-14167
▁전주	-14168
▁전파	-14169
▁절감	-14170
▁주며	-14171
▁주재	-14172
▁죽고	-14173
▁죽어	-14174
▁줄리	-14175
▁지날	-14176
▁진열	-14177
▁집행	-14178
▁천재	-14179
▁체코	-14180
▁춘천	-14181
▁칼슘	-14182
▁타기	-14183
▁타지	-14184
▁팔레	-14185
▁팔아	-14186
▁펜션	-14187
▁풀이	-14188
▁플로	-14189
▁피가	-14190
▁피어	-14191
▁한참	-14192
▁해봐	-14193
▁해안	-14194
▁혼잡	-14195
▁확산	-14196
▁후반	-14197
관리를	-14198
렸다고	-14199
로드가	-14200
받기를	-14201
받았어	-14202
버렸어	-14203
보다도	-14204
비디오	-14205
비용을	-14206
산에서	-14207
소리가	-14208
스턴트	-14209
시장이	-14210
였다면	-14211
인지를	-14212
졌다는	-14213
준다면	-14214
증으로	-14215
지네요	-14216
진다면	-14217
청에서	-14218
하자고	-14219
했더니	-14220
▁The	-14221
▁가다가	-14222
▁가수의	-14223
▁간다는	-14224
▁강하고	-14225
▁개념을	-14226
▁개인이	-14227
▁것과는	-14228
▁결혼에	-14229
▁경영진	-14230
▁경험할	-14231
▁계절에	-14232
▁고치고	-14233
▁공간에	-14234
▁공사를	-14235
▁공휴일	-14236
▁과목은	-14237
▁과자를	-14238
▁광고의	-14239
▁교실에	-14240
▁구하기	-14241
▁국가는	-14242
▁균형을	-14243
▁그렇고	-14244
▁그전에	-14245
▁금액의	-14246
▁기념품	-14247
▁기대해	-14248
▁기반의	-14249
▁길이는	-14250
▁끔찍한	-14251
▁나무가	-14252
▁나쁘게	-14253
▁남기고	-14254
▁남들과	-14255
▁내일을	-14256
▁내일의	-14257
▁냈어요	-14258
▁너처럼	-14259
▁노래의	-14260
▁노력과	-14261
▁눈사람	-14262
▁달리기	-14263
▁당신들	-14264
▁대회를	-14265
▁댓글을	-14266
▁데에는	-14267
▁도자기	-14268
▁독일에	-14269
▁돌려보	-14270
▁동남아	-14271
▁동료와	-14272
▁동생을	-14273
▁됐는데	-14274
▁되돌려	-14275
▁드라이	-14276
▁들어본	-14277
▁등산을	-14278
▁따르는	-14279
▁라이센	-14280
▁맛있고	-14281
▁매사에	-14282
▁매장은	-14283
▁매장을	-14284
▁무게를	-14285
▁문서에	-14286
▁문의해	-14287
▁문자로	-14288
▁물품이	-14289
▁바닷가	-14290
▁바르고	-14291
▁박근혜	-14292
▁반에서	-14293
▁발표가	-14294
▁방법도	-14295
▁배고프	-14296
▁베토벤	-14297
▁분들께	-14298
▁브레이	-14299
▁비교할	-14300
▁비율이	-14301
▁사운드	-14302
▁삼계탕	-14303
▁삼성은	-14304
▁상상을	-14305
▁생기고	-14306
▁서서히	-14307
▁서툴러	-14308
▁선수를	-14309
▁성격과	-14310
▁성실히	-14311
▁성적은	-14312
▁세부에	-14313
▁소리는	-14314
▁소통이	-14315
▁수업의	-14316
▁스테인	-14317
▁신고를	-14318
▁실례가	-14319
▁아래는	-14320
▁알리고	-14321
▁알파벳	-14322
▁양해를	-14323
▁어제와	-14324
▁억지로	-14325
▁역사가	-14326
▁역사는	-14327
▁연관이	-14328
▁오는데	-14329
▁오더가	-14330
▁오더에	-14331
▁완전한	-14332
▁왔는지	-14333
▁왔다고	-14334
▁요리할	-14335
▁우울해	-14336
▁원하니	-14337
▁위안부	-14338
▁유지해	-14339
▁의미로	-14340
▁이쁘게	-14341
▁이외의	-14342
▁인식을	-14343
▁있겠지	-14344
▁자기를	-14345
▁자려고	-14346
▁자외선	-14347
▁자재는	-14348
▁자체를	-14349
▁작가는	-14350
▁작동이	-14351
▁잘하기	-14352
▁장르는	-14353
▁장비에	-14354
▁재미없	-14355
▁저렇게	-14356
▁저만의	-14357
▁저희를	-14358
▁적성에	-14359
▁정리해	-14360
▁조금은	-14361
▁좋았고	-14362
▁중심의	-14363
▁지구에	-14364
▁지루한	-14365
▁지시를	-14366
▁진로를	-14367
▁찍어도	-14368
▁차량을	-14369
▁촉촉한	-14370
▁최대의	-14371
▁최악의	-14372
▁커피는	-14373
▁케이팝	-14374
▁통관이	-14375
▁파악할	-14376
▁평생을	-14377
▁학점을	-14378
▁한동안	-14379
▁할인해	-14380
▁합쳐서	-14381
▁항목이	-14382
▁해결될	-14383
▁해결이	-14384
▁했다는	-14385
▁형태가	-14386
▁화면에	-14387
▁환자를	-14388
되었는데	-14389
시입니다	-14390
인이라는	-14391
하시다면	-14392
하였지만	-14393
회사에서	-14394
▁2000	-14395
▁2010	-14396
▁가보세요	-14397
▁가이드가	-14398
▁걸렸어요	-14399
▁걸릴까요	-14400
▁결혼하면	-14401
▁경우에도	-14402
▁경찰서에	-14403
▁계정으로	-14404
▁고객사는	-14405
▁교실에서	-14406
▁그것으로	-14407
▁그때까지	-14408
▁깔끔하고	-14409
▁나오는데	-14410
▁남녀노소	-14411
▁느껴지는	-14412
▁늦어져서	-14413
▁다르다고	-14414
▁대통령의	-14415
▁마케팅에	-14416
▁마트에서	-14417
▁만족하고	-14418
▁맞는다면	-14419
▁메일에서	-14420
▁뮤지컬을	-14421
▁바릅니다	-14422
▁반복해서	-14423
▁반짝이는	-14424
▁발생하여	-14425
▁배려심이	-14426
▁배송비가	-14427
▁배송비는	-14428
▁베네치아	-14429
▁비슷하게	-14430
▁사람처럼	-14431
▁사랑하면	-14432
▁사용되고	-14433
▁생겼으면	-14434
▁생활하는	-14435
▁서비스와	-14436
▁선택하면	-14437
▁선택해서	-14438
▁소비자가	-14439
▁소통하고	-14440
▁수학여행	-14441
▁실질적인	-14442
▁싶습니까	-14443
▁싶으세요	-14444
▁아니었어	-14445
▁아침까지	-14446
▁않았다는	-14447
▁않으세요	-14448
▁어머니와	-14449
▁어울리지	-14450
▁얼마든지	-14451
▁얼마에요	-14452
▁얼마예요	-14453
▁에버랜드	-14454
▁여동생과	-14455
▁연결하는	-14456
▁예정되어	-14457
▁완료되지	-14458
▁원하는지	-14459
▁유네스코	-14460
▁유니폼을	-14461
▁음식들이	-14462
▁음식점이	-14463
▁이쪽으로	-14464
▁일어나고	-14465
▁전문적인	-14466
▁점심으로	-14467
▁제안해요	-14468
▁제작하여	-14469
▁조심해서	-14470
▁주셨어요	-14471
▁지구온난	-14472
▁직원에게	-14473
▁착용하고	-14474
▁참여하게	-14475
▁처리해야	-14476
▁청소하는	-14477
▁토요일은	-14478
▁파트너를	-14479
▁판매되고	-14480
▁프랑스의	-14481
▁필요하니	-14482
▁함유되어	-14483
▁행복했던	-14484
▁힘들다고	-14485
달러입니다	-14486
시켜줍니다	-14487
있었습니다	-14488
▁갑작스러운	-14489
▁결정했어요	-14490
▁구매했어요	-14491
▁궁금하네요	-14492
▁나타냅니다	-14493
▁남자친구는	-14494
▁돌아갑니다	-14495
▁동일합니다	-14496
▁들어갔어요	-14497
▁뛰어납니다	-14498
▁매니저에게	-14499
▁모습입니다	-14500
▁무엇이라고	-14501
▁사용하시면	-14502
▁수영장에서	-14503
▁수요일까지	-14504
▁실시간으로	-14505
▁아파트에서	-14506
▁않았습니까	-14507
▁알겠습니다	-14508
▁에어비앤비	-14509
▁예약했어요	-14510
▁예정이라고	-14511
▁온라인으로	-14512
▁요구합니다	-14513
▁이탈리아에	-14514
▁인보이스와	-14515
▁자랐습니다	-14516
▁정도입니다	-14517
▁주기적으로	-14518
▁준비합니다	-14519
▁지하철에서	-14520
▁참여했어요	-14521
▁컨테이너에	-14522
▁토요일에는	-14523
▁프로젝트가	-14524
▁필요했어요	-14525
해주시겠어요	-14526
▁가져다주세요	-14527
▁바뀌었습니다	-14528
▁시간이었어요	-14529
▁아이템입니다	-14530
▁엘리베이터를	-14531
▁이해했습니다	-14532
▁참여했습니다	-14533
▁힘들었습니다	-14534
▁게스트하우스는	-14535
▁진행되었습니다	-14536
.4	-14537
.9	-14538
89	-14539
▁&	-14540
▁o	-14541
▁갓	-14542
▁귤	-14543
▁덩	-14544
▁벙	-14545
▁캄	-14546
▁킹	-14547
▁팽	-14548
▁핏	-14549
▁험	-14550
▁헹	-14551
▁흩	-14552
가게	-14553
각이	-14554
견이	-14555
결이	-14556
기록	-14557
기면	-14558
꺼야	-14559
끄럼	-14560
년은	-14561
년째	-14562
니를	-14563
니즘	-14564
대회	-14565
더에	-14566
되니	-14567
라와	-14568
랐어	-14569
러포	-14570
렀다	-14571
류의	-14572
맨이	-14573
문은	-14574
박한	-14575
발이	-14576
밤에	-14577
배를	-14578
버려	-14579
번은	-14580
범위	-14581
베리	-14582
부여	-14583
부턴	-14584
생산	-14585
속이	-14586
스도	-14587
약이	-14588
여요	-14589
연한	-14590
오에	-14591
오의	-14592
워야	-14593
자료	-14594
자베	-14595
저우	-14596
적한	-14597
제와	-14598
조의	-14599
증은	-14600
집은	-14601
차에	-14602
체험	-14603
카에	-14604
카페	-14605
크와	-14606
킹은	-14607
티에	-14608
프에	-14609
현이	-14610
int	-14611
ost	-14612
▁33	-14613
▁48	-14614
▁55	-14615
▁ED	-14616
▁He	-14617
▁IN	-14618
▁Sh	-14619
▁가든	-14620
▁간을	-14621
▁갈매	-14622
▁강도	-14623
▁강해	-14624
▁개개	-14625
▁개나	-14626
▁개정	-14627
▁개척	-14628
▁건이	-14629
▁검출	-14630
▁계급	-14631
▁고를	-14632
▁고요	-14633
▁고치	-14634
▁곡선	-14635
▁공용	-14636
▁구사	-14637
▁국어	-14638
▁귀에	-14639
▁그도	-14640
▁급히	-14641
▁기어	-14642
▁김민	-14643
▁날인	-14644
▁내기	-14645
▁넓어	-14646
▁년이	-14647
▁노폐	-14648
▁녹색	-14649
▁높다	-14650
▁놓지	-14651
▁다뤄	-14652
▁단일	-14653
▁달고	-14654
▁달은	-14655
▁닭강	-14656
▁담요	-14657
▁당뇨	-14658
▁대우	-14659
▁대충	-14660
▁데미	-14661
▁두게	-14662
▁따를	-14663
▁땀을	-14664
▁뜨겁	-14665
▁레고	-14666
▁리버	-14667
▁마카	-14668
▁마트	-14669
▁막내	-14670
▁메탈	-14671
▁몰아	-14672
▁몸의	-14673
▁못생	-14674
▁무거	-14675
▁무덤	-14676
▁문법	-14677
▁물려	-14678
▁물로	-14679
▁바둑	-14680
▁발자	-14681
▁방치	-14682
▁버블	-14683
▁번을	-14684
▁번창	-14685
▁벌고	-14686
▁법은	-14687
▁법이	-14688
▁별거	-14689
▁병행	-14690
▁보급	-14691
▁부근	-14692
▁부츠	-14693
▁분쟁	-14694
▁불공	-14695
▁비비	-14696
▁뽀뽀	-14697
▁사귈	-14698
▁삼아	-14699
▁생신	-14700
▁서른	-14701
▁서식	-14702
▁설마	-14703
▁섬이	-14704
▁세관	-14705
▁쇼를	-14706
▁수다	-14707
▁숨어	-14708
▁스물	-14709
▁시가	-14710
▁시쯤	-14711
▁신은	-14712
▁실명	-14713
▁싸움	-14714
▁씨앗	-14715
▁아랫	-14716
▁아우	-14717
▁안쪽	-14718
▁앉을	-14719
▁앱이	-14720
▁에피	-14721
▁여객	-14722
▁여신	-14723
▁영희	-14724
▁왔던	-14725
▁원이	-14726
▁유혹	-14727
▁의약	-14728
▁이윤	-14729
▁일련	-14730
▁잃어	-14731
▁자바	-14732
▁자칼	-14733
▁작게	-14734
▁잘한	-14735
▁적지	-14736
▁전과	-14737
▁전면	-14738
▁전의	-14739
▁전형	-14740
▁점수	-14741
▁접목	-14742
▁종사	-14743
▁지리	-14744
▁쫄깃	-14745
▁채택	-14746
▁책정	-14747
▁챙기	-14748
▁첨단	-14749
▁초코	-14750
▁층에	-14751
▁치러	-14752
▁컴백	-14753
▁탁구	-14754
▁탄탄	-14755
▁트랜	-14756
▁팝콘	-14757
▁펜팔	-14758
▁포켓	-14759
▁포트	-14760
▁폭이	-14761
▁푸는	-14762
▁피고	-14763
▁하락	-14764
▁학급	-14765
▁한양	-14766
▁해방	-14767
▁형은	-14768
▁화합	-14769
▁훔쳐	-14770
▁휴게	-14771
가지가	-14772
기로는	-14773
달러에	-14774
대회를	-14775
둡니다	-14776
레이션	-14777
룸으로	-14778
리라는	-14779
사항은	-14780
시켜야	-14781
어에서	-14782
이기에	-14783
졌나요	-14784
주의가	-14785
집으로	-14786
해보자	-14787
했네요	-14788
화하여	-14789
▁1~2	-14790
▁CEO	-14791
▁FOB	-14792
▁MCS	-14793
▁NVR	-14794
▁PDF	-14795
▁갈등이	-14796
▁개선을	-14797
▁것이죠	-14798
▁것인데	-14799
▁계약은	-14800
▁고추장	-14801
▁공부한	-14802
▁과거를	-14803
▁과거와	-14804
▁관리가	-14805
▁교환을	-14806
▁권리가	-14807
▁그들도	-14808
▁극복할	-14809
▁근거로	-14810
▁기능에	-14811
▁기쁘고	-14812
▁길에서	-14813
▁김치가	-14814
▁끝나요	-14815
▁끝부분	-14816
▁끝으로	-14817
▁나가면	-14818
▁남자랑	-14819
▁느낀다	-14820
▁능력은	-14821
▁다치지	-14822
▁대리점	-14823
▁돌아간	-14824
▁동의할	-14825
▁동작을	-14826
▁되겠니	-14827
▁되었던	-14828
▁뒤에는	-14829
▁들어왔	-14830
▁들에게	-14831
▁들여다	-14832
▁뛰어넘	-14833
▁로맨스	-14834
▁리스팅	-14835
▁마셔서	-14836
▁만남이	-14837
▁말이죠	-14838
▁말인지	-14839
▁멀리서	-14840
▁메일의	-14841
▁명세를	-14842
▁명확히	-14843
▁모델과	-14844
▁모델로	-14845
▁모듈을	-14846
▁문제인	-14847
▁물어봤	-14848
▁미국인	-14849
▁바다와	-14850
▁바쁘고	-14851
▁바쁘지	-14852
▁바이러	-14853
▁받는다	-14854
▁발전이	-14855
▁발표에	-14856
▁밤하늘	-14857
▁방법의	-14858
▁범위를	-14859
▁범죄가	-14860
▁베를린	-14861
▁변경에	-14862
▁보다가	-14863
▁보통의	-14864
▁부분만	-14865
▁부위에	-14866
▁부장님	-14867
▁북한이	-14868
▁비싸요	-14869
▁사이드	-14870
▁사이버	-14871
▁사형제	-14872
▁살아서	-14873
▁샀는데	-14874
▁생명이	-14875
▁서류와	-14876
▁서류의	-14877
▁설명한	-14878
▁성과가	-14879
▁소재로	-14880
▁속으로	-14881
▁수술이	-14882
▁수익을	-14883
▁스태프	-14884
▁승리를	-14885
▁신기한	-14886
▁신발이	-14887
▁싶지는	-14888
▁쓰면서	-14889
▁쓰이는	-14890
▁안부를	-14891
▁안정을	-14892
▁않기로	-14893
▁않으며	-14894
▁앞두고	-14895
▁어디든	-14896
▁어렵고	-14897
▁여름을	-14898
▁여자야	-14899
▁연기가	-14900
▁열정과	-14901
▁옆으로	-14902
▁외부에	-14903
▁요코하	-14904
▁용기에	-14905
▁운동도	-14906
▁원하던	-14907
▁월급이	-14908
▁유럽에	-14909
▁유럽의	-14910
▁을왕리	-14911
▁음료수	-14912
▁이기는	-14913
▁이슈는	-14914
▁이유도	-14915
▁이해한	-14916
▁인천의	-14917
▁일본과	-14918
▁있겠어	-14919
▁작품의	-14920
▁잘못이	-14921
▁재밌고	-14922
▁재산을	-14923
▁전보다	-14924
▁전쟁이	-14925
▁정리할	-14926
▁정상에	-14927
▁제임스	-14928
▁조정이	-14929
▁존재를	-14930
▁주겠다	-14931
▁주고받	-14932
▁주나요	-14933
▁죽이는	-14934
▁지구를	-14935
▁지나도	-14936
▁지나지	-14937
▁지원해	-14938
▁지켜보	-14939
▁직원의	-14940
▁차라리	-14941
▁찾아와	-14942
▁책임은	-14943
▁체육관	-14944
▁쳐다보	-14945
▁출장이	-14946
▁취소할	-14947
▁취향에	-14948
▁칭찬을	-14949
▁컬러가	-14950
▁크기로	-14951
▁타이밍	-14952
▁투명한	-14953
▁트러블	-14954
▁티켓이	-14955
▁편견을	-14956
▁프러포	-14957
▁피로가	-14958
▁하려는	-14959
▁하루의	-14960
▁했네요	-14961
▁행운의	-14962
▁향상할	-14963
▁헤어지	-14964
▁현명한	-14965
▁현실을	-14966
▁휴가가	-14967
것입니다	-14968
사로부터	-14969
인들에게	-14970
하시네요	-14971
▁2011	-14972
▁가졌어요	-14973
▁감자튀김	-14974
▁거짓말은	-14975
▁건너편에	-14976
▁걸리는지	-14977
▁경쟁력이	-14978
▁경제적인	-14979
▁경험하게	-14980
▁고객님께	-14981
▁관광객이	-14982
▁국가에서	-14983
▁극복하기	-14984
▁금전적인	-14985
▁길이에요	-14986
▁끊임없는	-14987
▁나라에는	-14988
▁남아있는	-14989
▁남자예요	-14990
▁노트북을	-14991
▁누군가는	-14992
▁다녔어요	-14993
▁다행이야	-14994
▁대통령은	-14995
▁도시락을	-14996
▁돌아다녔	-14997
▁동의하지	-14998
▁드라마에	-14999
▁드레스를	-15000
▁들어갔어	-15001
▁디바이스	-15002
▁떡볶이를	-15003
▁뜻인가요	-15004
▁레이아웃	-15005
▁마을에서	-15006
▁마이크로	-15007
▁만납시다	-15008
▁만족하는	-15009
▁매니저가	-15010
▁머릿속에	-15011
▁먹어보고	-15012
▁무서워서	-15013
▁무엇으로	-15014
▁버전으로	-15015
▁보여주기	-15016
▁볼거리가	-15017
▁부끄러워	-15018
▁부러워요	-15019
▁불편해요	-15020
▁사무실을	-15021
▁살았어요	-15022
▁삼겹살을	-15023
▁상호작용	-15024
▁설명하는	-15025
▁성장하고	-15026
▁세관에서	-15027
▁손가락을	-15028
▁수영하러	-15029
▁수정해야	-15030
▁시간까지	-15031
▁시작하게	-15032
▁시작했고	-15033
▁실용적인	-15034
▁아무거나	-15035
▁악영향을	-15036
▁안심하고	-15037
▁알겠지만	-15038
▁애완동물	-15039
▁어디서든	-15040
▁어울려요	-15041
▁엄마한테	-15042
▁연구하고	-15043
▁연락하면	-15044
▁연예인이	-15045
▁예상되는	-15046
▁올림픽은	-15047
▁외로움을	-15048
▁이기적인	-15049
▁이동하는	-15050
▁이들에게	-15051
▁이산화탄	-15052
▁인터페이	-15053
▁일주일이	-15054
▁읽습니다	-15055
▁있는지도	-15056
▁있더라도	-15057
▁전적으로	-15058
▁정보들을	-15059
▁제주도로	-15060
▁조용하고	-15061
▁존경해요	-15062
▁주문해야	-15063
▁지났어요	-15064
▁진행해요	-15065
▁차이점이	-15066
▁축하하고	-15067
▁친해지고	-15068
▁카메라가	-15069
▁카메라로	-15070
▁캐릭터는	-15071
▁케이블을	-15072
▁클럽에서	-15073
▁클릭하면	-15074
▁태권도를	-15075
▁태어나서	-15076
▁편리해요	-15077
▁편안함을	-15078
▁포스터를	-15079
▁하나예요	-15080
▁학생들과	-15081
▁형식으로	-15082
▁홈스테이	-15083
▁환자에게	-15084
▁활발하게	-15085
▁휴대전화	-15086
▁힘들었던	-15087
▁43001	-15088
▁가깝습니다	-15089
▁갑작스럽게	-15090
▁공식적으로	-15091
▁그녀에게는	-15092
▁금요일에는	-15093
▁깊었습니다	-15094
▁남자친구랑	-15095
▁네트워크를	-15096
▁노래입니다	-15097
▁놀이터에서	-15098
▁당신에게는	-15099
▁대표적으로	-15100
▁메이크업을	-15101
▁뮤직비디오	-15102
▁방문합니다	-15103
▁보내셨나요	-15104
▁사람에게는	-15105
▁사용한다면	-15106
▁상관없어요	-15107
▁생각하는데	-15108
▁생각했는데	-15109
▁소개할게요	-15110
▁스테이크와	-15111
▁어려서부터	-15112
▁엔지니어가	-15113
▁예정인가요	-15114
▁유감입니다	-15115
▁유치원에서	-15116
▁이루어지는	-15117
▁이해하려고	-15118
▁있습니다는	-15119
▁잡았습니다	-15120
▁재미있어요	-15121
▁적어주세요	-15122
▁적합하다고	-15123
▁전화번호가	-15124
▁정신적으로	-15125
▁조심스럽게	-15126
▁좋아하세요	-15127
▁죽었습니다	-15128
▁특징입니다	-15129
▁프라이팬에	-15130
▁필요하시면	-15131
▁필요합니까	-15132
▁할아버지는	-15133
▁행복하기를	-15134
해보았습니다	-15135
해주었습니다	-15136
▁디자인입니다	-15137
▁레스토랑에서	-15138
▁말씀해주세요	-15139
▁방문했습니다	-15140
▁변경했습니다	-15141
▁불가능하다면	-15142
▁상관없습니다	-15143
▁전달했습니다	-15144
▁크리스마스가	-15145
▁시간이었습니다	-15146
▁해드리겠습니다	-15147
▁보여드리겠습니다	-15148
AD	-15149
FP	-15150
IA	-15151
ff	-15152
ia	-15153
ps	-15154
ri	-15155
▁<	-15156
▁딴	-15157
▁락	-15158
▁룩	-15159
▁쟁	-15160
▁컷	-15161
▁템	-15162
▁톡	-15163
값은	-15164
검토	-15165
공급	-15166
나서	-15167
동아	-15168
됨을	-15169
량과	-15170
리자	-15171
명세	-15172
민의	-15173
백만	-15174
변을	-15175
브리	-15176
석에	-15177
실의	-15178
싶은	-15179
악한	-15180
안내	-15181
액은	-15182
액이	-15183
역시	-15184
염이	-15185
영화	-15186
으려	-15187
의의	-15188
이스	-15189
자들	-15190
전과	-15191
제야	-15192
좋게	-15193
즈와	-15194
지며	-15195
지인	-15196
차와	-15197
체와	-15198
층을	-15199
크래	-15200
타는	-15201
타인	-15202
파이	-15203
판매	-15204
편은	-15205
품과	-15206
풍을	-15207
플렉	-15208
하네	-15209
학번	-15210
했죠	-15211
호의	-15212
화될	-15213
화한	-15214
800	-15215
ill	-15216
▁AR	-15217
▁PI	-15218
▁ST	-15219
▁TA	-15220
▁st	-15221
▁가니	-15222
▁가루	-15223
▁가볼	-15224
▁가실	-15225
▁가위	-15226
▁갇혀	-15227
▁감고	-15228
▁갖기	-15229
▁개조	-15230
▁건가	-15231
▁견본	-15232
▁경력	-15233
▁경주	-15234
▁고흐	-15235
▁공예	-15236
▁괜히	-15237
▁구간	-15238
▁국경	-15239
▁기기	-15240
▁깜박	-15241
▁꼭대	-15242
▁끼쳐	-15243
▁나게	-15244
▁날도	-15245
▁날씬	-15246
▁내어	-15247
▁넘쳐	-15248
▁넣지	-15249
▁노르	-15250
▁논쟁	-15251
▁다름	-15252
▁다친	-15253
▁닮아	-15254
▁담백	-15255
▁대다	-15256
▁대인	-15257
▁더럽	-15258
▁뒤를	-15259
▁들기	-15260
▁들리	-15261
▁딱딱	-15262
▁떼어	-15263
▁뜨는	-15264
▁라스	-15265
▁런칭	-15266
▁리본	-15267
▁마쳤	-15268
▁많으	-15269
▁맑고	-15270
▁맞고	-15271
▁매립	-15272
▁맥베	-15273
▁명칭	-15274
▁무겁	-15275
▁무작	-15276
▁물과	-15277
▁미흡	-15278
▁민간	-15279
▁밀크	-15280
▁바와	-15281
▁밖의	-15282
▁받길	-15283
▁발사	-15284
▁배포	-15285
▁백성	-15286
▁백업	-15287
▁법적	-15288
▁벗겨	-15289
▁벽을	-15290
▁복제	-15291
▁볶은	-15292
▁본다	-15293
▁봉투	-15294
▁부터	-15295
▁부하	-15296
▁분을	-15297
▁불리	-15298
▁블로	-15299
▁비어	-15300
▁비중	-15301
▁비참	-15302
▁빅뱅	-15303
▁사려	-15304
▁사태	-15305
▁생애	-15306
▁선두	-15307
▁선반	-15308
▁성을	-15309
▁성향	-15310
▁세균	-15311
▁속을	-15312
▁솔로	-15313
▁수박	-15314
▁수선	-15315
▁수확	-15316
▁스톤	-15317
▁시럽	-15318
▁신라	-15319
▁쓰인	-15320
▁암살	-15321
▁앞을	-15322
▁애들	-15323
▁약이	-15324
▁양은	-15325
▁없나	-15326
▁여는	-15327
▁여덟	-15328
▁예금	-15329
▁온통	-15330
▁외환	-15331
▁요양	-15332
▁우정	-15333
▁원재	-15334
▁응대	-15335
▁이득	-15336
▁이베	-15337
▁이화	-15338
▁인용	-15339
▁일생	-15340
▁일행	-15341
▁잃을	-15342
▁임원	-15343
▁입이	-15344
▁자란	-15345
▁자를	-15346
▁자정	-15347
▁잠도	-15348
▁잠만	-15349
▁장만	-15350
▁재단	-15351
▁적고	-15352
▁정성	-15353
▁정원	-15354
▁조항	-15355
▁좁은	-15356
▁즉각	-15357
▁증상	-15358
▁지겨	-15359
▁지름	-15360
▁진찰	-15361
▁체벌	-15362
▁취약	-15363
▁취할	-15364
▁카레	-15365
▁캄보	-15366
▁크다	-15367
▁탐험	-15368
▁테라	-15369
▁파도	-15370
▁페덱	-15371
▁페인	-15372
▁포르	-15373
▁피는	-15374
▁필기	-15375
▁핑크	-15376
▁하단	-15377
▁한결	-15378
▁한숨	-15379
▁했죠	-15380
▁혈액	-15381
▁홍삼	-15382
▁화상	-15383
▁회상	-15384
▁횡단	-15385
▁흔한	-15386
냅시다	-15387
달러로	-15388
되네요	-15389
들이야	-15390
리아의	-15391
밀하게	-15392
번으로	-15393
번호는	-15394
서류를	-15395
석으로	-15396
스럽다	-15397
시설이	-15398
시장은	-15399
시킨다	-15400
아이는	-15401
어서는	-15402
었네요	-15403
올림픽	-15404
일지도	-15405
자들과	-15406
지거나	-15407
춥니다	-15408
하였기	-15409
▁032	-15410
▁40%	-15411
▁CMS	-15412
▁가을은	-15413
▁가지러	-15414
▁감사할	-15415
▁감사해	-15416
▁같군요	-15417
▁건강히	-15418
▁건축물	-15419
▁검토한	-15420
▁경력을	-15421
▁경찰은	-15422
▁경험에	-15423
▁경험한	-15424
▁계속할	-15425
▁계획한	-15426
▁고기가	-15427
▁고마운	-15428
▁고소한	-15429
▁공원을	-15430
▁광고에	-15431
▁광범위	-15432
▁교회를	-15433
▁구멍이	-15434
▁구성이	-15435
▁구하는	-15436
▁군대를	-15437
▁그날이	-15438
▁그룹의	-15439
▁근거가	-15440
▁근거를	-15441
▁근사한	-15442
▁나가기	-15443
▁나네요	-15444
▁나무에	-15445
▁나하고	-15446
▁남아서	-15447
▁남이섬	-15448
▁남자야	-15449
▁넘버를	-15450
▁넣어야	-15451
▁놀았어	-15452
▁누구랑	-15453
▁느꼈던	-15454
▁다루고	-15455
▁단가가	-15456
▁대화는	-15457
▁동물과	-15458
▁동전을	-15459
▁되리라	-15460
▁두드려	-15461
▁드려도	-15462
▁드리기	-15463
▁들어주	-15464
▁라이브	-15465
▁말하길	-15466
▁말해도	-15467
▁매력에	-15468
▁먹거나	-15469
▁명령을	-15470
▁모델에	-15471
▁모양은	-15472
▁몬스터	-15473
▁무시할	-15474
▁문서가	-15475
▁뭔가를	-15476
▁미세한	-15477
▁미술을	-15478
▁바뀌지	-15479
▁반려견	-15480
▁발주를	-15481
▁방식에	-15482
▁배달해	-15483
▁배송할	-15484
▁배우지	-15485
▁번역할	-15486
▁번쯤은	-15487
▁벌어서	-15488
▁보다는	-15489
▁보살펴	-15490
▁부탁한	-15491
▁부탁할	-15492
▁부품은	-15493
▁분리수	-15494
▁불쌍한	-15495
▁붙이는	-15496
▁사건의	-15497
▁사용된	-15498
▁사용에	-15499
▁사원이	-15500
▁사이를	-15501
▁산다면	-15502
▁상품과	-15503
▁새해를	-15504
▁생산할	-15505
▁생일날	-15506
▁서명이	-15507
▁서양의	-15508
▁서울시	-15509
▁섞어서	-15510
▁선택해	-15511
▁설계를	-15512
▁설정을	-15513
▁설정한	-15514
▁성격에	-15515
▁성공의	-15516
▁세련된	-15517
▁센서를	-15518
▁소원은	-15519
▁숙소를	-15520
▁숙제가	-15521
▁스크립	-15522
▁승무원	-15523
▁시작될	-15524
▁신고할	-15525
▁신발에	-15526
▁신속한	-15527
▁싫어해	-15528
▁싱가폴	-15529
▁싸움을	-15530
▁아나요	-15531
▁아내의	-15532
▁아픔을	-15533
▁안전벨	-15534
▁알아차	-15535
▁앨범을	-15536
▁야경이	-15537
▁야채와	-15538
▁약속은	-15539
▁얘들아	-15540
▁어제의	-15541
▁언니의	-15542
▁얼마의	-15543
▁여름은	-15544
▁여자랑	-15545
▁여학생	-15546
▁여행도	-15547
▁연필을	-15548
▁영업을	-15549
▁예민한	-15550
▁예정인	-15551
▁오더는	-15552
▁오리엔	-15553
▁온전히	-15554
▁왕자는	-15555
▁요리해	-15556
▁욕구가	-15557
▁우승을	-15558
▁윗부분	-15559
▁유행을	-15560
▁의도를	-15561
▁의상을	-15562
▁의식이	-15563
▁이사할	-15564
▁이어져	-15565
▁이어질	-15566
▁인도에	-15567
▁인상이	-15568
▁일단은	-15569
▁일으킬	-15570
▁일인지	-15571
▁일종의	-15572
▁자신도	-15573
▁자연이	-15574
▁작지만	-15575
▁재킷을	-15576
▁저보다	-15577
▁전쟁에	-15578
▁절약할	-15579
▁정류장	-15580
▁정보의	-15581
▁정하고	-15582
▁제작된	-15583
▁제품만	-15584
▁조절이	-15585
▁조직의	-15586
▁졸업을	-15587
▁주의를	-15588
▁줄까요	-15589
▁중앙에	-15590
▁지나서	-15591
▁지불한	-15592
▁진료를	-15593
▁진지한	-15594
▁집중을	-15595
▁참석을	-15596
▁참여해	-15597
▁창고로	-15598
▁창문이	-15599
▁찾아뵙	-15600
▁찾아온	-15601
▁최적의	-15602
▁추가된	-15603
▁취소가	-15604
▁치마를	-15605
▁치킨과	-15606
▁칵테일	-15607
▁커피가	-15608
▁컬러의	-15609
▁크기는	-15610
▁통관을	-15611
▁통하지	-15612
▁특성에	-15613
▁판매자	-15614
▁패션에	-15615
▁퍼레이	-15616
▁편의를	-15617
▁편하고	-15618
▁평화를	-15619
▁포워딩	-15620
▁포토샵	-15621
▁표현해	-15622
▁품질에	-15623
▁품질의	-15624
▁하겠어	-15625
▁하셔도	-15626
▁하여야	-15627
▁항공권	-15628
▁해봐야	-15629
▁해산물	-15630
▁해서는	-15631
▁해주기	-15632
▁했더니	-15633
▁화물이	-15634
▁효과는	-15635
▁효과에	-15636
▁휴가는	-15637
▁휴일이	-15638
스러움을	-15639
인이에요	-15640
중입니다	-15641
함이에요	-15642
▁가능하니	-15643
▁가이드를	-15644
▁가졌는지	-15645
▁가족끼리	-15646
▁가치관을	-15647
▁감각적인	-15648
▁계약서는	-15649
▁고객들의	-15650
▁공통점이	-15651
▁관광지가	-15652
▁구경하고	-15653
▁그녀들은	-15654
▁그러다가	-15655
▁그만두고	-15656
▁기념품을	-15657
▁기다렸어	-15658
▁기대해요	-15659
▁나쁘다고	-15660
▁나에게도	-15661
▁나타내는	-15662
▁낫습니다	-15663
▁넣으세요	-15664
▁늦어지고	-15665
▁늦어지는	-15666
▁다른가요	-15667
▁대신해서	-15668
▁대해서만	-15669
▁도착해요	-15670
▁돌아가야	-15671
▁동물들은	-15672
▁들어가지	-15673
▁롯데백화	-15674
▁마시면서	-15675
▁만족해요	-15676
▁매뉴얼을	-15677
▁먹을까요	-15678
▁모르겠네	-15679
▁문제점은	-15680
▁물놀이를	-15681
▁미칩니다	-15682
▁반대하는	-15683
▁반영하여	-15684
▁방해하는	-15685
▁보관하고	-15686
▁보기에는	-15687
▁보내주는	-15688
▁보냈으면	-15689
▁부산으로	-15690
▁사이트가	-15691
▁사진들은	-15692
▁상징하는	-15693
▁상품으로	-15694
▁성실하고	-15695
▁수정하고	-15696
▁스케줄로	-15697
▁스타일로	-15698
▁아침에는	-15699
▁않을게요	-15700
▁알려지지	-15701
▁어렵다는	-15702
▁없음으로	-15703
▁엘리자베	-15704
▁여기저기	-15705
▁여보세요	-15706
▁영국으로	-15707
▁예약되어	-15708
▁오전까지	-15709
▁올해에는	-15710
▁요청하면	-15711
▁원합니까	-15712
▁인정하고	-15713
▁일본어를	-15714
▁일어나요	-15715
▁일어났을	-15716
▁있답니다	-15717
▁있으면서	-15718
▁자본주의	-15719
▁장난감을	-15720
▁장단점을	-15721
▁저녁까지	-15722
▁적응하고	-15723
▁적응하는	-15724
▁전시회를	-15725
▁제시간에	-15726
▁제작하고	-15727
▁좋으세요	-15728
▁주문하신	-15729
▁주의해야	-15730
▁중간고사	-15731
▁직원들과	-15732
▁진행해도	-15733
▁집중하지	-15734
▁집중해서	-15735
▁추억으로	-15736
▁카메라에	-15737
▁카메라와	-15738
▁캐나다로	-15739
▁하거든요	-15740
▁한국인은	-15741
▁해결되지	-15742
▁해보세요	-15743
▁해산물을	-15744
▁홍보하는	-15745
▁확인해요	-15746
▁환경오염	-15747
▁활동적인	-15748
▁가능하다는	-15749
▁걱정했어요	-15750
▁것뿐이에요	-15751
▁결과입니다	-15752
▁계시는가요	-15753
▁공유합니다	-15754
▁기숙사에서	-15755
▁남자친구를	-15756
▁넘었습니다	-15757
▁눌러주세요	-15758
▁느껴집니다	-15759
▁다이어트에	-15760
▁당신들에게	-15761
▁동아리에서	-15762
▁두었습니다	-15763
▁레스토랑에	-15764
▁말씀하시는	-15765
▁말아주세요	-15766
▁맡았습니다	-15767
▁베트남에서	-15768
▁부분입니다	-15769
▁사실이에요	-15770
▁생각하는지	-15771
▁소개하고자	-15772
▁스마트폰의	-15773
▁아쉽습니다	-15774
▁애완동물을	-15775
▁어머니에게	-15776
▁업데이트해	-15777
▁에이전시를	-15778
▁여러분들도	-15779
▁연구입니다	-15780
▁올림픽에서	-15781
▁우체국에서	-15782
▁이제부터는	-15783
▁일요일까지	-15784
▁자체적으로	-15785
▁존재입니다	-15786
▁좋아하는지	-15787
▁주문하려고	-15788
▁중요하다는	-15789
▁중이었어요	-15790
▁진행했어요	-15791
▁차이나타운	-15792
▁패스트푸드	-15793
▁프랑스에서	-15794
▁프로그래머	-15795
▁하루하루가	-15796
▁하루하루를	-15797
▁해수욕장이	-15798
▁결정했습니다	-15799
▁당신으로부터	-15800
▁사람들입니다	-15801
▁스마트폰으로	-15802
▁일상생활에서	-15803
▁잃어버렸어요	-15804
▁참고해주세요	-15805
▁필요하신가요	-15806
▁알려주시겠어요	-15807
▁자랑스럽습니다	-15808
▁재미있었습니다	-15809
▁확인되었습니다	-15810
-9	-15811
AV	-15812
av	-15813
ep	-15814
th	-15815
ud	-15816
▁늑	-15817
▁델	-15818
▁르	-15819
▁으	-15820
▁짖	-15821
▁텀	-15822
▁푼	-15823
강을	-15824
것은	-15825
근한	-15826
꾸러	-15827
나를	-15828
난히	-15829
네가	-15830
놓는	-15831
답게	-15832
더러	-15833
돌이	-15834
드레	-15835
디브	-15836
론의	-15837
료와	-15838
머리	-15839
먹고	-15840
먹을	-15841
모와	-15842
바라	-15843
받았	-15844
번역	-15845
세트	-15846
셨을	-15847
수있	-15848
스름	-15849
스틴	-15850
시픽	-15851
신의	-15852
안은	-15853
여자	-15854
오래	-15855
인당	-15856
일만	-15857
잔을	-15858
재에	-15859
재해	-15860
절에	-15861
차게	-15862
차로	-15863
천만	-15864
키는	-15865
팀의	-15866
포로	-15867
해볼	-15868
했나	-15869
효율	-15870
ist	-15871
ive	-15872
och	-15873
ong	-15874
ple	-15875
▁1%	-15876
▁1/	-15877
▁2.	-15878
▁7,	-15879
▁75	-15880
▁99	-15881
▁BM	-15882
▁TT	-15883
▁ss	-15884
▁각기	-15885
▁갈라	-15886
▁강을	-15887
▁갖지	-15888
▁개그	-15889
▁개월	-15890
▁거미	-15891
▁검수	-15892
▁검찰	-15893
▁겪어	-15894
▁겪을	-15895
▁경비	-15896
▁고른	-15897
▁광화	-15898
▁교양	-15899
▁국물	-15900
▁귀한	-15901
▁극장	-15902
▁급격	-15903
▁급행	-15904
▁낙태	-15905
▁날로	-15906
▁남부	-15907
▁낯설	-15908
▁내주	-15909
▁네이	-15910
▁노벨	-15911
▁늘릴	-15912
▁다다	-15913
▁다룬	-15914
▁다룰	-15915
▁단위	-15916
▁달간	-15917
▁달팽	-15918
▁답은	-15919
▁대의	-15920
▁덕분	-15921
▁데도	-15922
▁도미	-15923
▁돈도	-15924
▁두는	-15925
▁땅이	-15926
▁떠났	-15927
▁리무	-15928
▁마블	-15929
▁마일	-15930
▁마칠	-15931
▁막고	-15932
▁망고	-15933
▁맞서	-15934
▁매콤	-15935
▁모레	-15936
▁모순	-15937
▁모집	-15938
▁모텔	-15939
▁물의	-15940
▁뭐든	-15941
▁미백	-15942
▁미사	-15943
▁미워	-15944
▁미처	-15945
▁밀착	-15946
▁바에	-15947
▁바우	-15948
▁반사	-15949
▁반이	-15950
▁배웅	-15951
▁백만	-15952
▁벌금	-15953
▁벙커	-15954
▁보도	-15955
▁보쌈	-15956
▁보아	-15957
▁보육	-15958
▁볼게	-15959
▁부작	-15960
▁분산	-15961
▁불닭	-15962
▁불확	-15963
▁비공	-15964
▁비엘	-15965
▁비율	-15966
▁빅토	-15967
▁빈곤	-15968
▁빠를	-15969
▁사정	-15970
▁서브	-15971
▁서술	-15972
▁서해	-15973
▁설악	-15974
▁세게	-15975
▁손해	-15976
▁수료	-15977
▁숙녀	-15978
▁스푼	-15979
▁습기	-15980
▁승낙	-15981
▁시사	-15982
▁신념	-15983
▁신사	-15984
▁신앙	-15985
▁신포	-15986
▁쌓여	-15987
▁아가	-15988
▁아나	-15989
▁아홉	-15990
▁안겨	-15991
▁안주	-15992
▁않죠	-15993
▁알렉	-15994
▁압도	-15995
▁압력	-15996
▁어둡	-15997
▁얻지	-15998
▁얽매	-15999
▁없으	-16000
▁없죠	-16001
▁에릭	-16002
▁엔터	-16003
▁연못	-16004
▁열면	-16005
▁영주	-16006
▁영토	-16007
▁오라	-16008
▁오만	-16009
▁옷과	-16010
▁왕자	-16011
▁외관	-16012
▁원가	-16013
▁웹툰	-16014
▁유선	-16015
▁이달	-16016
▁이행	-16017
▁일인	-16018
▁임무	-16019
▁임상	-16020
▁입대	-16021
▁입혀	-16022
▁자켓	-16023
▁재즈	-16024
▁잭슨	-16025
▁절제	-16026
▁점유	-16027
▁제과	-16028
▁젤리	-16029
▁조기	-16030
▁조원	-16031
▁주를	-16032
▁주파	-16033
▁줄넘	-16034
▁지가	-16035
▁지붕	-16036
▁지상	-16037
▁질을	-16038
▁차갑	-16039
▁차고	-16040
▁참기	-16041
▁창작	-16042
▁책도	-16043
▁치아	-16044
▁켜고	-16045
▁코딩	-16046
▁트리	-16047
▁파인	-16048
▁편도	-16049
▁폴리	-16050
▁표면	-16051
▁표출	-16052
▁풍요	-16053
▁피우	-16054
▁피할	-16055
▁하곤	-16056
▁하차	-16057
▁하키	-16058
▁학문	-16059
▁할당	-16060
▁해에	-16061
▁호출	-16062
▁홀딩	-16063
▁홀리	-16064
▁후보	-16065
까지도	-16066
년까지	-16067
니스트	-16068
도까지	-16069
되지만	-16070
뒀어요	-16071
라고도	-16072
라이트	-16073
분까지	-16074
스에게	-16075
시네요	-16076
었으며	-16077
이나마	-16078
이세요	-16079
자리가	-16080
장님과	-16081
장하고	-16082
중학교	-16083
카드를	-16084
퍼런스	-16085
하리라	-16086
해졌어	-16087
해진다	-16088
활동을	-16089
회사에	-16090
▁EXO	-16091
▁FTA	-16092
▁GOC	-16093
▁OSD	-16094
▁가급적	-16095
▁가라앉	-16096
▁가야만	-16097
▁가지지	-16098
▁개선할	-16099
▁걸리고	-16100
▁걸린다	-16101
▁검사는	-16102
▁결제할	-16103
▁경사가	-16104
▁경쟁이	-16105
▁고파서	-16106
▁관리자	-16107
▁관심은	-16108
▁괴로워	-16109
▁구멍을	-16110
▁구성을	-16111
▁귀하가	-16112
▁규모의	-16113
▁그랜드	-16114
▁그리울	-16115
▁그림에	-16116
▁극장에	-16117
▁금액에	-16118
▁기계로	-16119
▁기분은	-16120
▁기사가	-16121
▁기업에	-16122
▁긴급한	-16123
▁끝나기	-16124
▁나서는	-16125
▁낚시를	-16126
▁낫다고	-16127
▁내일로	-16128
▁너희의	-16129
▁노래와	-16130
▁놀다가	-16131
▁높이기	-16132
▁누나가	-16133
▁누나는	-16134
▁누워서	-16135
▁눈앞에	-16136
▁다가오	-16137
▁다녔어	-16138
▁다니지	-16139
▁단백질	-16140
▁대책을	-16141
▁대학은	-16142
▁대회가	-16143
▁도착해	-16144
▁동안에	-16145
▁되기로	-16146
▁되시길	-16147
▁따라야	-16148
▁때문인	-16149
▁뜻깊은	-16150
▁리조트	-16151
▁마리를	-16152
▁말고도	-16153
▁맞추기	-16154
▁맡기고	-16155
▁매니큐	-16156
▁맥주와	-16157
▁몇가지	-16158
▁목걸이	-16159
▁목표에	-16160
▁몰디브	-16161
▁문화는	-16162
▁방안에	-16163
▁배경은	-16164
▁배웠다	-16165
▁버렸어	-16166
▁버스에	-16167
▁버전은	-16168
▁버전의	-16169
▁범인을	-16170
▁변경한	-16171
▁보내실	-16172
▁보상이	-16173
▁볼거리	-16174
▁부당한	-16175
▁부드러	-16176
▁부작용	-16177
▁북한에	-16178
▁사인이	-16179
▁상대로	-16180
▁상쾌한	-16181
▁생명의	-16182
▁선적될	-16183
▁선택에	-16184
▁선택은	-16185
▁설정이	-16186
▁성능이	-16187
▁소문이	-16188
▁소스가	-16189
▁수입을	-16190
▁스케치	-16191
▁스크래	-16192
▁시각에	-16193
▁시나리	-16194
▁시작이	-16195
▁신경이	-16196
▁신뢰할	-16197
▁신분증	-16198
▁신청할	-16199
▁심해서	-16200
▁싶었기	-16201
▁아이언	-16202
▁않은데	-16203
▁어느새	-16204
▁어두워	-16205
▁어딘지	-16206
▁언니를	-16207
▁언젠간	-16208
▁업무는	-16209
▁여부는	-16210
▁여부에	-16211
▁영광을	-16212
▁영상의	-16213
▁영화나	-16214
▁옳다고	-16215
▁외로워	-16216
▁외출할	-16217
▁요청은	-16218
▁욕구를	-16219
▁우주에	-16220
▁운임은	-16221
▁웃으며	-16222
▁위주로	-16223
▁음료는	-16224
▁이거는	-16225
▁이상은	-16226
▁인라인	-16227
▁인지도	-16228
▁자기야	-16229
▁자리로	-16230
▁자신감	-16231
▁자재가	-16232
▁자존심	-16233
▁작성해	-16234
▁작업할	-16235
▁잠깐만	-16236
▁재료는	-16237
▁재료로	-16238
▁적응할	-16239
▁전하는	-16240
▁점심에	-16241
▁제도가	-16242
▁제한이	-16243
▁조절할	-16244
▁종이에	-16245
▁좋게도	-16246
▁주스를	-16247
▁주었던	-16248
▁지구의	-16249
▁지나친	-16250
▁지식과	-16251
▁지식이	-16252
▁지연될	-16253
▁지키고	-16254
▁직장에	-16255
▁차질이	-16256
▁찾으면	-16257
▁책에서	-16258
▁취해서	-16259
▁친절히	-16260
▁침대를	-16261
▁카운터	-16262
▁클라이	-16263
▁클리어	-16264
▁타이트	-16265
▁타이틀	-16266
▁타인을	-16267
▁택배를	-16268
▁통화가	-16269
▁튼튼한	-16270
▁파리에	-16271
▁포기할	-16272
▁품목을	-16273
▁프린터	-16274
▁피우는	-16275
▁하시고	-16276
▁하우징	-16277
▁해보자	-16278
▁핸들링	-16279
▁허리가	-16280
▁협상을	-16281
▁화물은	-16282
▁환경은	-16283
정입니다	-16284
하시려면	-16285
하였으면	-16286
했는데요	-16287
호입니다	-16288
▁2008	-16289
▁2009	-16290
▁감성적인	-16291
▁개발하는	-16292
▁걸린다고	-16293
▁것이라면	-16294
▁계신가요	-16295
▁고려하는	-16296
▁공급하는	-16297
▁공무원이	-16298
▁공부하지	-16299
▁공유하는	-16300
▁공통점은	-16301
▁괜찮으면	-16302
▁구매자는	-16303
▁구매해야	-16304
▁국내에서	-16305
▁규칙적인	-16306
▁기념으로	-16307
▁기억하지	-16308
▁남았어요	-16309
▁네티즌은	-16310
▁담당하는	-16311
▁데려다줄	-16312
▁돌아가서	-16313
▁돌아왔어	-16314
▁되었다는	-16315
▁드라이버	-16316
▁떠났어요	-16317
▁뜻합니다	-16318
▁런던에서	-16319
▁만날까요	-16320
▁만들었고	-16321
▁먹방이야	-16322
▁메시지로	-16323
▁면허증을	-16324
▁목적지에	-16325
▁몸무게가	-16326
▁못한다고	-16327
▁문장으로	-16328
▁미디어를	-16329
▁미안하고	-16330
▁바닷가에	-16331
▁바입니다	-16332
▁방문했을	-16333
▁배터리를	-16334
▁변경되어	-16335
▁변경해서	-16336
▁변호사가	-16337
▁보증금을	-16338
▁보호하기	-16339
▁보호하는	-16340
▁사건으로	-16341
▁사용하게	-16342
▁사용하실	-16343
▁사이즈에	-16344
▁사장님은	-16345
▁사진처럼	-16346
▁상관없어	-16347
▁새벽부터	-16348
▁생산하고	-16349
▁생활에서	-16350
▁선수들의	-16351
▁설명하기	-16352
▁설치하고	-16353
▁스타벅스	-16354
▁시간이나	-16355
▁시스템의	-16356
▁아닙니까	-16357
▁아빠에게	-16358
▁안된다고	-16359
▁않더라도	-16360
▁알아봐야	-16361
▁얘기하자	-16362
▁어디예요	-16363
▁엑스트라	-16364
▁여유롭게	-16365
▁여행으로	-16366
▁여행지는	-16367
▁여행하기	-16368
▁연주하는	-16369
▁열리나요	-16370
▁영화배우	-16371
▁예수님은	-16372
▁예전처럼	-16373
▁예정인데	-16374
▁외할머니	-16375
▁운동으로	-16376
▁원활하게	-16377
▁월요일은	-16378
▁위해서야	-16379
▁유명하고	-16380
▁의료관광	-16381
▁이미지로	-16382
▁이미지에	-16383
▁이해해야	-16384
▁이후부터	-16385
▁일어났어	-16386
▁있으므로	-16387
▁자동차에	-16388
▁작성해야	-16389
▁작습니다	-16390
▁적용되지	-16391
▁적용하는	-16392
▁전시회에	-16393
▁전화기를	-16394
▁점입니다	-16395
▁정류장이	-16396
▁정해지지	-16397
▁조그마한	-16398
▁종류에는	-16399
▁좋겠지만	-16400
▁준비되면	-16401
▁지나가는	-16402
▁지냈으면	-16403
▁지루하지	-16404
▁지켜보고	-16405
▁직원들은	-16406
▁채식주의	-16407
▁책이에요	-16408
▁처리하는	-16409
▁첨부하니	-16410
▁초등학생	-16411
▁촉촉하게	-16412
▁측면에서	-16413
▁친구와의	-16414
▁친척들이	-16415
▁태어나고	-16416
▁특별하게	-16417
▁편리함을	-16418
▁표합니다	-16419
▁하느님의	-16420
▁하루빨리	-16421
▁할머니의	-16422
▁함유하고	-16423
▁했습니까	-16424
▁행복했어	-16425
▁환상적인	-16426
▁휴대폰이	-16427
놓았습니다	-16428
하시겠어요	-16429
▁가격입니다	-16430
▁감사드리며	-16431
▁관련해서는	-16432
▁구매하려고	-16433
▁기도할게요	-16434
▁넣었습니다	-16435
▁누구보다도	-16436
▁들어주셔서	-16437
▁레스토랑의	-16438
▁머리카락이	-16439
▁무엇이든지	-16440
▁바이올린을	-16441
▁버킷리스트	-16442
▁뵙겠습니다	-16443
▁부탁했어요	-16444
▁불러주세요	-16445
▁빠졌습니다	-16446
▁사랑한다면	-16447
▁사용하도록	-16448
▁생각하면서	-16449
▁선생님께서	-16450
▁설명했어요	-16451
▁아니더라도	-16452
▁아마존에서	-16453
▁아시겠지만	-16454
▁얘기했어요	-16455
▁오케스트라	-16456
▁외국인들이	-16457
▁우리나라와	-16458
▁원하시나요	-16459
▁의미입니다	-16460
▁이곳에서는	-16461
▁이루어지고	-16462
▁인보이스는	-16463
▁전화번호는	-16464
▁좋아집니다	-16465
▁좋아한다는	-16466
▁직원들에게	-16467
▁축제입니다	-16468
▁축하드려요	-16469
▁출근합니다	-16470
▁풍부합니다	-16471
▁프로세스를	-16472
▁피곤합니다	-16473
▁학생이에요	-16474
▁한국인들이	-16475
▁50,000	-16476
▁경험이었어요	-16477
▁바쁘시겠지만	-16478
▁부탁했습니다	-16479
▁사람들이에요	-16480
▁소비자들에게	-16481
▁수정했습니다	-16482
▁실패했습니다	-16483
▁아니었습니다	-16484
▁업그레이드를	-16485
▁완료했습니다	-16486
▁이탈리아에서	-16487
▁입력해주세요	-16488
▁좋아하시나요	-16489
▁축하드립니다	-16490
▁패스트푸드를	-16491
▁필요했습니다	-16492
▁해주었습니다	-16493
▁게스트하우스를	-16494
▁연락드렸습니다	-16495
▁요청하겠습니다	-16496
▁알려주시겠습니까	-16497
22	-16498
SA	-16499
la	-16500
oT	-16501
to	-16502
▁,	-16503
▁득	-16504
▁딥	-16505
▁떴	-16506
▁롱	-16507
▁린	-16508
▁셜	-16509
▁찹	-16510
▁펀	-16511
가량	-16512
가며	-16513
가서	-16514
건지	-16515
결에	-16516
겼다	-16517
경은	-16518
교가	-16519
군에	-16520
규칙	-16521
께요	-16522
날짜	-16523
냐는	-16524
너를	-16525
니의	-16526
단과	-16527
던가	-16528
동의	-16529
돼야	-16530
됐다	-16531
둘이	-16532
등급	-16533
디가	-16534
디의	-16535
레일	-16536
루미	-16537
류는	-16538
리타	-16539
마케	-16540
막을	-16541
말은	-16542
망이	-16543
명에	-16544
모는	-16545
민에	-16546
민은	-16547
민족	-16548
바를	-16549
벌레	-16550
법의	-16551
병에	-16552
보증	-16553
비도	-16554
사고	-16555
산물	-16556
서요	-16557
세대	-16558
셀러	-16559
소스	-16560
습을	-16561
식의	-16562
신과	-16563
실과	-16564
었나	-16565
에노	-16566
열이	-16567
이즈	-16568
있기	-16569
저귀	-16570
전략	-16571
전문	-16572
주간	-16573
주얼	-16574
째로	-16575
크는	-16576
타입	-16577
토는	-16578
팀을	-16579
하겠	-16580
할때	-16581
형에	-16582
호는	-16583
.00	-16584
ect	-16585
igh	-16586
old	-16587
one	-16588
~20	-16589
▁43	-16590
▁CG	-16591
▁EC	-16592
▁HQ	-16593
▁PL	-16594
▁PU	-16595
▁QC	-16596
▁UI	-16597
▁가마	-16598
▁가사	-16599
▁가시	-16600
▁간결	-16601
▁개츠	-16602
▁거에	-16603
▁건전	-16604
▁겪는	-16605
▁견딜	-16606
▁곁을	-16607
▁고집	-16608
▁곤충	-16609
▁구급	-16610
▁구상	-16611
▁국수	-16612
▁기가	-16613
▁기입	-16614
▁김수	-16615
▁깊숙	-16616
▁껴안	-16617
▁꿈의	-16618
▁끌려	-16619
▁끼칠	-16620
▁나기	-16621
▁남길	-16622
▁남쪽	-16623
▁낮잠	-16624
▁낮출	-16625
▁내장	-16626
▁년간	-16627
▁노숙	-16628
▁놀자	-16629
▁늘고	-16630
▁다스	-16631
▁닮고	-16632
▁당선	-16633
▁독창	-16634
▁동원	-16635
▁동호	-16636
▁돼야	-16637
▁두지	-16638
▁뒷면	-16639
▁등재	-16640
▁딜러	-16641
▁따고	-16642
▁또래	-16643
▁뜨거	-16644
▁로또	-16645
▁로버	-16646
▁마약	-16647
▁매입	-16648
▁매트	-16649
▁멀지	-16650
▁멈출	-16651
▁면에	-16652
▁모은	-16653
▁무궁	-16654
▁무더	-16655
▁무상	-16656
▁묻어	-16657
▁미얀	-16658
▁미치	-16659
▁밥이	-16660
▁법칙	-16661
▁벽화	-16662
▁병에	-16663
▁복귀	-16664
▁부천	-16665
▁분담	-16666
▁비로	-16667
▁비유	-16668
▁빛의	-16669
▁산뜻	-16670
▁산악	-16671
▁생리	-16672
▁서구	-16673
▁선학	-16674
▁성사	-16675
▁소극	-16676
▁소외	-16677
▁소홀	-16678
▁속담	-16679
▁속해	-16680
▁수족	-16681
▁수질	-16682
▁수평	-16683
▁수표	-16684
▁숯불	-16685
▁쉬워	-16686
▁스쿼	-16687
▁시를	-16688
▁시차	-16689
▁시트	-16690
▁싱싱	-16691
▁쓸쓸	-16692
▁아쿠	-16693
▁아크	-16694
▁아트	-16695
▁악몽	-16696
▁앉은	-16697
▁앱의	-16698
▁양육	-16699
▁어째	-16700
▁엠마	-16701
▁열두	-16702
▁영종	-16703
▁오키	-16704
▁오타	-16705
▁온다	-16706
▁옷걸	-16707
▁옷도	-16708
▁와플	-16709
▁왕따	-16710
▁요트	-16711
▁용도	-16712
▁유닛	-16713
▁유동	-16714
▁이끄	-16715
▁이룬	-16716
▁이순	-16717
▁이직	-16718
▁인삼	-16719
▁일관	-16720
▁잃는	-16721
▁입점	-16722
▁입주	-16723
▁자이	-16724
▁잔을	-16725
▁잠겨	-16726
▁저택	-16727
▁전개	-16728
▁전신	-16729
▁전할	-16730
▁정렬	-16731
▁정이	-16732
▁정차	-16733
▁제스	-16734
▁죽게	-16735
▁죽이	-16736
▁중점	-16737
▁증오	-16738
▁지을	-16739
▁지킨	-16740
▁지휘	-16741
▁쪽을	-16742
▁쫓아	-16743
▁찢어	-16744
▁착륙	-16745
▁찾게	-16746
▁책과	-16747
▁총괄	-16748
▁추첨	-16749
▁친숙	-16750
▁키스	-16751
▁토핑	-16752
▁팔지	-16753
▁패러	-16754
▁폐지	-16755
▁포착	-16756
▁하노	-16757
▁한두	-16758
▁한층	-16759
▁해피	-16760
▁혈압	-16761
▁화해	-16762
▁활력	-16763
▁활짝	-16764
▁회로	-16765
▁회를	-16766
▁흘려	-16767
▁힐튼	-16768
광역시	-16769
되거나	-16770
드려도	-16771
루미늄	-16772
룹니다	-16773
문에서	-16774
스포츠	-16775
시간씩	-16776
시장을	-16777
싶어요	-16778
어가고	-16779
업체에	-16780
유로를	-16781
으려면	-16782
을수록	-16783
인지도	-16784
자니아	-16785
자료를	-16786
장님이	-16787
적이면	-16788
제품은	-16789
졌는데	-16790
지도록	-16791
체스터	-16792
카르타	-16793
카메라	-16794
판으로	-16795
하군요	-16796
하시어	-16797
해져요	-16798
했었던	-16799
향적인	-16800
혔어요	-16801
화되어	-16802
▁197	-16803
▁3~4	-16804
▁90%	-16805
▁ETD	-16806
▁Kim	-16807
▁PCN	-16808
▁VIP	-16809
▁가도록	-16810
▁가방의	-16811
▁가볍고	-16812
▁가셔서	-16813
▁가족에	-16814
▁가지기	-16815
▁가치와	-16816
▁각국의	-16817
▁감독이	-16818
▁감사한	-16819
▁거기로	-16820
▁거래가	-16821
▁걱정할	-16822
▁건데요	-16823
▁것들에	-16824
▁경쟁사	-16825
▁곁에서	-16826
▁계산을	-16827
▁계약의	-16828
▁계절이	-16829
▁계좌에	-16830
▁고기와	-16831
▁고려할	-16832
▁골라서	-16833
▁공원이	-16834
▁관리에	-16835
▁광저우	-16836
▁교류를	-16837
▁교육과	-16838
▁국가에	-16839
▁군인이	-16840
▁귀중한	-16841
▁규모가	-16842
▁그래프	-16843
▁그랬어	-16844
▁그러자	-16845
▁그려져	-16846
▁근육이	-16847
▁금액과	-16848
▁기업을	-16849
▁기한을	-16850
▁나아질	-16851
▁나오게	-16852
[...]
