<unk>	0
<pad>	0
<s>	0
</s>	0
▁t	-0
▁a	-1
he	-2
in	-3
re	-4
▁w	-5
ou	-6
▁s	-7
▁the	-8
▁I	-9
on	-10
▁c	-11
▁m	-12
er	-13
is	-14
▁to	-15
▁b	-16
an	-17
at	-18
▁f	-19
or	-20
▁p	-21
en	-22
it	-23
ing	-24
▁y	-25
▁d	-26
▁you	-27
▁h	-28
le	-29
▁o	-30
▁th	-31
ed	-32
es	-33
▁an	-34
ll	-35
as	-36
▁in	-37
ar	-38
▁l	-39
▁g	-40
om	-41
▁of	-42
ve	-43
▁is	-44
▁and	-45
▁n	-46
▁be	-47
us	-48
▁T	-49
ic	-50
ay	-51
▁e	-52
▁re	-53
ot	-54
al	-55
ion	-56
ow	-57
et	-58
ent	-59
▁ha	-60
▁it	-61
▁for	-62
ct	-63
ro	-64
▁W	-65
▁on	-66
ld	-67
im	-68
ce	-69
▁we	-70
ke	-71
▁that	-72
▁The	-73
▁me	-74
id	-75
ly	-76
oo	-77
am	-78
ch	-79
ith	-80
▁st	-81
▁with	-82
st	-83
ill	-84
▁my	-85
gh	-86
ver	-87
ri	-88
▁have	-89
ter	-90
ore	-91
ut	-92
if	-93
▁S	-94
▁A	-95
▁are	-96
▁he	-97
un	-98
▁can	-99
ad	-100
▁wh	-101
out	-102
ation	-103
ir	-104
▁will	-105
end	-106
ant	-107
▁pro	-108
▁li	-109
▁do	-110
▁this	-111
se	-112
ould	-113
▁as	-114
▁was	-115
ur	-116
▁at	-117
▁H	-118
▁your	-119
▁ne	-120
▁so	-121
her	-122
pp	-123
▁com	-124
use	-125
▁go	-126
▁sh	-127
▁con	-128
op	-129
▁not	-130
▁It	-131
▁We	-132
il	-133
all	-134
▁se	-135
▁M	-136
ck	-137
ght	-138
▁ab	-139
ase	-140
▁ex	-141
ge	-142
▁wor	-143
▁P	-144
est	-145
▁k	-146
ra	-147
▁de	-148
rom	-149
ul	-150
▁C	-151
▁ch	-152
▁like	-153
▁Th	-154
day	-155
hen	-156
▁want	-157
▁bec	-158
ate	-159
▁ma	-160
▁le	-161
ble	-162
▁Y	-163
ers	-164
du	-165
ime	-166
th	-167
our	-168
ause	-169
▁v	-170
ood	-171
ment	-172
▁from	-173
▁D	-174
ure	-175
ong	-176
▁K	-177
▁am	-178
oun	-179
art	-180
ust	-181
lease	-182
▁al	-183
▁or	-184
ink	-185
qu	-186
ome	-187
▁time	-188
ss	-189
ive	-190
▁B	-191
▁pl	-192
ess	-193
▁about	-194
▁by	-195
and	-196
ice	-197
ort	-198
one	-199
el	-200
▁us	-201
ol	-202
▁but	-203
ig	-204
very	-205
ry	-206
▁mo	-207
now	-208
▁su	-209
▁when	-210
ard	-211
▁if	-212
▁because	-213
▁there	-214
▁get	-215
▁E	-216
ain	-217
▁j	-218
▁work	-219
ook	-220
ist	-221
▁te	-222
▁un	-223
ud	-224
▁comp	-225
▁Wh	-226
▁know	-227
any	-228
up	-229
▁think	-230
ity	-231
pe	-232
fter	-233
▁ta	-234
ame	-235
ren	-236
▁You	-237
ally	-238
▁has	-239
der	-240
▁Kore	-241
um	-242
ast	-243
ish	-244
ie	-245
▁cl	-246
duct	-247
red	-248
▁day	-249
▁This	-250
▁don	-251
▁fe	-252
ous	-253
▁F	-254
▁If	-255
riend	-256
▁lo	-257
fe	-258
▁pre	-259
▁He	-260
▁Please	-261
▁r	-262
▁product	-263
▁good	-264
ind	-265
ide	-266
▁would	-267
▁all	-268
▁after	-269
eop	-270
▁up	-271
▁who	-272
▁1	-273
eople	-274
ther	-275
▁out	-276
ven	-277
em	-278
ight	-279
ough	-280
age	-281
os	-282
ang	-283
▁our	-284
▁L	-285
ack	-286
▁any	-287
▁int	-288
ies	-289
▁people	-290
▁cont	-291
▁ad	-292
ac	-293
▁ar	-294
▁J	-295
ass	-296
▁ag	-297
so	-298
ear	-299
▁friend	-300
▁more	-301
▁im	-302
▁one	-303
▁There	-304
▁need	-305
per	-306
iv	-307
ace	-308
▁sa	-309
act	-310
ip	-311
▁make	-312
ep	-313
▁today	-314
▁going	-315
▁2	-316
ich	-317
cc	-318
▁did	-319
ount	-320
▁po	-321
ile	-322
▁send	-323
▁stud	-324
ine	-325
▁O	-326
▁other	-327
▁che	-328
▁N	-329
▁app	-330
▁en	-331
▁should	-332
▁In	-333
▁G	-334
port	-335
ult	-336
are	-337
iz	-338
ue	-339
▁tr	-340
▁res	-341
ak	-342
ci	-343
▁lot	-344
▁My	-345
ng	-346
irst	-347
ach	-348
row	-349
▁What	-350
▁been	-351
ag	-352
ound	-353
ool	-354
▁Korea	-355
ated	-356
▁co	-357
orm	-358
way	-359
xt	-360
ign	-361
▁now	-362
able	-363
ite	-364
ap	-365
▁pr	-366
ance	-367
▁than	-368
ber	-369
▁had	-370
▁some	-371
▁could	-372
▁take	-373
▁qu	-374
▁just	-375
ick	-376
▁How	-377
▁what	-378
▁they	-379
▁which	-380
ans	-381
ings	-382
ress	-383
▁look	-384
▁year	-385
▁part	-386
▁see	-387
rent	-388
che	-389
ail	-390
▁happ	-391
▁too	-392
▁Do	-393
ade	-394
▁pers	-395
lo	-396
▁sp	-397
▁well	-398
▁feel	-399
▁dif	-400
ater	-401
alk	-402
▁also	-403
ince	-404
ek	-405
ily	-406
▁She	-407
▁many	-408
▁no	-409
vel	-410
▁her	-411
▁them	-412
▁use	-413
▁ro	-414
▁person	-415
here	-416
▁very	-417
▁only	-418
▁every	-419
▁meet	-420
chool	-421
▁check	-422
▁bet	-423
▁bus	-424
ition	-425
ning	-426
fore	-427
▁dis	-428
ict	-429
mor	-430
lish	-431
ving	-432
▁first	-433
▁bu	-434
▁off	-435
▁new	-436
▁mu	-437
ary	-438
▁were	-439
▁please	-440
▁bo	-441
led	-442
▁ph	-443
▁next	-444
▁school	-445
▁Eng	-446
ence	-447
▁company	-448
lf	-449
▁week	-450
▁here	-451
ents	-452
ree	-453
▁fam	-454
ction	-455
▁much	-456
▁An	-457
▁let	-458
get	-459
right	-460
form	-461
ark	-462
▁his	-463
ild	-464
ope	-465
▁again	-466
ife	-467
ious	-468
▁English	-469
▁long	-470
other	-471
▁come	-472
▁att	-473
ple	-474
▁tra	-475
▁hel	-476
▁em	-477
▁Is	-478
▁gr	-479
reat	-480
▁del	-481
▁exp	-482
▁help	-483
▁hope	-484
▁3	-485
▁acc	-486
▁got	-487
ved	-488
vie	-489
▁made	-490
▁give	-491
▁even	-492
ting	-493
ange	-494
▁spe	-495
ought	-496
rough	-497
▁since	-498
ab	-499
ank	-500
▁how	-501
▁hard	-502
pt	-503
▁back	-504
▁man	-505
▁Can	-506
00	-507
▁sm	-508
▁wr	-509
ave	-510
ec	-511
ible	-512
▁tw	-513
▁does	-514
hing	-515
▁right	-516
▁R	-517
▁U	-518
▁under	-519
ire	-520
▁love	-521
▁their	-522
ouse	-523
▁inc	-524
▁rece	-525
▁br	-526
▁eat	-527
▁him	-528
▁play	-529
▁Ch	-530
▁place	-531
▁through	-532
▁per	-533
▁ask	-534
ose	-535
▁most	-536
▁food	-537
▁jo	-538
▁she	-539
▁home	-540
▁So	-541
blem	-542
ason	-543
▁friends	-544
▁life	-545
▁way	-546
▁requ	-547
▁show	-548
▁problem	-549
▁When	-550
▁Korean	-551
vers	-552
▁vis	-553
erv	-554
omet	-555
▁tell	-556
▁des	-557
▁went	-558
▁before	-559
▁order	-560
▁class	-561
ff	-562
▁rec	-563
ory	-564
▁diffe	-565
▁talk	-566
▁days	-567
icture	-568
▁tri	-569
▁over	-570
od	-571
▁col	-572
▁picture	-573
ful	-574
morrow	-575
int	-576
▁tomorrow	-577
▁sent	-578
▁bel	-579
▁really	-580
itt	-581
▁They	-582
ect	-583
ens	-584
▁ke	-585
▁last	-586
▁add	-587
▁study	-588
▁these	-589
▁reg	-590
atch	-591
▁say	-592
▁As	-593
ways	-594
▁things	-595
▁didn	-596
ations	-597
▁start	-598
ial	-599
iness	-600
▁sc	-601
▁two	-602
▁fin	-603
kes	-604
▁house	-605
▁won	-606
▁book	-607
▁act	-608
oney	-609
les	-610
king	-611
▁And	-612
we	-613
▁rel	-614
▁Why	-615
▁car	-616
ather	-617
▁gu	-618
▁always	-619
▁pay	-620
▁plan	-621
og	-622
▁rep	-623
▁poss	-624
ond	-625
▁best	-626
ise	-627
▁To	-628
▁pa	-629
▁rest	-630
▁fl	-631
av	-632
▁char	-633
▁family	-634
▁try	-635
▁inter	-636
▁each	-637
▁count	-638
▁happy	-639
▁Al	-640
▁cons	-641
▁visit	-642
▁sk	-643
▁dr	-644
▁somet	-645
stand	-646
igh	-647
arn	-648
ical	-649
▁into	-650
▁used	-651
▁reason	-652
▁Let	-653
▁products	-654
ied	-655
▁inform	-656
▁num	-657
▁better	-658
▁money	-659
▁mon	-660
▁fo	-661
▁where	-662
self	-663
ester	-664
thing	-665
pect	-666
ru	-667
hed	-668
ia	-669
▁request	-670
▁possible	-671
gether	-672
▁same	-673
cess	-674
ustom	-675
ream	-676
▁exper	-677
▁while	-678
ub	-679
▁why	-680
te	-681
▁kind	-682
cial	-683
ions	-684
▁read	-685
▁buy	-686
▁thought	-687
▁ra	-688
ample	-689
▁imp	-690
oy	-691
ere	-692
▁import	-693
ract	-694
▁different	-695
▁movie	-696
mer	-697
▁dec	-698
▁together	-699
▁call	-700
▁conf	-701
read	-702
▁Se	-703
▁That	-704
▁child	-705
ake	-706
▁fun	-707
▁room	-708
hes	-709
own	-710
ors	-711
▁custom	-712
▁understand	-713
ffe	-714
▁Bec	-715
ord	-716
▁Because	-717
imes	-718
▁great	-719
▁number	-720
▁trans	-721
gr	-722
▁price	-723
uring	-724
▁dep	-725
ize	-726
ipp	-727
ces	-728
▁keep	-729
iss	-730
▁care	-731
▁hand	-732
ft	-733
▁inv	-734
▁live	-735
▁business	-736
▁around	-737
ems	-738
▁rem	-739
urn	-740
▁5	-741
ually	-742
ye	-743
orry	-744
▁said	-745
▁job	-746
▁put	-747
▁change	-748
▁list	-749
▁pass	-750
▁op	-751
▁world	-752
ner	-753
▁ear	-754
▁month	-755
▁met	-756
▁supp	-757
ased	-758
▁ent	-759
▁high	-760
▁find	-761
▁learn	-762
▁soon	-763
erest	-764
▁experi	-765
▁inst	-766
▁pres	-767
ves	-768
▁hot	-769
▁interest	-770
▁cal	-771
▁without	-772
ell	-773
joy	-774
▁sche	-775
ert	-776
▁being	-777
esterday	-778
▁came	-779
▁design	-780
ried	-781
▁contact	-782
▁schedu	-783
ph	-784
▁wa	-785
▁information	-786
▁ref	-787
ating	-788
lic	-789
▁chang	-790
▁night	-791
▁var	-792
▁still	-793
▁years	-794
▁something	-795
▁comm	-796
▁using	-797
▁pur	-798
▁prep	-799
▁sub	-800
▁such	-801
ines	-802
ib	-803
▁then	-804
▁enjoy	-805
ific	-806
▁bl	-807
▁fore	-808
▁trip	-809
ments	-810
▁big	-811
▁wom	-812
▁important	-813
aut	-814
ung	-815
▁arri	-816
ired	-817
▁watch	-818
▁4	-819
▁mark	-820
ward	-821
ivers	-822
▁sle	-823
ne	-824
velop	-825
▁stay	-826
▁yesterday	-827
wn	-828
ject	-829
ork	-830
▁eas	-831
▁ins	-832
▁name	-833
▁sorry	-834
ced	-835
▁serv	-836
▁air	-837
▁20	-838
▁country	-839
▁become	-840
apan	-841
▁sy	-842
▁wait	-843
ities	-844
▁able	-845
ittle	-846
▁Also	-847
▁Japan	-848
hip	-849
lect	-850
▁Thank	-851
ever	-852
▁But	-853
▁down	-854
▁phot	-855
▁end	-856
cu	-857
ween	-858
▁sec	-859
ual	-860
▁dream	-861
▁travel	-862
not	-863
ull	-864
▁cle	-865
▁test	-866
▁little	-867
ility	-868
▁develop	-869
▁beaut	-870
▁between	-871
▁prov	-872
ons	-873
oth	-874
▁V	-875
▁St	-876
▁during	-877
vent	-878
▁mor	-879
▁cannot	-880
ys	-881
▁disc	-882
▁working	-883
▁sample	-884
▁mus	-885
▁must	-886
▁Are	-887
irm	-888
▁schedule	-889
▁water	-890
ient	-891
▁couldn	-892
ty	-893
▁After	-894
▁receiv	-895
▁ind	-896
▁its	-897
ared	-898
▁old	-899
▁docu	-900
▁late	-901
▁sho	-902
▁doesn	-903
▁sit	-904
▁email	-905
▁real	-906
▁ac	-907
▁det	-908
▁morning	-909
gg	-910
alth	-911
▁mom	-912
ieve	-913
▁gir	-914
▁iss	-915
ered	-916
ready	-917
▁deli	-918
▁never	-919
fic	-920
▁team	-921
arm	-922
▁doing	-923
llow	-924
▁sleep	-925
▁due	-926
▁may	-927
▁already	-928
duce	-929
ident	-930
▁makes	-931
▁mind	-932
▁phone	-933
ont	-934
ower	-935
til	-936
res	-937
▁various	-938
▁below	-939
ular	-940
ian	-941
▁str	-942
lud	-943
ove	-944
▁sur	-945
▁drink	-946
▁mat	-947
ae	-948
▁Today	-949
▁market	-950
▁thing	-951
erm	-952
▁10	-953
▁For	-954
ten	-955
▁mod	-956
▁set	-957
▁once	-958
▁meeting	-959
oul	-960
ided	-961
iful	-962
iversity	-963
▁mess	-964
▁service	-965
▁process	-966
▁bad	-967
▁comple	-968
▁free	-969
▁another	-970
▁left	-971
▁follow	-972
oice	-973
▁wish	-974
au	-975
▁intro	-976
iday	-977
▁until	-978
ates	-979
▁sim	-980
▁cost	-981
▁Don	-982
ars	-983
▁called	-984
olog	-985
▁'	-986
als	-987
▁Un	-988
▁away	-989
▁result	-990
▁students	-991
cy	-992
omm	-993
▁fr	-994
▁sol	-995
▁Then	-996
ational	-997
▁clot	-998
rents	-999
ics	-1000
ized	-1001
▁med	-1002
▁ho	-1003
ficult	-1004
▁store	-1005
▁wanted	-1006
▁received	-1007
▁beautiful	-1008
▁difficult	-1009
aur	-1010
▁health	-1011
▁children	-1012
▁looking	-1013
cept	-1014
▁Could	-1015
▁experience	-1016
▁fact	-1017
▁present	-1018
ok	-1019
▁ret	-1020
▁ser	-1021
aring	-1022
▁game	-1023
▁took	-1024
ature	-1025
▁having	-1026
▁sell	-1027
atur	-1028
▁min	-1029
▁art	-1030
its	-1031
ceed	-1032
▁cult	-1033
000	-1034
▁Seoul	-1035
▁parents	-1036
▁mar	-1037
▁conc	-1038
▁ship	-1039
▁word	-1040
aterial	-1041
▁receive	-1042
oon	-1043
ted	-1044
▁av	-1045
fort	-1046
▁cor	-1047
▁speak	-1048
▁office	-1049
▁Sh	-1050
▁cur	-1051
▁foreign	-1052
▁getting	-1053
▁case	-1054
ative	-1055
▁anything	-1056
ffect	-1057
aurant	-1058
▁teac	-1059
▁music	-1060
▁yet	-1061
▁told	-1062
▁myself	-1063
oup	-1064
ister	-1065
land	-1066
▁mean	-1067
▁purch	-1068
▁material	-1069
▁adv	-1070
▁color	-1071
▁confirm	-1072
dy	-1073
▁miss	-1074
ality	-1075
▁three	-1076
▁includ	-1077
▁restaurant	-1078
ix	-1079
▁prom	-1080
▁intern	-1081
avor	-1082
view	-1083
gram	-1084
▁might	-1085
uation	-1086
▁clothes	-1087
▁fut	-1088
▁own	-1089
▁seems	-1090
ness	-1091
▁heard	-1092
▁sure	-1093
iet	-1094
ries	-1095
arch	-1096
osp	-1097
▁memor	-1098
▁future	-1099
▁open	-1100
▁syst	-1101
fer	-1102
und	-1103
▁times	-1104
air	-1105
ages	-1106
▁bre	-1107
▁hour	-1108
▁often	-1109
▁Did	-1110
▁young	-1111
▁hum	-1112
ately	-1113
▁resp	-1114
▁loc	-1115
▁date	-1116
▁dire	-1117
▁hotel	-1118
ital	-1119
▁teacher	-1120
▁bir	-1121
▁expect	-1122
▁program	-1123
▁Ne	-1124
▁thank	-1125
▁making	-1126
▁partic	-1127
▁6	-1128
ath	-1129
▁nice	-1130
▁Fr	-1131
▁Our	-1132
ering	-1133
ues	-1134
▁gl	-1135
▁shipp	-1136
▁amount	-1137
ost	-1138
ished	-1139
▁express	-1140
▁ed	-1141
▁though	-1142
▁ago	-1143
tern	-1144
▁done	-1145
ently	-1146
▁cook	-1147
▁expl	-1148
▁near	-1149
ense	-1150
▁prof	-1151
▁ty	-1152
▁those	-1153
mb	-1154
▁vac	-1155
ier	-1156
▁build	-1157
▁small	-1158
▁changed	-1159
▁asked	-1160
itional	-1161
▁ext	-1162
▁Mon	-1163
▁win	-1164
ese	-1165
▁val	-1166
▁early	-1167
line	-1168
▁May	-1169
▁saw	-1170
▁happen	-1171
▁listen	-1172
▁system	-1173
▁second	-1174
▁special	-1175
▁pol	-1176
▁account	-1177
▁favor	-1178
▁few	-1179
▁vide	-1180
▁break	-1181
▁enough	-1182
cheon	-1183
▁din	-1184
▁file	-1185
▁reply	-1186
▁someone	-1187
▁men	-1188
▁Where	-1189
▁cam	-1190
▁point	-1191
▁heart	-1192
▁leave	-1193
less	-1194
▁whe	-1195
artment	-1196
ute	-1197
ener	-1198
uc	-1199
ited	-1200
▁First	-1201
▁famous	-1202
▁ob	-1203
▁sum	-1204
▁card	-1205
▁Be	-1206
▁ord	-1207
▁Your	-1208
▁birth	-1209
▁found	-1210
ger	-1211
▁pop	-1212
▁later	-1213
▁others	-1214
▁incre	-1215
▁quest	-1216
▁wrong	-1217
▁cr	-1218
▁exam	-1219
▁sing	-1220
▁song	-1221
ommend	-1222
▁cour	-1223
▁Kim	-1224
work	-1225
▁bro	-1226
▁impro	-1227
elt	-1228
rib	-1229
▁charge	-1230
▁document	-1231
▁gave	-1232
▁pain	-1233
▁charact	-1234
▁Monday	-1235
▁recommend	-1236
▁dri	-1237
▁train	-1238
,000	-1239
▁face	-1240
▁started	-1241
▁busy	-1242
▁la	-1243
▁Yes	-1244
▁became	-1245
▁skin	-1246
▁However	-1247
▁On	-1248
▁walk	-1249
▁bit	-1250
▁sending	-1251
▁delivery	-1252
▁doll	-1253
▁taking	-1254
▁commun	-1255
ash	-1256
▁pos	-1257
▁pictures	-1258
ret	-1259
▁perform	-1260
▁sl	-1261
▁cold	-1262
▁tired	-1263
▁attend	-1264
▁felt	-1265
▁proceed	-1266
iting	-1267
▁appro	-1268
▁tast	-1269
▁message	-1270
ju	-1271
▁eff	-1272
ution	-1273
▁grad	-1274
▁living	-1275
▁contin	-1276
▁vacation	-1277
augh	-1278
▁form	-1279
▁move	-1280
▁sw	-1281
ched	-1282
▁dinner	-1283
▁particip	-1284
▁ca	-1285
rence	-1286
ention	-1287
▁effect	-1288
▁ans	-1289
▁dist	-1290
ead	-1291
ording	-1292
▁issue	-1293
▁aut	-1294
unch	-1295
▁run	-1296
▁believe	-1297
ember	-1298
▁photo	-1299
ailable	-1300
▁student	-1301
▁body	-1302
▁everything	-1303
▁thinking	-1304
ata	-1305
pl	-1306
▁boy	-1307
▁Have	-1308
▁head	-1309
▁culture	-1310
▁lead	-1311
▁clean	-1312
▁contract	-1313
▁matter	-1314
ached	-1315
▁consid	-1316
▁post	-1317
▁introduce	-1318
ination	-1319
app	-1320
osed	-1321
▁hur	-1322
▁payment	-1323
▁customer	-1324
▁ap	-1325
▁woman	-1326
lock	-1327
▁studying	-1328
▁requested	-1329
▁situation	-1330
▁fil	-1331
▁past	-1332
▁women	-1333
▁available	-1334
▁girl	-1335
▁side	-1336
▁tour	-1337
▁quick	-1338
▁occ	-1339
▁pub	-1340
itive	-1341
▁grow	-1342
▁7	-1343
▁cent	-1344
ised	-1345
▁mother	-1346
▁front	-1347
▁address	-1348
raw	-1349
▁full	-1350
▁pack	-1351
▁among	-1352
oc	-1353
▁Even	-1354
▁stand	-1355
▁Incheon	-1356
ote	-1357
side	-1358
▁planning	-1359
▁No	-1360
▁201	-1361
▁These	-1362
▁pret	-1363
▁whether	-1364
chn	-1365
▁rain	-1366
ety	-1367
▁turn	-1368
▁spend	-1369
▁cert	-1370
▁light	-1371
▁coming	-1372
▁sign	-1373
▁wonder	-1374
▁station	-1375
▁customers	-1376
uss	-1377
▁both	-1378
▁cond	-1379
▁return	-1380
icket	-1381
▁university	-1382
▁ass	-1383
meric	-1384
pping	-1385
ike	-1386
▁story	-1387
▁bag	-1388
▁model	-1389
ts	-1390
angu	-1391
▁video	-1392
▁main	-1393
▁event	-1394
▁finish	-1395
▁summer	-1396
▁data	-1397
▁regard	-1398
▁relations	-1399
gan	-1400
▁bor	-1401
▁support	-1402
▁direct	-1403
time	-1404
▁Sun	-1405
▁pat	-1406
ina	-1407
▁flo	-1408
▁Americ	-1409
▁ey	-1410
▁ide	-1411
▁answ	-1412
▁Ph	-1413
igin	-1414
▁transl	-1415
ric	-1416
▁bring	-1417
az	-1418
▁giv	-1419
▁works	-1420
▁size	-1421
▁gre	-1422
▁origin	-1423
▁problems	-1424
icious	-1425
▁sister	-1426
▁birthday	-1427
icy	-1428
▁pract	-1429
▁oper	-1430
▁favorite	-1431
▁city	-1432
▁colle	-1433
▁usually	-1434
▁Every	-1435
▁interested	-1436
▁hosp	-1437
▁langu	-1438
▁mail	-1439
▁brother	-1440
▁project	-1441
▁est	-1442
▁maj	-1443
ene	-1444
ird	-1445
▁educ	-1446
▁explain	-1447
▁ticket	-1448
den	-1449
erc	-1450
▁techn	-1451
▁report	-1452
▁current	-1453
▁top	-1454
mber	-1455
▁alone	-1456
▁bought	-1457
fect	-1458
▁opp	-1459
▁apply	-1460
ency	-1461
▁condition	-1462
▁exc	-1463
▁kid	-1464
▁comes	-1465
▁Therefore	-1466
▁bank	-1467
br	-1468
ken	-1469
ices	-1470
▁mid	-1471
▁stop	-1472
ames	-1473
ask	-1474
▁env	-1475
▁easy	-1476
ock	-1477
uck	-1478
urs	-1479
ctions	-1480
▁relationship	-1481
▁short	-1482
▁trying	-1483
plo	-1484
▁box	-1485
▁father	-1486
▁eyes	-1487
▁looks	-1488
gy	-1489
utes	-1490
▁course	-1491
▁Would	-1492
▁activ	-1493
▁letter	-1494
▁communic	-1495
ee	-1496
aces	-1497
iron	-1498
▁character	-1499
▁8	-1500
▁beh	-1501
▁reserv	-1502
▁strong	-1503
▁weather	-1504
▁tried	-1505
▁decided	-1506
▁ever	-1507
▁less	-1508
▁appre	-1509
▁Friday	-1510
▁attached	-1511
▁arrive	-1512
▁lots	-1513
▁floor	-1514
▁far	-1515
▁takes	-1516
▁hospital	-1517
▁New	-1518
▁appreci	-1519
friend	-1520
▁haven	-1521
▁delicious	-1522
more	-1523
▁write	-1524
cture	-1525
▁exerc	-1526
▁eating	-1527
ffee	-1528
▁comfort	-1529
▁prepare	-1530
iled	-1531
▁hours	-1532
ides	-1533
▁easily	-1534
▁flight	-1535
▁tou	-1536
▁cell	-1537
▁provide	-1538
▁opin	-1539
▁close	-1540
aughter	-1541
▁forward	-1542
▁dog	-1543
ically	-1544
▁human	-1545
▁waiting	-1546
▁All	-1547
▁words	-1548
val	-1549
oose	-1550
▁party	-1551
uter	-1552
▁weekend	-1553
lied	-1554
▁Now	-1555
▁anim	-1556
▁months	-1557
▁Since	-1558
▁coffee	-1559
hod	-1560
▁detail	-1561
▁moment	-1562
ior	-1563
▁pri	-1564
▁trad	-1565
▁warm	-1566
▁popular	-1567
outh	-1568
ug	-1569
sel	-1570
by	-1571
▁equ	-1572
▁sea	-1573
▁items	-1574
▁purchase	-1575
▁watching	-1576
▁Mr	-1577
▁method	-1578
▁Je	-1579
pr	-1580
▁invoice	-1581
▁group	-1582
▁pick	-1583
▁Japanese	-1584
▁related	-1585
be	-1586
▁web	-1587
▁People	-1588
▁major	-1589
▁profess	-1590
▁cre	-1591
▁cance	-1592
▁9	-1593
ott	-1594
rect	-1595
▁based	-1596
▁gener	-1597
▁public	-1598
▁computer	-1599
▁shipping	-1600
▁sales	-1601
ism	-1602
rol	-1603
ield	-1604
▁item	-1605
▁memb	-1606
▁rese	-1607
▁emplo	-1608
oint	-1609
▁fre	-1610
ccess	-1611
▁checked	-1612
ases	-1613
▁const	-1614
▁effort	-1615
▁reservation	-1616
▁el	-1617
▁sad	-1618
▁sat	-1619
though	-1620
▁airport	-1621
▁members	-1622
ai	-1623
▁compet	-1624
gin	-1625
ology	-1626
▁hair	-1627
▁cap	-1628
▁Does	-1629
ration	-1630
▁building	-1631
dle	-1632
isf	-1633
▁fa	-1634
▁news	-1635
ival	-1636
▁quickly	-1637
▁tem	-1638
▁quant	-1639
▁chance	-1640
▁everyone	-1641
▁Phil	-1642
▁becom	-1643
▁learned	-1644
▁tax	-1645
▁park	-1646
▁lives	-1647
▁area	-1648
▁hands	-1649
▁winter	-1650
co	-1651
▁isn	-1652
▁above	-1653
▁means	-1654
▁smart	-1655
era	-1656
▁manage	-1657
▁fee	-1658
▁talking	-1659
▁daughter	-1660
▁answer	-1661
▁sal	-1662
▁minutes	-1663
▁respons	-1664
▁consider	-1665
▁department	-1666
▁exch	-1667
▁pretty	-1668
▁environ	-1669
con	-1670
ouble	-1671
▁countries	-1672
uri	-1673
▁power	-1674
▁necess	-1675
▁30	-1676
▁ve	-1677
▁mil	-1678
▁nothing	-1679
▁bed	-1680
▁vol	-1681
▁mist	-1682
ients	-1683
▁arrived	-1684
▁outside	-1685
▁following	-1686
▁Am	-1687
ling	-1688
▁share	-1689
▁playing	-1690
▁success	-1691
▁snow	-1692
▁Sunday	-1693
▁China	-1694
▁proper	-1695
ined	-1696
used	-1697
▁inf	-1698
▁seen	-1699
aturday	-1700
ibility	-1701
▁ok	-1702
ills	-1703
▁wear	-1704
▁worried	-1705
▁Saturday	-1706
▁remember	-1707
iew	-1708
▁rice	-1709
▁lunch	-1710
▁Philipp	-1711
ressed	-1712
▁manag	-1713
▁improve	-1714
▁finished	-1715
nam	-1716
▁experien	-1717
ift	-1718
▁cat	-1719
phone	-1720
▁spec	-1721
ium	-1722
pri	-1723
▁line	-1724
▁example	-1725
veral	-1726
▁enter	-1727
ring	-1728
▁smo	-1729
eng	-1730
ience	-1731
▁within	-1732
▁ordered	-1733
▁language	-1734
▁boyfriend	-1735
par	-1736
▁discuss	-1737
▁fall	-1738
▁view	-1739
▁saying	-1740
▁according	-1741
band	-1742
▁hist	-1743
lfriend	-1744
▁environment	-1745
▁At	-1746
io	-1747
▁goes	-1748
▁review	-1749
▁instead	-1750
▁development	-1751
▁Bus	-1752
ising	-1753
oliday	-1754
▁exist	-1755
▁field	-1756
do	-1757
com	-1758
▁shop	-1759
▁soci	-1760
▁social	-1761
▁seem	-1762
▁delay	-1763
de	-1764
▁sport	-1765
▁ach	-1766
▁taste	-1767
▁satisf	-1768
▁quantity	-1769
yle	-1770
▁son	-1771
▁wants	-1772
▁several	-1773
cle	-1774
aster	-1775
▁hold	-1776
▁Which	-1777
▁appear	-1778
▁applic	-1779
▁worked	-1780
cing	-1781
load	-1782
▁feeling	-1783
inese	-1784
▁center	-1785
▁education	-1786
▁Philippines	-1787
duced	-1788
▁books	-1789
▁whole	-1790
▁materials	-1791
▁girlfriend	-1792
reet	-1793
▁holiday	-1794
▁shopping	-1795
▁true	-1796
▁fine	-1797
▁lost	-1798
▁wind	-1799
▁allow	-1800
▁yourself	-1801
iod	-1802
vert	-1803
ision	-1804
usband	-1805
▁sound	-1806
▁production	-1807
let	-1808
ortun	-1809
ization	-1810
▁appreciate	-1811
▁Ex	-1812
vies	-1813
▁fast	-1814
▁gets	-1815
▁type	-1816
▁refund	-1817
gu	-1818
▁mach	-1819
▁needs	-1820
▁space	-1821
▁teach	-1822
▁quality	-1823
ape	-1824
▁aw	-1825
ably	-1826
▁along	-1827
▁forget	-1828
▁Chinese	-1829
▁correct	-1830
▁shipment	-1831
iqu	-1832
▁US	-1833
ilar	-1834
▁term	-1835
▁choose	-1836
ays	-1837
noon	-1838
▁image	-1839
ator	-1840
ored	-1841
ified	-1842
▁husband	-1843
ush	-1844
▁separ	-1845
▁season	-1846
▁afternoon	-1847
bod	-1848
▁prot	-1849
▁period	-1850
min	-1851
▁movies	-1852
▁applied	-1853
▁contain	-1854
▁prepared	-1855
▁sometimes	-1856
▁hear	-1857
room	-1858
▁ele	-1859
▁lar	-1860
▁safe	-1861
▁touch	-1862
ming	-1863
▁positive	-1864
icken	-1865
▁draw	-1866
▁text	-1867
err	-1868
▁opinion	-1869
▁bas	-1870
▁cou	-1871
▁ton	-1872
▁meal	-1873
▁brand	-1874
▁clear	-1875
estival	-1876
▁conven	-1877
▁middle	-1878
▁similar	-1879
▁documents	-1880
▁difference	-1881
eb	-1882
ully	-1883
▁norm	-1884
▁okay	-1885
▁writing	-1886
▁swe	-1887
▁treat	-1888
▁places	-1889
▁college	-1890
ural	-1891
▁compan	-1892
▁inside	-1893
ification	-1894
▁necessary	-1895
▁meaning	-1896
▁ann	-1897
▁guys	-1898
▁natur	-1899
otion	-1900
ins	-1901
mail	-1902
▁sold	-1903
▁organ	-1904
▁anymore	-1905
▁19	-1906
rist	-1907
▁ready	-1908
▁transfer	-1909
▁ste	-1910
▁questions	-1911
▁deal	-1912
▁convers	-1913
▁low	-1914
▁fish	-1915
▁performance	-1916
uro	-1917
ants	-1918
▁begin	-1919
ountain	-1920
▁accept	-1921
▁rather	-1922
▁samples	-1923
▁interesting	-1924
go	-1925
body	-1926
nect	-1927
▁dev	-1928
▁needed	-1929
▁respect	-1930
▁age	-1931
▁goal	-1932
▁paid	-1933
ify	-1934
ctor	-1935
asure	-1936
▁offic	-1937
▁Intern	-1938
ones	-1939
▁100	-1940
▁cut	-1941
▁glo	-1942
ggest	-1943
▁photos	-1944
▁regarding	-1945
▁fix	-1946
▁expens	-1947
▁street	-1948
▁complete	-1949
▁exchange	-1950
▁completed	-1951
ale	-1952
ned	-1953
iding	-1954
▁paper	-1955
▁Christ	-1956
▁12	-1957
conom	-1958
▁black	-1959
▁located	-1960
▁suggest	-1961
▁expected	-1962
ball	-1963
ption	-1964
▁trust	-1965
pped	-1966
vious	-1967
▁pe	-1968
▁contents	-1969
aka	-1970
▁grand	-1971
▁parts	-1972
▁reading	-1973
▁exercise	-1974
▁interview	-1975
▁additional	-1976
▁Busan	-1977
▁healthy	-1978
▁red	-1979
▁club	-1980
▁agree	-1981
▁control	-1982
▁employe	-1983
▁Who	-1984
▁exact	-1985
▁press	-1986
▁shows	-1987
▁chicken	-1988
▁continu	-1989
▁dollars	-1990
most	-1991
▁def	-1992
▁Thanks	-1993
▁companies	-1994
▁quite	-1995
▁fac	-1996
atched	-1997
▁camera	-1998
bal	-1999
omp	-2000
▁De	-2001
▁leg	-2002
▁self	-2003
▁function	-2004
▁exh	-2005
itten	-2006
▁da	-2007
fully	-2008
▁Park	-2009
▁goods	-2010
▁traditional	-2011
▁di	-2012
▁dam	-2013
▁hon	-2014
▁glad	-2015
▁level	-2016
▁repres	-2017
▁society	-2018
iven	-2019
▁deep	-2020
▁kids	-2021
▁prin	-2022
▁original	-2023
▁TV	-2024
▁foc	-2025
▁imm	-2026
▁happened	-2027
ances	-2028
▁sick	-2029
▁kinds	-2030
book	-2031
▁15	-2032
▁film	-2033
chi	-2034
▁Her	-2035
▁value	-2036
▁connect	-2037
▁University	-2038
ists	-2039
▁worry	-2040
▁invest	-2041
resh	-2042
▁hurt	-2043
▁subm	-2044
▁econom	-2045
▁deliver	-2046
asing	-2047
old	-2048
road	-2049
▁table	-2050
▁married	-2051
▁ev	-2052
▁Sec	-2053
ivered	-2054
▁elect	-2055
▁games	-2056
▁history	-2057
yeong	-2058
▁Will	-2059
▁anal	-2060
▁idea	-2061
▁By	-2062
▁bab	-2063
▁equip	-2064
▁solve	-2065
▁disapp	-2066
▁sports	-2067
arning	-2068
▁machine	-2069
▁eng	-2070
ories	-2071
▁flow	-2072
▁four	-2073
▁gift	-2074
▁weeks	-2075
▁opportun	-2076
ams	-2077
llo	-2078
oud	-2079
ump	-2080
▁Jan	-2081
▁law	-2082
where	-2083
▁delivered	-2084
▁wasn	-2085
▁occur	-2086
▁personal	-2087
ude	-2088
ffic	-2089
gest	-2090
ross	-2091
▁Pro	-2092
▁else	-2093
▁research	-2094
ged	-2095
▁ce	-2096
▁tot	-2097
▁held	-2098
▁estim	-2099
ze	-2100
▁site	-2101
▁wife	-2102
▁perfect	-2103
▁presentation	-2104
▁One	-2105
▁upd	-2106
▁rate	-2107
ding	-2108
▁ate	-2109
▁neg	-2110
▁simple	-2111
ex	-2112
▁abs	-2113
▁question	-2114
▁activities	-2115
dden	-2116
▁gra	-2117
▁factory	-2118
▁including	-2119
na	-2120
▁Re	-2121
▁final	-2122
▁sudden	-2123
▁weight	-2124
▁comfortable	-2125
over	-2126
▁stock	-2127
▁depend	-2128
▁played	-2129
▁From	-2130
▁hate	-2131
▁poor	-2132
▁giving	-2133
▁es	-2134
▁pie	-2135
▁ener	-2136
ission	-2137
▁ability	-2138
▁His	-2139
▁Ind	-2140
▁bar	-2141
astic	-2142
▁reasons	-2143
▁serious	-2144
▁equipment	-2145
▁Ye	-2146
▁ple	-2147
▁webs	-2148
▁grade	-2149
▁div	-2150
cious	-2151
▁dest	-2152
▁rele	-2153
▁watched	-2154
▁Although	-2155
amp	-2156
▁Su	-2157
▁mis	-2158
▁pen	-2159
anger	-2160
▁festival	-2161
alf	-2162
▁swim	-2163
▁creat	-2164
▁achieve	-2165
ton	-2166
ying	-2167
ively	-2168
▁Many	-2169
▁Some	-2170
▁skills	-2171
▁evening	-2172
▁subject	-2173
▁tonight	-2174
ob	-2175
▁almost	-2176
▁changes	-2177
▁application	-2178
▁sun	-2179
▁dish	-2180
▁cause	-2181
▁America	-2182
▁checking	-2183
▁discount	-2184
won	-2185
akes	-2186
▁guest	-2187
▁memories	-2188
▁happiness	-2189
ique	-2190
orth	-2191
▁road	-2192
▁content	-2193
▁visited	-2194
▁written	-2195
mp	-2196
por	-2197
▁dem	-2198
▁details	-2199
ivid	-2200
▁tre	-2201
▁inqu	-2202
idence	-2203
selves	-2204
▁known	-2205
▁directly	-2206
ets	-2207
▁hig	-2208
▁passed	-2209
▁wearing	-2210
nes	-2211
▁looked	-2212
▁mention	-2213
▁protect	-2214
ral	-2215
uly	-2216
▁typ	-2217
▁Euro	-2218
▁clos	-2219
▁cool	-2220
▁fresh	-2221
▁taken	-2222
▁advert	-2223
▁stress	-2224
▁increase	-2225
▁11	-2226
▁sn	-2227
ches	-2228
▁addition	-2229
fact	-2230
▁anyone	-2231
▁prevent	-2232
▁previous	-2233
une	-2234
▁Air	-2235
▁Che	-2236
▁advance	-2237
▁ru	-2238
▁rev	-2239
▁scre	-2240
▁learning	-2241
▁traveling	-2242
sh	-2243
▁smile	-2244
▁white	-2245
▁attach	-2246
▁colors	-2247
▁lab	-2248
▁sens	-2249
▁helps	-2250
▁Second	-2251
▁regist	-2252
▁participate	-2253
ats	-2254
▁Wed	-2255
ufact	-2256
▁gradu	-2257
▁refer	-2258
▁marketing	-2259
▁menu	-2260
▁ones	-2261
▁large	-2262
ables	-2263
▁stru	-2264
▁match	-2265
▁indust	-2266
▁impress	-2267
▁website	-2268
▁lim	-2269
aining	-2270
▁style	-2271
▁practice	-2272
pose	-2273
▁Han	-2274
▁ang	-2275
▁key	-2276
gress	-2277
ruction	-2278
▁select	-2279
▁install	-2280
▁mot	-2281
▁pot	-2282
▁camp	-2283
▁forg	-2284
▁hang	-2285
▁repl	-2286
▁older	-2287
▁sense	-2288
▁client	-2289
▁regret	-2290
▁mountain	-2291
▁whenever	-2292
ax	-2293
fra	-2294
rap	-2295
ives	-2296
just	-2297
▁vers	-2298
nesday	-2299
▁shoes	-2300
▁online	-2301
▁manufact	-2302
adem	-2303
▁Germ	-2304
▁Wednesday	-2305
▁represent	-2306
uk	-2307
▁abroad	-2308
▁prefer	-2309
▁listening	-2310
▁management	-2311
▁Act	-2312
lebr	-2313
ured	-2314
▁bott	-2315
▁animals	-2316
▁currently	-2317
come	-2318
▁bra	-2319
▁ways	-2320
▁depos	-2321
ilities	-2322
▁energy	-2323
▁standard	-2324
je	-2325
▁concer	-2326
▁record	-2327
▁developed	-2328
▁technology	-2329
▁ren	-2330
▁land	-2331
urther	-2332
▁mistake	-2333
▁conversation	-2334
fraid	-2335
▁baby	-2336
▁born	-2337
▁afraid	-2338
▁sem	-2339
ulation	-2340
▁subway	-2341
▁accident	-2342
mas	-2343
▁Sp	-2344
▁arm	-2345
ither	-2346
ously	-2347
▁ball	-2348
▁fire	-2349
▁suit	-2350
▁veget	-2351
▁consum	-2352
▁Or	-2353
▁Feb	-2354
▁Tell	-2355
▁stat	-2356
▁least	-2357
▁celebr	-2358
▁memory	-2359
▁seeing	-2360
▁natural	-2361
▁specific	-2362
ery	-2363
man	-2364
clock	-2365
▁phys	-2366
▁extra	-2367
▁temper	-2368
▁dom	-2369
▁meat	-2370
▁focus	-2371
▁doctor	-2372
▁points	-2373
▁careful	-2374
uff	-2375
▁Hong	-2376
▁save	-2377
▁weak	-2378
▁likes	-2379
▁Europe	-2380
▁access	-2381
▁cancel	-2382
▁err	-2383
▁says	-2384
▁volun	-2385
▁except	-2386
▁internet	-2387
pos	-2388
▁ur	-2389
▁maint	-2390
▁studied	-2391
aw	-2392
▁war	-2393
▁sweet	-2394
▁asking	-2395
▁manager	-2396
▁trouble	-2397
▁via	-2398
▁South	-2399
▁daily	-2400
▁death	-2401
▁gover	-2402
nd	-2403
ked	-2404
tle	-2405
▁lu	-2406
▁apolog	-2407
▁becomes	-2408
▁individ	-2409
▁thoughts	-2410
▁Christmas	-2411
ny	-2412
▁ing	-2413
▁earn	-2414
urious	-2415
▁global	-2416
▁longer	-2417
▁results	-2418
▁confirmed	-2419
lu	-2420
ama	-2421
▁Just	-2422
▁passion	-2423
▁mentioned	-2424
▁opportunity	-2425
▁cir	-2426
▁cop	-2427
▁cup	-2428
▁base	-2429
ursday	-2430
▁beach	-2431
▁cream	-2432
▁provided	-2433
ane	-2434
▁et	-2435
▁God	-2436
▁Lee	-2437
▁mag	-2438
▁academ	-2439
▁Man	-2440
itted	-2441
ruary	-2442
▁five	-2443
▁role	-2444
▁Hello	-2445
▁state	-2446
▁normal	-2447
▁Thursday	-2448
▁starting	-2449
▁foreigners	-2450
ili	-2451
oke	-2452
fast	-2453
▁task	-2454
▁basic	-2455
▁adjust	-2456
▁couple	-2457
▁classes	-2458
▁delayed	-2459
▁February	-2460
aff	-2461
new	-2462
urch	-2463
▁cred	-2464
▁medic	-2465
▁island	-2466
▁training	-2467
oss	-2468
amed	-2469
reng	-2470
▁fit	-2471
aving	-2472
▁lose	-2473
▁ride	-2474
▁gives	-2475
▁guess	-2476
▁dishes	-2477
▁govern	-2478
uary	-2479
aking	-2480
▁given	-2481
▁recently	-2482
▁required	-2483
ef	-2484
to	-2485
iol	-2486
ional	-2487
▁streng	-2488
▁require	-2489
set	-2490
sing	-2491
ures	-2492
▁dro	-2493
▁door	-2494
▁nature	-2495
▁toward	-2496
pril	-2497
▁fig	-2498
▁glass	-2499
▁ingred	-2500
▁Dae	-2501
▁version	-2502
▁progress	-2503
▁50	-2504
▁ice	-2505
▁half	-2506
cially	-2507
▁against	-2508
lier	-2509
▁fru	-2510
adays	-2511
▁Jeju	-2512
▁lack	-2513
▁April	-2514
▁North	-2515
▁total	-2516
ability	-2517
▁supply	-2518
▁cooking	-2519
▁communication	-2520
hor	-2521
▁cake	-2522
▁step	-2523
action	-2524
ground	-2525
▁March	-2526
▁super	-2527
▁danger	-2528
▁police	-2529
▁single	-2530
▁feelings	-2531
▁position	-2532
▁transport	-2533
▁z	-2534
imb	-2535
ron	-2536
▁blo	-2537
▁Here	-2538
▁page	-2539
▁soft	-2540
▁liked	-2541
▁media	-2542
▁January	-2543
▁appoint	-2544
▁breakfast	-2545
▁temperature	-2546
irt	-2547
ots	-2548
▁hu	-2549
cast	-2550
bably	-2551
izing	-2552
▁boss	-2553
▁priv	-2554
▁surpr	-2555
▁younger	-2556
▁individual	-2557
▁pm	-2558
itary	-2559
▁lived	-2560
▁plans	-2561
▁stick	-2562
▁thanks	-2563
▁upload	-2564
'.	-2565
bo	-2566
uce	-2567
erve	-2568
▁join	-2569
▁mass	-2570
▁behav	-2571
▁offer	-2572
pection	-2573
▁biggest	-2574
▁finally	-2575
▁expensive	-2576
ky	-2577
onse	-2578
▁third	-2579
▁professor	-2580
▁international	-2581
ume	-2582
▁Go	-2583
illion	-2584
▁spent	-2585
ference	-2586
▁certific	-2587
▁personality	-2588
ailed	-2589
istic	-2590
▁beer	-2591
▁cute	-2592
▁carry	-2593
▁engine	-2594
rd	-2595
ccer	-2596
▁dad	-2597
▁viol	-2598
▁Kaka	-2599
▁Last	-2600
▁bene	-2601
uesday	-2602
▁broad	-2603
▁compl	-2604
▁loved	-2605
▁common	-2606
▁decide	-2607
▁drinking	-2608
▁supposed	-2609
ogn	-2610
imin	-2611
▁Min	-2612
▁lic	-2613
▁Ital	-2614
▁deposit	-2615
▁lecture	-2616
▁national	-2617
▁precious	-2618
▁understanding	-2619
▁responsibility	-2620
me	-2621
▁Of	-2622
like	-2623
▁soccer	-2624
▁unique	-2625
▁Tuesday	-2626
▁experiences	-2627
bok	-2628
ney	-2629
▁Ad	-2630
ledge	-2631
▁Gang	-2632
▁fell	-2633
▁frequ	-2634
▁lower	-2635
▁choice	-2636
▁talked	-2637
▁shipped	-2638
▁Internet	-2639
upp	-2640
iter	-2641
▁oil	-2642
▁tea	-2643
light	-2644
▁shape	-2645
▁honest	-2646
▁issues	-2647
▁promise	-2648
▁volunte	-2649
icle	-2650
ocol	-2651
▁par	-2652
▁angry	-2653
▁block	-2654
▁exhib	-2655
▁Island	-2656
▁certain	-2657
▁Ar	-2658
ober	-2659
▁adm	-2660
▁bur	-2661
▁cra	-2662
▁net	-2663
▁luck	-2664
▁spicy	-2665
▁attention	-2666
oung	-2667
▁ill	-2668
ooper	-2669
▁Somet	-2670
▁influ	-2671
▁medical	-2672
▁running	-2673
▁actually	-2674
wan	-2675
▁decision	-2676
cer	-2677
▁hit	-2678
itude	-2679
▁dress	-2680
▁purpose	-2681
▁apologize	-2682
▁government	-2683
▁translation	-2684
▁bat	-2685
▁etc	-2686
▁mix	-2687
▁recogn	-2688
▁concent	-2689
▁regular	-2690
▁convenient	-2691
edi	-2692
els	-2693
▁dead	-2694
▁imag	-2695
ashion	-2696
▁moved	-2697
▁credit	-2698
▁Actually	-2699
raph	-2700
▁wed	-2701
▁milk	-2702
▁pray	-2703
▁fight	-2704
▁preparing	-2705
▁inspection	-2706
▁aren	-2707
▁port	-2708
▁spring	-2709
▁homework	-2710
san	-2711
fety	-2712
▁sci	-2713
ential	-2714
▁chall	-2715
▁foods	-2716
▁scene	-2717
▁bright	-2718
▁church	-2719
▁American	-2720
sc	-2721
▁Acc	-2722
▁ess	-2723
▁cover	-2724
▁competition	-2725
riage	-2726
▁chat	-2727
▁submit	-2728
▁included	-2729
▁Pl	-2730
dong	-2731
▁added	-2732
▁staff	-2733
▁surger	-2734
▁compared	-2735
▁continue	-2736
useum	-2737
▁visa	-2738
▁assign	-2739
▁wedding	-2740
zy	-2741
hol	-2742
▁Most	-2743
▁soup	-2744
▁drive	-2745
▁local	-2746
▁Should	-2747
▁conduct	-2748
▁Next	-2749
▁swimming	-2750
▁communicate	-2751
0.	-2752
met	-2753
ony	-2754
▁hob	-2755
▁York	-2756
▁mine	-2757
▁stuff	-2758
▁voice	-2759
▁member	-2760
▁screen	-2761
▁Everyone	-2762
▁18	-2763
▁Fin	-2764
▁dra	-2765
▁advant	-2766
▁cooper	-2767
▁collect	-2768
▁package	-2769
▁detailed	-2770
omen	-2771
▁Not	-2772
▁Oct	-2773
ained	-2774
▁libr	-2775
▁catch	-2776
▁guide	-2777
▁helped	-2778
▁higher	-2779
▁search	-2780
▁license	-2781
▁changing	-2782
▁military	-2783
▁official	-2784
▁beginning	-2785
▁operation	-2786
ah	-2787
▁atm	-2788
▁bal	-2789
▁eye	-2790
▁blue	-2791
▁autom	-2792
▁costs	-2793
▁feels	-2794
▁sauce	-2795
▁flowers	-2796
▁medicine	-2797
back	-2798
▁harm	-2799
▁moist	-2800
▁atmosp	-2801
▁fashion	-2802
▁staying	-2803
▁surgery	-2804
▁semester	-2805
erg	-2806
oid	-2807
▁ten	-2808
▁Viet	-2809
▁suff	-2810
▁Sorry	-2811
▁author	-2812
▁driving	-2813
▁strength	-2814
▁Hy	-2815
aper	-2816
iety	-2817
▁arr	-2818
▁mob	-2819
▁buyer	-2820
▁earth	-2821
▁behind	-2822
▁smartphone	-2823
▁transportation	-2824
avy	-2825
▁ri	-2826
rely	-2827
house	-2828
▁Take	-2829
▁rent	-2830
▁adult	-2831
▁finan	-2832
▁types	-2833
▁either	-2834
▁Vietnam	-2835
▁attract	-2836
▁probably	-2837
▁response	-2838
▁advertise	-2839
▁satisfied	-2840
▁construction	-2841
ps	-2842
▁Maybe	-2843
▁window	-2844
pecially	-2845
cent	-2846
▁Any	-2847
▁huge	-2848
▁estimate	-2849
▁released	-2850
ilt	-2851
umb	-2852
▁nood	-2853
▁bread	-2854
▁safety	-2855
▁October	-2856
▁enjoyed	-2857
▁realized	-2858
▁sleeping	-2859
▁solution	-2860
▁atmosphere	-2861
ada	-2862
▁Isn	-2863
▁gen	-2864
epend	-2865
▁With	-2866
▁board	-2867
▁agency	-2868
▁moving	-2869
▁selling	-2870
▁becoming	-2871
▁representative	-2872
bit	-2873
ley	-2874
unk	-2875
▁cry	-2876
▁jud	-2877
▁error	-2878
▁handle	-2879
▁employees	-2880
bor	-2881
aves	-2882
ster	-2883
▁urg	-2884
alled	-2885
ences	-2886
illage	-2887
▁fault	-2888
▁score	-2889
▁active	-2890
▁forever	-2891
▁measure	-2892
▁knowledge	-2893
cohol	-2894
▁Well	-2895
▁green	-2896
▁concert	-2897
▁library	-2898
▁cultural	-2899
▁register	-2900
hy	-2901
ters	-2902
▁Day	-2903
▁sky	-2904
alent	-2905
▁Face	-2906
▁code	-2907
▁users	-2908
▁Germany	-2909
▁vegetables	-2910
▁certificate	-2911
▁200	-2912
▁hor	-2913
▁comb	-2914
▁town	-2915
▁chose	-2916
▁wrote	-2917
▁action	-2918
▁beauty	-2919
▁damage	-2920
▁depart	-2921
▁immedi	-2922
▁object	-2923
▁reduce	-2924
▁ingredients	-2925
ept	-2926
izz	-2927
ship	-2928
▁enc	-2929
▁gone	-2930
▁broken	-2931
▁customs	-2932
▁marriage	-2933
▁president	-2934
▁feed	-2935
▁benef	-2936
▁shown	-2937
ossible	-2938
▁earlier	-2939
oh	-2940
▁sex	-2941
▁unf	-2942
ining	-2943
▁Inst	-2944
▁mobile	-2945
▁curious	-2946
▁walking	-2947
▁purchased	-2948
▁non	-2949
iment	-2950
onven	-2951
▁Sams	-2952
▁cases	-2953
▁grandm	-2954
▁entered	-2955
▁aud	-2956
▁kept	-2957
▁fried	-2958
▁girls	-2959
▁ident	-2960
▁songs	-2961
▁spread	-2962
▁status	-2963
▁Facebook	-2964
▁inconven	-2965
▁industry	-2966
▁suddenly	-2967
▁According	-2968
▁appointment	-2969
ises	-2970
ners	-2971
▁Put	-2972
▁taxi	-2973
▁showed	-2974
▁impossible	-2975
▁Te	-2976
▁egg	-2977
▁sto	-2978
inite	-2979
under	-2980
▁coun	-2981
▁dele	-2982
▁seat	-2983
▁stra	-2984
▁wall	-2985
▁twice	-2986
▁United	-2987
▁caused	-2988
▁turned	-2989
▁distrib	-2990
▁structure	-2991
▁appearance	-2992
▁exhibition	-2993
xim	-2994
▁13	-2995
▁bath	-2996
▁fill	-2997
▁hung	-2998
▁quiet	-2999
▁snack	-3000
▁worth	-3001
▁button	-3002
▁chocol	-3003
▁traffic	-3004
▁especially	-3005
apt	-3006
uth	-3007
▁flu	-3008
▁July	-3009
▁copy	-3010
▁knew	-3011
▁create	-3012
▁flower	-3013
▁proced	-3014
▁receip	-3015
▁happens	-3016
iest	-3017
▁Aug	-3018
estic	-3019
▁Comp	-3020
▁rich	-3021
▁slow	-3022
ograph	-3023
▁Third	-3024
▁plane	-3025
▁alcohol	-3026
▁helpful	-3027
▁private	-3028
▁speaking	-3029
▁treatment	-3030
▁confirmation	-3031
airs	-3032
atic	-3033
▁log	-3034
verse	-3035
▁Dece	-3036
▁dark	-3037
▁effic	-3038
▁smell	-3039
▁track	-3040
▁forgot	-3041
▁ground	-3042
▁Samsung	-3043
▁December	-3044
▁sentence	-3045
▁wonderful	-3046
cel	-3047
hood	-3048
▁unit	-3049
▁terms	-3050
▁States	-3051
▁double	-3052
▁smooth	-3053
▁starts	-3054
▁academy	-3055
▁Sometimes	-3056
▁ow	-3057
yeon	-3058
inder	-3059
▁amaz	-3060
▁accur	-3061
▁estab	-3062
▁feature	-3063
▁variety	-3064
▁location	-3065
▁properly	-3066
mm	-3067
eth	-3068
▁emb	-3069
▁tend	-3070
▁August	-3071
▁affect	-3072
▁partner	-3073
▁produce	-3074
ysis	-3075
▁fail	-3076
▁wake	-3077
ued	-3078
ury	-3079
▁guy	-3080
▁ver	-3081
istics	-3082
comfort	-3083
▁nearby	-3084
▁wouldn	-3085
▁produced	-3086
cul	-3087
umn	-3088
year	-3089
▁Its	-3090
▁fab	-3091
▁tar	-3092
▁tree	-3093
atever	-3094
▁broke	-3095
▁lesson	-3096
▁exactly	-3097
▁physical	-3098
▁apartment	-3099
▁dangerous	-3100
▁financial	-3101
▁themselves	-3102
▁ID	-3103
izes	-3104
oting	-3105
▁Aust	-3106
▁golf	-3107
▁pork	-3108
▁stom	-3109
▁Kimchi	-3110
▁figure	-3111
▁overse	-3112
▁policy	-3113
▁brought	-3114
▁straight	-3115
comfortable	-3116
▁continuously	-3117
aim	-3118
▁16	-3119
▁Gu	-3120
word	-3121
▁Hot	-3122
▁bill	-3123
▁cafe	-3124
▁lone	-3125
▁mult	-3126
rences	-3127
▁Kakao	-3128
▁heavy	-3129
▁throw	-3130
▁shower	-3131
▁created	-3132
▁negative	-3133
▁uncomfortable	-3134
ds	-3135
ato	-3136
ply	-3137
aged	-3138
leep	-3139
▁deg	-3140
antly	-3141
ended	-3142
▁Sept	-3143
▁secret	-3144
▁stomach	-3145
▁completely	-3146
iced	-3147
omed	-3148
▁Wor	-3149
▁squ	-3150
adium	-3151
▁foot	-3152
idered	-3153
▁Among	-3154
▁moder	-3155
▁reach	-3156
▁compon	-3157
▁demand	-3158
▁dreams	-3159
▁Finally	-3160
▁general	-3161
▁behavior	-3162
▁immediately	-3163
rit	-3164
head	-3165
▁attra	-3166
▁print	-3167
▁Before	-3168
▁device	-3169
▁Koreans	-3170
▁drawing	-3171
arr	-3172
rim	-3173
▁25	-3174
ache	-3175
rate	-3176
▁pan	-3177
▁desc	-3178
▁entr	-3179
▁fair	-3180
▁drama	-3181
▁safely	-3182
▁include	-3183
▁receipt	-3184
▁approval	-3185
▁September	-3186
of	-3187
itor	-3188
eared	-3189
▁desk	-3190
▁dise	-3191
▁tren	-3192
▁wine	-3193
ension	-3194
▁cheer	-3195
▁leaving	-3196
▁tourist	-3197
▁confidence	-3198
▁considered	-3199
▁separately	-3200
▁i	-3201
aced	-3202
ateg	-3203
▁lay	-3204
▁rad	-3205
ieved	-3206
iliar	-3207
▁cross	-3208
▁drank	-3209
▁driver	-3210
▁Through	-3211
lymp	-3212
rage	-3213
▁fan	-3214
▁joy	-3215
▁raise	-3216
▁instru	-3217
▁singer	-3218
▁painting	-3219
▁broadcast	-3220
acy	-3221
▁sil	-3222
▁nerv	-3223
▁perm	-3224
ducing	-3225
▁Olymp	-3226
▁cheap	-3227
▁dance	-3228
▁resol	-3229
▁shall	-3230
▁network	-3231
▁thankful	-3232
▁increased	-3233
wang	-3234
iling	-3235
▁Cont	-3236
▁fixed	-3237
▁named	-3238
▁concept	-3239
▁follows	-3240
▁existing	-3241
▁overseas	-3242
▁je	-3243
izza	-3244
uses	-3245
▁die	-3246
▁fat	-3247
▁June	-3248
▁firm	-3249
▁built	-3250
▁limit	-3251
▁consult	-3252
▁analysis	-3253
▁provides	-3254
▁services	-3255
ief	-3256
cket	-3257
▁pool	-3258
▁surf	-3259
▁round	-3260
▁actual	-3261
▁events	-3262
▁repair	-3263
▁misunder	-3264
ram	-3265
tery	-3266
▁Mar	-3267
▁eld	-3268
itory	-3269
usion	-3270
▁proud	-3271
▁determ	-3272
▁million	-3273
▁domestic	-3274
▁direction	-3275
▁successful	-3276
▁convenience	-3277
▁responsible	-3278
nel	-3279
ware	-3280
▁aff	-3281
▁dut	-3282
iform	-3283
▁circ	-3284
▁diet	-3285
▁spot	-3286
▁invent	-3287
▁opened	-3288
▁although	-3289
▁employee	-3290
▁chocolate	-3291
▁installed	-3292
ym	-3293
gar	-3294
▁Cl	-3295
▁Le	-3296
ging	-3297
rict	-3298
▁Due	-3299
▁ant	-3300
inary	-3301
▁Sing	-3302
▁link	-3303
▁quit	-3304
▁roll	-3305
urance	-3306
verage	-3307
▁hobby	-3308
▁relax	-3309
▁Lastly	-3310
▁occurs	-3311
▁orders	-3312
▁himself	-3313
▁planned	-3314
▁reflect	-3315
▁programs	-3316
▁confident	-3317
▁conditions	-3318
▁24	-3319
▁cos	-3320
▁lie	-3321
▁nut	-3322
▁Dong	-3323
▁Only	-3324
▁gold	-3325
▁hasn	-3326
▁decre	-3327
▁sight	-3328
▁bigger	-3329
▁bottom	-3330
▁leader	-3331
▁pieces	-3332
▁update	-3333
▁entrance	-3334
▁passport	-3335
▁depending	-3336
arb	-3337
angh	-3338
vant	-3339
▁App	-3340
erved	-3341
urity	-3342
▁pian	-3343
▁mouth	-3344
▁speed	-3345
▁truth	-3346
▁Canada	-3347
▁server	-3348
▁receiving	-3349
▁registered	-3350
▁examination	-3351
▁40	-3352
▁Ke	-3353
idge	-3354
play	-3355
▁cau	-3356
▁dig	-3357
▁analy	-3358
▁rooms	-3359
▁France	-3360
▁museum	-3361
standing	-3362
ulations	-3363
▁amazing	-3364
▁further	-3365
▁replace	-3366
▁uniform	-3367
▁economic	-3368
▁improved	-3369
▁visiting	-3370
▁effective	-3371
▁increasing	-3372
su	-3373
lla	-3374
▁14	-3375
▁En	-3376
▁ut	-3377
▁fem	-3378
▁obs	-3379
▁heat	-3380
▁king	-3381
▁whom	-3382
▁itself	-3383
▁emotion	-3384
▁pattern	-3385
▁appropri	-3386
▁independ	-3387
▁nowadays	-3388
▁connected	-3389
▁characters	-3390
▁frequently	-3391
▁Ab	-3392
cell	-3393
anced	-3394
stood	-3395
▁owner	-3396
▁borrow	-3397
▁player	-3398
▁stayed	-3399
▁towards	-3400
▁messages	-3401
iry	-3402
rel	-3403
▁Me	-3404
uted	-3405
▁dry	-3406
▁star	-3407
▁till	-3408
▁solved	-3409
▁useful	-3410
▁England	-3411
▁efforts	-3412
▁village	-3413
▁contains	-3414
▁considering	-3415
▁17	-3416
ains	-3417
▁ign	-3418
▁Nove	-3419
▁dogs	-3420
▁claim	-3421
duction	-3422
▁simply	-3423
▁realize	-3424
▁November	-3425
▁pressure	-3426
▁experienced	-3427
▁Tom	-3428
▁avoid	-3429
▁pizza	-3430
▁allowed	-3431
▁reality	-3432
▁shouldn	-3433
▁promised	-3434
▁destination	-3435
vey	-3436
▁Con	-3437
▁bes	-3438
▁opt	-3439
▁uses	-3440
omeday	-3441
▁Asian	-3442
▁fully	-3443
▁marry	-3444
▁asleep	-3445
▁release	-3446
▁workers	-3447
▁attitude	-3448
wh	-3449
enty	-3450
▁Make	-3451
▁jobs	-3452
▁neigh	-3453
▁waste	-3454
▁caught	-3455
▁stories	-3456
▁telling	-3457
▁surprised	-3458
ges	-3459
bers	-3460
▁bow	-3461
▁ram	-3462
▁Like	-3463
▁Year	-3464
▁Those	-3465
▁peace	-3466
▁stage	-3467
▁advice	-3468
▁career	-3469
▁effects	-3470
▁distance	-3471
▁disappoint	-3472
▁introduced	-3473
▁participated	-3474
anch	-3475
cked	-3476
ental	-3477
▁Song	-3478
▁Thus	-3479
▁eval	-3480
▁user	-3481
lished	-3482
▁defect	-3483
▁entire	-3484
▁harder	-3485
▁resour	-3486
▁nervous	-3487
▁suitable	-3488
ho	-3489
aek	-3490
key	-3491
cean	-3492
pite	-3493
▁Tai	-3494
▁dorm	-3495
▁tele	-3496
▁tool	-3497
idents	-3498
▁World	-3499
▁knows	-3500
▁sheet	-3501
mentary	-3502
▁excell	-3503
▁lonely	-3504
▁cellphone	-3505
▁Tw	-3506
bang	-3507
▁gas	-3508
▁suc	-3509
▁tow	-3510
▁coll	-3511
▁wash	-3512
▁piano	-3513
▁prior	-3514
▁belong	-3515
▁cosmet	-3516
▁export	-3517
▁gather	-3518
▁growth	-3519
▁Austral	-3520
▁excited	-3521
▁percent	-3522
▁definite	-3523
▁selected	-3524
▁grandmother	-3525
..	-3526
po	-3527
ara	-3528
cil	-3529
ison	-3530
roll	-3531
▁rob	-3532
▁wide	-3533
▁woke	-3534
▁Hotel	-3535
▁fabric	-3536
▁succeed	-3537
▁returned	-3538
▁carefully	-3539
▁professional	-3540
pro	-3541
itam	-3542
rown	-3543
▁ris	-3544
▁hous	-3545
▁lugg	-3546
▁sand	-3547
minist	-3548
▁blood	-3549
▁laugh	-3550
▁piece	-3551
▁lovely	-3552
▁concern	-3553
▁putting	-3554
▁activity	-3555
▁applying	-3556
▁baseball	-3557
▁canceled	-3558
▁occurred	-3559
▁Try	-3560
▁sus	-3561
arant	-3562
orrow	-3563
▁emot	-3564
▁extre	-3565
▁topic	-3566
▁cheese	-3567
▁designed	-3568
▁electric	-3569
▁movement	-3570
▁volunteer	-3571
▁differences	-3572
▁restaurants	-3573
▁six	-3574
ommod	-3575
▁cars	-3576
fortun	-3577
▁paint	-3578
▁polit	-3579
▁rules	-3580
▁female	-3581
▁grades	-3582
▁missing	-3583
▁developing	-3584
▁expression	-3585
▁deb	-3586
▁Look	-3587
▁More	-3588
▁acqu	-3589
▁sale	-3590
▁aware	-3591
▁keeps	-3592
▁loves	-3593
▁motor	-3594
▁makeup	-3595
▁master	-3596
▁missed	-3597
▁talent	-3598
▁inquiry	-3599
▁plastic	-3600
▁strange	-3601
▁whatever	-3602
oms	-3603
▁sour	-3604
phones	-3605
▁closer	-3606
▁corpor	-3607
▁holding	-3608
▁remaining	-3609
cip	-3610
atory	-3611
▁lens	-3612
▁loss	-3613
▁tall	-3614
▁actor	-3615
▁upset	-3616
itation	-3617
▁accomp	-3618
▁anytime	-3619
▁display	-3620
▁sitting	-3621
▁stopped	-3622
▁accommod	-3623
▁internal	-3624
▁password	-3625
▁teaching	-3626
aps	-3627
rup	-3628
▁ter	-3629
apore	-3630
ength	-3631
▁arch	-3632
▁Italy	-3633
▁oppos	-3634
▁propos	-3635
▁rights	-3636
▁stores	-3637
▁Airport	-3638
▁luggage	-3639
▁anywhere	-3640
▁graduate	-3641
▁modified	-3642
▁Singapore	-3643
▁excellent	-3644
▁registration	-3645
ji	-3646
ians	-3647
itiz	-3648
▁fly	-3649
▁Kong	-3650
▁cash	-3651
▁neck	-3652
▁pupp	-3653
▁hurry	-3654
▁animal	-3655
▁closed	-3656
▁explan	-3657
▁modern	-3658
▁contrib	-3659
▁parking	-3660
▁setting	-3661
▁smoking	-3662
▁feedback	-3663
▁security	-3664
▁appropriate	-3665
▁International	-3666
cl	-3667
▁hy	-3668
gart	-3669
▁pun	-3670
arket	-3671
illed	-3672
▁fing	-3673
▁began	-3674
▁conne	-3675
▁instit	-3676
▁kinder	-3677
▁seemed	-3678
▁target	-3679
atically	-3680
▁raining	-3681
▁science	-3682
▁mistakes	-3683
▁patients	-3684
▁languages	-3685
▁recommended	-3686
rew	-3687
▁Tr	-3688
aint	-3689
inal	-3690
▁Amaz	-3691
▁Russ	-3692
urning	-3693
▁funny	-3694
▁minim	-3695
▁article	-3696
▁respond	-3697
▁showing	-3698
▁someday	-3699
▁background	-3700
▁21	-3701
▁23	-3702
▁Ji	-3703
itar	-3704
▁lad	-3705
▁wel	-3706
▁hero	-3707
ertain	-3708
iation	-3709
▁While	-3710
▁areas	-3711
▁guarant	-3712
▁keeping	-3713
▁Australia	-3714
▁foreigner	-3715
▁impression	-3716
▁impressive	-3717
▁advertisement	-3718
iny	-3719
▁tit	-3720
▁calm	-3721
▁thor	-3722
atives	-3723
ending	-3724
iction	-3725
▁ideas	-3726
▁acting	-3727
▁booked	-3728
▁leaves	-3729
▁notice	-3730
▁remind	-3731
▁videos	-3732
▁players	-3733
▁expenses	-3734
▁functions	-3735
▁insurance	-3736
▁procedure	-3737
▁facilities	-3738
ki	-3739
cher	-3740
▁Pay	-3741
▁ski	-3742
rated	-3743
▁dont	-3744
▁exec	-3745
▁spir	-3746
▁chair	-3747
▁files	-3748
▁prote	-3749
▁sugar	-3750
▁tight	-3751
▁commer	-3752
▁cooked	-3753
▁economy	-3754
▁tickets	-3755
▁promotion	-3756
▁kindergart	-3757
wa	-3758
iff	-3759
▁Ky	-3760
▁Sam	-3761
▁kim	-3762
▁raw	-3763
ellow	-3764
▁feet	-3765
▁poll	-3766
▁worse	-3767
▁Amazon	-3768
▁bother	-3769
▁calcul	-3770
▁hungry	-3771
▁urgent	-3772
▁helping	-3773
▁studies	-3774
▁washing	-3775
▁includes	-3776
▁investig	-3777
▁contacted	-3778
▁wondering	-3779
BC	-3780
jin	-3781
ses	-3782
▁PO	-3783
pper	-3784
▁ran	-3785
▁sen	-3786
asket	-3787
ishes	-3788
▁crit	-3789
ailand	-3790
▁breat	-3791
▁decor	-3792
▁habit	-3793
▁slept	-3794
▁desire	-3795
▁filled	-3796
▁humans	-3797
▁images	-3798
▁stadium	-3799
▁Thailand	-3800
▁handsome	-3801
▁finishing	-3802
▁influence	-3803
sy	-3804
put	-3805
▁Pr	-3806
▁kn	-3807
ague	-3808
enge	-3809
▁ban	-3810
▁gym	-3811
ivity	-3812
▁beef	-3813
▁dust	-3814
▁kill	-3815
▁remo	-3816
▁valu	-3817
▁emerg	-3818
▁force	-3819
uations	-3820
▁Taiwan	-3821
▁extreme	-3822
▁opening	-3823
▁scheduled	-3824
lly	-3825
▁ir	-3826
itch	-3827
mble	-3828
▁mer	-3829
▁pal	-3830
▁rid	-3831
▁Shall	-3832
▁citiz	-3833
▁range	-3834
▁trade	-3835
▁announ	-3836
▁issued	-3837
▁noodles	-3838
▁reserve	-3839
▁attending	-3840
▁disappointed	-3841
▁Bu	-3842
▁inn	-3843
oring	-3844
▁Stud	-3845
▁yours	-3846
▁fruits	-3847
▁National	-3848
▁normally	-3849
▁perspect	-3850
▁separate	-3851
▁inconvenience	-3852
lled	-3853
ught	-3854
▁Reg	-3855
▁bri	-3856
▁lif	-3857
▁mad	-3858
ening	-3859
iring	-3860
ondon	-3861
▁Cent	-3862
▁Each	-3863
▁Jung	-3864
▁died	-3865
ateful	-3866
▁newsp	-3867
▁During	-3868
▁across	-3869
▁Further	-3870
▁calling	-3871
▁theater	-3872
▁benefits	-3873
▁agreement	-3874
▁kindergarten	-3875
5.	-3876
ori	-3877
unt	-3878
board	-3879
▁King	-3880
▁jack	-3881
▁qual	-3882
▁trave	-3883
▁London	-3884
▁adults	-3885
▁boring	-3886
▁prices	-3887
▁tastes	-3888
▁taught	-3889
▁Station	-3890
▁balance	-3891
▁consist	-3892
▁letters	-3893
▁numbers	-3894
▁princip	-3895
▁sharing	-3896
▁updated	-3897
▁grateful	-3898
▁maintain	-3899
▁memorable	-3900
▁sincerely	-3901
lex	-3902
mon	-3903
▁Sw	-3904
aust	-3905
iors	-3906
▁Lot	-3907
▁bud	-3908
rench	-3909
▁host	-3910
▁drunk	-3911
▁ocean	-3912
▁buying	-3913
▁failed	-3914
▁exhaust	-3915
▁deadline	-3916
▁Everything	-3917
▁characteristics	-3918
gi	-3919
gn	-3920
cks	-3921
ror	-3922
▁Nam	-3923
▁lat	-3924
▁cart	-3925
▁load	-3926
▁apart	-3927
▁elder	-3928
▁homet	-3929
▁kimchi	-3930
▁length	-3931
▁scener	-3932
▁slight	-3933
▁arrange	-3934
▁contest	-3935
▁administ	-3936
▁cultures	-3937
▁hometown	-3938
▁thorough	-3939
▁advantage	-3940
▁ourselves	-3941
▁cooperation	-3942
20	-3943
ray	-3944
▁1.	-3945
aging	-3946
▁Give	-3947
▁asse	-3948
▁ring	-3949
▁shut	-3950
▁agent	-3951
▁Gyeong	-3952
▁faster	-3953
▁manual	-3954
▁riding	-3955
▁actions	-3956
▁describ	-3957
▁happily	-3958
▁Secondly	-3959
▁opinions	-3960
▁somewhere	-3961
▁suffering	-3962
att	-3963
▁Sa	-3964
irty	-3965
▁Com	-3966
▁bicy	-3967
▁cher	-3968
▁math	-3969
▁repe	-3970
▁util	-3971
▁Check	-3972
▁boxes	-3973
▁ramen	-3974
▁tough	-3975
▁usage	-3976
▁attack	-3977
▁nation	-3978
▁director	-3979
▁emotions	-3980
▁enjoying	-3981
▁essential	-3982
▁expressed	-3983
▁impressed	-3984
▁definitely	-3985
▁situations	-3986
▁organization	-3987
▁manufacturing	-3988
ube	-3989
▁Bl	-3990
char	-3991
iver	-3992
tain	-3993
▁Mal	-3994
▁Par	-3995
▁caf	-3996
▁cru	-3997
▁veh	-3998
asant	-3999
▁fare	-4000
▁fort	-4001
▁gain	-4002
▁jour	-4003
▁phen	-4004
utions	-4005
▁height	-4006
▁salary	-4007
▁yellow	-4008
▁cleaning	-4009
▁holidays	-4010
▁community	-4011
▁Furthermore	-4012
bum	-4013
het	-4014
mar	-4015
una	-4016
▁Was	-4017
▁esc	-4018
▁hom	-4019
yment	-4020
▁mall	-4021
▁mood	-4022
▁surv	-4023
▁airpl	-4024
▁basket	-4025
▁region	-4026
▁singing	-4027
▁download	-4028
▁valuable	-4029
▁explained	-4030
▁difficulties	-4031
hop	-4032
▁Gr	-4033
ille	-4034
jang	-4035
▁Exc	-4036
▁Rep	-4037
anged	-4038
arden	-4039
▁duty	-4040
▁hall	-4041
▁rout	-4042
▁India	-4043
▁Their	-4044
▁ahead	-4045
▁faith	-4046
▁tasks	-4047
▁easier	-4048
▁freely	-4049
▁option	-4050
▁capital	-4051
▁musical	-4052
▁approach	-4053
▁challeng	-4054
▁familiar	-4055
▁ordinary	-4056
▁overcome	-4057
▁requests	-4058
▁naturally	-4059
▁resources	-4060
▁understood	-4061
zz	-4062
▁0	-4063
ded	-4064
ech	-4065
kyo	-4066
icon	-4067
rees	-4068
▁Des	-4069
▁ath	-4070
▁pig	-4071
▁cous	-4072
▁teen	-4073
▁upon	-4074
▁vict	-4075
▁Child	-4076
▁plant	-4077
▁relig	-4078
▁interp	-4079
▁scared	-4080
▁values	-4081
▁charged	-4082
▁phenomen	-4083
▁stressed	-4084
▁connection	-4085
▁explanation	-4086
▁possibility	-4087
▁2.	-4088
alty	-4089
ened	-4090
hest	-4091
zing	-4092
▁bul	-4093
▁lux	-4094
essel	-4095
lfare	-4096
rency	-4097
▁Come	-4098
▁band	-4099
▁mask	-4100
▁plat	-4101
▁calls	-4102
▁climb	-4103
▁fruit	-4104
▁greet	-4105
▁meals	-4106
▁mixed	-4107
▁trees	-4108
▁truly	-4109
▁causes	-4110
ological	-4111
▁average	-4112
▁scenery	-4113
▁Olympics	-4114
▁annivers	-4115
▁classroom	-4116
▁container	-4117
fortunately	-4118
▁graduation	-4119
▁meaningful	-4120
oub	-4121
yed	-4122
▁PC	-4123
▁Col	-4124
▁Won	-4125
▁civ	-4126
▁rom	-4127
night	-4128
▁army	-4129
▁quot	-4130
▁upgr	-4131
▁Tokyo	-4132
▁honey	-4133
▁hurts	-4134
▁vitam	-4135
▁aspect	-4136
▁highly	-4137
▁spirit	-4138
▁archite	-4139
▁knowing	-4140
▁standing	-4141
▁suggested	-4142
▁difficulty	-4143
NS	-4144
ik	-4145
ov	-4146
bed	-4147
edom	-4148
ites	-4149
umst	-4150
iving	-4151
▁fans	-4152
▁stri	-4153
ancing	-4154
▁meant	-4155
▁thick	-4156
▁title	-4157
▁French	-4158
▁guitar	-4159
▁resort	-4160
▁appeared	-4161
▁bathroom	-4162
▁entering	-4163
▁reserved	-4164
▁restrict	-4165
▁spending	-4166
▁challenge	-4167
▁practical	-4168
▁commercial	-4169
▁importance	-4170
▁reasonable	-4171
▁concentrate	-4172
30	-4173
een	-4174
ila	-4175
ips	-4176
food	-4177
jong	-4178
▁Dis	-4179
▁Mom	-4180
▁farm	-4181
▁male	-4182
▁Young	-4183
▁maxim	-4184
▁newly	-4185
▁steak	-4186
▁vessel	-4187
▁worker	-4188
▁damaged	-4189
▁expense	-4190
▁patient	-4191
▁willing	-4192
▁traveled	-4193
▁experiment	-4194
▁particular	-4195
rat	-4196
tes	-4197
▁27	-4198
▁CE	-4199
▁Sm	-4200
esus	-4201
hered	-4202
iency	-4203
ilies	-4204
▁disp	-4205
▁risk	-4206
coming	-4207
▁Other	-4208
▁blank	-4209
▁negot	-4210
▁losing	-4211
▁overall	-4212
▁everyday	-4213
▁teachers	-4214
▁efficient	-4215
▁emergency	-4216
▁elementary	-4217
▁purchasing	-4218
10	-4219
anc	-4220
asy	-4221
lies	-4222
▁pet	-4223
▁Hall	-4224
▁cere	-4225
▁empt	-4226
▁ware	-4227
arrass	-4228
▁laund	-4229
▁legal	-4230
▁skill	-4231
▁stars	-4232
▁remove	-4233
▁camping	-4234
▁complex	-4235
▁exciting	-4236
▁pleasure	-4237
▁weekends	-4238
▁disappear	-4239
▁dormitory	-4240
▁embarrass	-4241
▁translate	-4242
▁conference	-4243
▁previously	-4244
▁manufacture	-4245
▁participating	-4246
MS	-4247
orn	-4248
iers	-4249
lict	-4250
quar	-4251
tion	-4252
▁USA	-4253
▁Once	-4254
▁crow	-4255
mented	-4256
pected	-4257
▁Jesus	-4258
▁bored	-4259
▁encou	-4260
▁labor	-4261
▁lines	-4262
aration	-4263
▁mostly	-4264
▁profit	-4265
▁seller	-4266
▁methods	-4267
▁treated	-4268
▁Children	-4269
▁accurate	-4270
▁airplane	-4271
▁incident	-4272
▁informed	-4273
▁regularly	-4274
▁consideration	-4275
▁relationships	-4276
eal	-4277
gle	-4278
▁Hi	-4279
jeon	-4280
▁aim	-4281
using	-4282
▁wire	-4283
ternal	-4284
▁Daegu	-4285
▁novel	-4286
▁rough	-4287
▁smoke	-4288
▁Excuse	-4289
▁deeply	-4290
▁leaders	-4291
▁schools	-4292
▁surface	-4293
▁circumst	-4294
aped	-4295
appy	-4296
ript	-4297
▁Hum	-4298
▁umb	-4299
▁Aren	-4300
▁Yeah	-4301
▁fant	-4302
▁rank	-4303
▁indic	-4304
▁toile	-4305
▁tempor	-4306
▁airline	-4307
▁packing	-4308
▁profile	-4309
▁section	-4310
▁accepted	-4311
▁electron	-4312
▁concerned	-4313
▁attractive	-4314
▁anniversary	-4315
▁22	-4316
eing	-4317
▁bike	-4318
▁cris	-4319
▁doub	-4320
▁salt	-4321
father	-4322
▁label	-4323
▁saved	-4324
▁burden	-4325
▁impact	-4326
▁potato	-4327
▁served	-4328
▁freedom	-4329
▁revised	-4330
▁neighbor	-4331
▁conducted	-4332
▁perfectly	-4333
▁exercising	-4334
bs	-4335
▁iP	-4336
hone	-4337
▁Joh	-4338
▁dil	-4339
▁unc	-4340
gging	-4341
icles	-4342
round	-4343
▁pred	-4344
estern	-4345
▁joint	-4346
▁umbre	-4347
licated	-4348
▁School	-4349
▁exclud	-4350
▁loving	-4351
▁modify	-4352
▁paying	-4353
▁reward	-4354
▁teenag	-4355
fficient	-4356
▁Company	-4357
▁bicycle	-4358
▁compens	-4359
▁laundry	-4360
▁matters	-4361
▁moisture	-4362
▁platform	-4363
▁proposal	-4364
▁discussed	-4365
▁components	-4366
7.	-4367
rop	-4368
ider	-4369
rial	-4370
▁Two	-4371
▁gri	-4372
▁mic	-4373
▁Jack	-4374
▁soap	-4375
▁categ	-4376
▁seats	-4377
▁weird	-4378
▁autumn	-4379
▁forest	-4380
▁compare	-4381
▁disease	-4382
▁divided	-4383
▁monthly	-4384
▁clothing	-4385
▁families	-4386
▁childhood	-4387
▁sensitive	-4388
▁eventually	-4389
▁phenomenon	-4390
▁photograph	-4391
▁improvement	-4392
▁automatically	-4393
▁Mo	-4394
▁id	-4395
chan	-4396
mbol	-4397
term	-4398
▁500	-4399
▁Add	-4400
▁Tra	-4401
▁kit	-4402
▁mir	-4403
ender	-4404
▁High	-4405
▁nail	-4406
▁cargo	-4407
▁river	-4408
▁adding	-4409
▁lately	-4410
▁slowly	-4411
▁sounds	-4412
▁clearly	-4413
▁glasses	-4414
▁monitor	-4415
▁welfare	-4416
▁citizens	-4417
▁tracking	-4418
▁Yesterday	-4419
▁technical	-4420
PS	-4421
ls	-4422
for	-4423
eter	-4424
▁nur	-4425
▁rib	-4426
apers	-4427
▁Send	-4428
▁Beach	-4429
▁Lotte	-4430
▁absor	-4431
▁brief	-4432
▁graph	-4433
▁lucky	-4434
▁puppy	-4435
▁artist	-4436
▁budget	-4437
▁joined	-4438
▁marked	-4439
▁symbol	-4440
▁massage	-4441
▁conflict	-4442
▁signific	-4443
▁umbrella	-4444
▁friendship	-4445
ids	-4446
ino	-4447
olm	-4448
▁Br	-4449
▁Ge	-4450
▁Ho	-4451
▁ju	-4452
fess	-4453
hand	-4454
▁Goo	-4455
▁Rec	-4456
▁enh	-4457
▁nor	-4458
▁sty	-4459
ially	-4460
orter	-4461
place	-4462
▁Call	-4463
▁cats	-4464
▁eggs	-4465
▁jump	-4466
▁legs	-4467
▁dilig	-4468
▁plays	-4469
▁trend	-4470
▁units	-4471
▁absent	-4472
▁drinks	-4473
▁likely	-4474
▁snacks	-4475
▁battery	-4476
▁clients	-4477
▁designer	-4478
▁features	-4479
▁opposite	-4480
▁submitted	-4481
▁permission	-4482
50	-4483
TA	-4484
pa	-4485
gal	-4486
ido	-4487
▁Pa	-4488
ondo	-4489
rics	-4490
▁map	-4491
▁wan	-4492
erson	-4493
orage	-4494
▁John	-4495
▁Talk	-4496
▁cast	-4497
▁push	-4498
▁recy	-4499
▁rock	-4500
▁sort	-4501
▁terr	-4502
▁blind	-4503
▁crime	-4504
▁frame	-4505
▁lover	-4506
▁lying	-4507
▁pants	-4508
▁plate	-4509
▁assist	-4510
▁crimin	-4511
▁kindly	-4512
▁speech	-4513
▁depends	-4514
▁diverse	-4515
▁growing	-4516
▁printing	-4517
▁tourists	-4518
▁expecting	-4519
▁advantages	-4520
▁attractions	-4521
ana	-4522
▁Mac	-4523
▁SNS	-4524
▁rap	-4525
▁tim	-4526
▁2016	-4527
▁chan	-4528
▁fear	-4529
▁rule	-4530
▁album	-4531
▁cable	-4532
▁empty	-4533
▁liter	-4534
▁pregn	-4535
▁teeth	-4536
▁Manila	-4537
▁beside	-4538
▁branch	-4539
▁expand	-4540
▁garden	-4541
▁jacket	-4542
▁pencil	-4543
▁survey	-4544
▁toilet	-4545
▁finding	-4546
▁imagine	-4547
▁Nowadays	-4548
▁property	-4549
▁requires	-4550
▁surround	-4551
▁weakness	-4552
▁depressed	-4553
▁establish	-4554
▁graduated	-4555
▁constantly	-4556
▁accommodation	-4557
egr	-4558
hib	-4559
ode	-4560
the	-4561
▁Us	-4562
▁bi	-4563
▁Get	-4564
▁mel	-4565
▁shy	-4566
▁sym	-4567
going	-4568
imate	-4569
▁City	-4570
▁chos	-4571
▁ends	-4572
▁fund	-4573
▁note	-4574
▁pure	-4575
▁scen	-4576
anghai	-4577
inated	-4578
▁sells	-4579
▁serve	-4580
ciation	-4581
▁groups	-4582
▁Another	-4583
▁Italian	-4584
▁arrives	-4585
▁despite	-4586
▁highest	-4587
▁passing	-4588
▁Shanghai	-4589
▁comments	-4590
▁confused	-4591
▁newspaper	-4592
ha	-4593
mo	-4594
how	-4595
▁Ok	-4596
chen	-4597
oted	-4598
page	-4599
▁Mus	-4600
▁ful	-4601
▁jam	-4602
▁wal	-4603
▁awes	-4604
▁insp	-4605
▁nose	-4606
ession	-4607
▁apple	-4608
▁frust	-4609
▁judge	-4610
ultural	-4611
▁guests	-4612
▁series	-4613
▁stable	-4614
▁Profess	-4615
▁cheaper	-4616
▁counter	-4617
▁courage	-4618
▁storage	-4619
▁Moreover	-4620
▁pleasant	-4621
▁shooting	-4622
▁cosmetics	-4623
▁entertain	-4624
▁regardless	-4625
▁Unfortunately	-4626
nis	-4627
▁cy	-4628
aret	-4629
chol	-4630
lear	-4631
▁ABC	-4632
▁pow	-4633
▁spl	-4634
ators	-4635
fered	-4636
imbap	-4637
ublic	-4638
ulate	-4639
▁Kang	-4640
▁bear	-4641
▁shot	-4642
anging	-4643
▁Paris	-4644
▁eaten	-4645
▁ended	-4646
▁grown	-4647
▁ideal	-4648
▁magaz	-4649
▁names	-4650
▁scary	-4651
▁straw	-4652
▁tests	-4653
▁chosen	-4654
▁dating	-4655
▁destro	-4656
▁detect	-4657
▁raised	-4658
▁Gangnam	-4659
▁awesome	-4660
▁carried	-4661
▁hearing	-4662
▁mission	-4663
▁univers	-4664
▁buildings	-4665
▁processed	-4666
▁assignment	-4667
▁basketball	-4668
▁contacting	-4669
▁personally	-4670
▁grandfather	-4671
▁perspective	-4672
bon	-4673
ler	-4674
reg	-4675
▁Af	-4676
▁Fl	-4677
aven	-4678
know	-4679
town	-4680
▁cig	-4681
▁hes	-4682
agram	-4683
iable	-4684
▁Keep	-4685
▁Love	-4686
▁bags	-4687
▁path	-4688
▁Gwang	-4689
▁brain	-4690
▁cards	-4691
▁click	-4692
▁magic	-4693
▁delete	-4694
▁histor	-4695
▁plenty	-4696
▁degrees	-4697
▁designs	-4698
▁officer	-4699
▁arriving	-4700
▁subjects	-4701
▁accomplish	-4702
▁thoroughly	-4703
▁installation	-4704
2.	-4705
▁1,	-4706
▁hi	-4707
care	-4708
days	-4709
ingu	-4710
mony	-4711
onna	-4712
ruct	-4713
▁Bra	-4714
▁CEO	-4715
▁Use	-4716
▁bak	-4717
▁ded	-4718
rible	-4719
▁lock	-4720
▁moon	-4721
▁civil	-4722
▁pride	-4723
▁subst	-4724
▁trash	-4725
▁cousin	-4726
▁invite	-4727
▁latest	-4728
▁nights	-4729
▁factors	-4730
▁greatly	-4731
▁friendly	-4732
▁guarantee	-4733
▁providing	-4734
▁warehouse	-4735
▁population	-4736
▁throughout	-4737
▁complicated	-4738
▁certification	-4739
3.	-4740
4.	-4741
▁26	-4742
▁Oh	-4743
cles	-4744
rest	-4745
rink	-4746
▁era	-4747
vered	-4748
▁East	-4749
▁adop	-4750
▁fees	-4751
▁sett	-4752
essert	-4753
▁adapt	-4754
▁bloss	-4755
▁invol	-4756
▁prize	-4757
▁usual	-4758
▁wanna	-4759
▁resear	-4760
▁volume	-4761
▁waited	-4762
▁dropped	-4763
▁lessons	-4764
▁limited	-4765
▁pleased	-4766
▁Tomorrow	-4767
▁actively	-4768
▁ceremony	-4769
▁majoring	-4770
▁uploaded	-4771
▁Professor	-4772
▁signature	-4773
▁originally	-4774
IC	-4775
▁x	-4776
ows	-4777
▁Per	-4778
▁hop	-4779
▁inj	-4780
▁led	-4781
arily	-4782
icing	-4783
upper	-4784
▁chem	-4785
▁coup	-4786
▁logo	-4787
▁pump	-4788
▁dolls	-4789
▁motiv	-4790
▁uncle	-4791
▁whose	-4792
▁Google	-4793
▁compos	-4794
▁integr	-4795
▁models	-4796
▁fishing	-4797
▁worries	-4798
▁relative	-4799
▁proceeded	-4800
▁established	-4801
lus	-4802
oro	-4803
▁Co	-4804
▁Os	-4805
▁Sy	-4806
▁TO	-4807
gage	-4808
otto	-4809
▁Res	-4810
▁Tae	-4811
▁gif	-4812
▁muk	-4813
estly	-4814
oices	-4815
▁capt	-4816
▁dram	-4817
▁emph	-4818
▁pron	-4819
▁Women	-4820
▁award	-4821
▁leads	-4822
▁sites	-4823
▁upper	-4824
▁allows	-4825
▁cherry	-4826
▁launch	-4827
▁mainly	-4828
▁theory	-4829
▁covered	-4830
▁enterpr	-4831
▁minimum	-4832
▁welcome	-4833
▁chatting	-4834
▁complain	-4835
▁presents	-4836
▁celebrate	-4837
▁computers	-4838
▁exhausted	-4839
▁happening	-4840
▁sentences	-4841
▁smartphones	-4842
▁broadcasting	-4843
▁conversations	-4844
ao	-4845
dom	-4846
▁Ro	-4847
ores	-4848
▁Dep	-4849
▁Has	-4850
▁Jin	-4851
▁San	-4852
▁fra	-4853
▁gap	-4854
aling	-4855
inton	-4856
▁Asia	-4857
▁Show	-4858
▁grew	-4859
▁guid	-4860
uclear	-4861
▁crazy	-4862
▁imple	-4863
▁noise	-4864
▁paste	-4865
olution	-4866
▁German	-4867
▁butter	-4868
▁cities	-4869
▁finger	-4870
▁income	-4871
▁thinks	-4872
▁deleted	-4873
▁dessert	-4874
▁downtown	-4875
▁somebody	-4876
▁attaching	-4877
▁seriously	-4878
▁translator	-4879
af	-4880
...	-4881
eed	-4882
men	-4883
▁DH	-4884
▁Po	-4885
resp	-4886
▁Ear	-4887
▁Pre	-4888
▁Ste	-4889
▁War	-4890
▁sin	-4891
iries	-4892
known	-4893
▁drop	-4894
▁fool	-4895
▁gate	-4896
▁pros	-4897
overed	-4898
▁Based	-4899
▁honor	-4900
iveness	-4901
▁Hanbok	-4902
▁crying	-4903
▁degree	-4904
▁emphas	-4905
▁mechan	-4906
▁placed	-4907
▁senior	-4908
▁shared	-4909
▁unlike	-4910
▁appears	-4911
▁offered	-4912
▁approved	-4913
▁inventory	-4914
▁quotation	-4915
▁teenagers	-4916
▁recognized	-4917
▁preparation	-4918
fl	-4919
ij	-4920
100	-4921
▁28	-4922
oned	-4923
ushi	-4924
▁300	-4925
▁Bud	-4926
agues	-4927
berry	-4928
ipped	-4929
▁Good	-4930
▁adap	-4931
▁coin	-4932
▁dawn	-4933
▁lady	-4934
▁neat	-4935
▁nurse	-4936
▁outdo	-4937
▁rapid	-4938
ription	-4939
▁expert	-4940
▁houses	-4941
▁minute	-4942
▁signed	-4943
▁mukbang	-4944
▁seafood	-4945
▁texture	-4946
▁creative	-4947
▁continued	-4948
▁searching	-4949
▁commission	-4950
▁engineering	-4951
cut	-4952
▁IT	-4953
eras	-4954
onst	-4955
▁Art	-4956
▁Cho	-4957
▁phr	-4958
anish	-4959
antic	-4960
▁Jeon	-4961
▁elev	-4962
▁exit	-4963
▁fold	-4964
▁prec	-4965
▁prop	-4966
▁soul	-4967
▁inner	-4968
▁suits	-4969
▁teams	-4970
▁turns	-4971
iration	-4972
lection	-4973
▁bottle	-4974
▁extend	-4975
▁gained	-4976
▁pocket	-4977
▁wealth	-4978
▁cigaret	-4979
▁kitchen	-4980
▁managed	-4981
▁currency	-4982
▁priority	-4983
▁extremely	-4984
▁increases	-4985
▁pollution	-4986
▁additionally	-4987
edy	-4988
urb	-4989
▁60	-4990
▁Ul	-4991
▁ly	-4992
▁Bes	-4993
▁Hon	-4994
▁hat	-4995
▁jun	-4996
wondo	-4997
young	-4998
▁Cons	-4999
▁fits	-5000
▁hund	-5001
▁bound	-5002
▁diary	-5003
▁maybe	-5004
▁postp	-5005
▁stead	-5006
▁noodle	-5007
▁Control	-5008
▁arrival	-5009
▁comment	-5010
▁dancing	-5011
▁elderly	-5012
▁falling	-5013
▁hundred	-5014
▁journey	-5015
▁relieve	-5016
▁totally	-5017
▁Festival	-5018
▁facility	-5019
▁kindness	-5020
▁inquiries	-5021
▁investment	-5022
▁celebrities	-5023
▁educational	-5024
amb	-5025
bye	-5026
▁tu	-5027
arsh	-5028
dule	-5029
made	-5030
teok	-5031
▁DHL	-5032
▁fer	-5033
▁soy	-5034
ategy	-5035
mates	-5036
order	-5037
riger	-5038
wered	-5039
▁nurs	-5040
▁purs	-5041
▁seve	-5042
▁yard	-5043
ousand	-5044
▁Osaka	-5045
▁schol	-5046
▁suffe	-5047
▁tasty	-5048
▁tooth	-5049
▁withd	-5050
▁Though	-5051
▁recent	-5052
▁Besides	-5053
▁Instead	-5054
▁leading	-5055
▁penalty	-5056
▁smaller	-5057
▁ordering	-5058
▁partners	-5059
▁strategy	-5060
▁reference	-5061
▁attraction	-5062
▁electronic	-5063
▁embarrassed	-5064
da	-5065
yn	-5066
hee	-5067
▁70	-5068
▁IP	-5069
bies	-5070
eral	-5071
sych	-5072
▁cab	-5073
▁gat	-5074
▁pus	-5075
▁sac	-5076
▁wid	-5077
aches	-5078
aptop	-5079
bokki	-5080
▁Brit	-5081
▁argu	-5082
▁garb	-5083
▁loud	-5084
▁scan	-5085
▁Afric	-5086
▁divor	-5087
▁doubt	-5088
▁radio	-5089
▁sympt	-5090
▁Custom	-5091
▁gotten	-5092
▁iPhone	-5093
▁notify	-5094
▁picked	-5095
▁scient	-5096
▁surely	-5097
▁vitamin	-5098
▁external	-5099
▁refriger	-5100
▁relevant	-5101
▁operating	-5102
▁potential	-5103
▁generation	-5104
▁playground	-5105
▁translated	-5106
▁appreciated	-5107
CO	-5108
ker	-5109
uis	-5110
▁3.	-5111
eong	-5112
asion	-5113
ellig	-5114
heart	-5115
▁Time	-5116
▁flat	-5117
▁liqu	-5118
▁pull	-5119
▁reve	-5120
▁wood	-5121
▁booth	-5122
▁evalu	-5123
▁salad	-5124
▁youth	-5125
▁Russia	-5126
▁escape	-5127
▁orange	-5128
▁sleepy	-5129
▁tennis	-5130
▁wallet	-5131
▁baggage	-5132
▁cleaned	-5133
▁earthqu	-5134
▁grilled	-5135
▁vehicle	-5136
▁consists	-5137
▁engineer	-5138
▁gathered	-5139
rimination	-5140
▁consumers	-5141
▁emotional	-5142
▁Department	-5143
▁leadership	-5144
OS	-5145
kg	-5146
▁Gre	-5147
▁gun	-5148
▁mur	-5149
abled	-5150
idden	-5151
otalk	-5152
▁arts	-5153
▁boat	-5154
▁choo	-5155
▁fulf	-5156
lessly	-5157
vision	-5158
▁goals	-5159
▁horse	-5160
▁sandw	-5161
▁critic	-5162
▁flavor	-5163
▁laptop	-5164
▁pepper	-5165
▁century	-5166
▁channel	-5167
▁devices	-5168
▁focused	-5169
▁happier	-5170
▁nuclear	-5171
▁predict	-5172
▁advanced	-5173
▁approxim	-5174
▁attended	-5175
▁intellig	-5176
▁slightly	-5177
▁soldiers	-5178
▁thousand	-5179
▁attendant	-5180
▁performed	-5181
▁processing	-5182
8.	-5183
bi	-5184
jud	-5185
lim	-5186
exic	-5187
illa	-5188
▁cow	-5189
▁gar	-5190
acity	-5191
enced	-5192
iture	-5193
▁hole	-5194
▁rude	-5195
▁runs	-5196
lusion	-5197
minton	-5198
▁Mexic	-5199
▁brush	-5200
▁gonna	-5201
▁sushi	-5202
▁altern	-5203
▁brands	-5204
▁fluent	-5205
▁suffer	-5206
▁Spanish	-5207
▁answers	-5208
▁booking	-5209
▁touched	-5210
▁competit	-5211
▁disaster	-5212
▁interior	-5213
▁powerful	-5214
▁suffered	-5215
▁animation	-5216
▁component	-5217
▁passionate	-5218
▁comfortably	-5219
▁satisfaction	-5220
cm	-5221
gs	-5222
▁Wi	-5223
empt	-5224
hold	-5225
wise	-5226
▁Pal	-5227
▁wet	-5228
enger	-5229
itate	-5230
useok	-5231
▁Braz	-5232
▁Jang	-5233
▁arms	-5234
▁beat	-5235
▁flex	-5236
▁gent	-5237
▁ille	-5238
▁thin	-5239
▁bloom	-5240
▁brown	-5241
▁contr	-5242
▁incor	-5243
▁input	-5244
▁rainy	-5245
▁tries	-5246
▁valid	-5247
▁wheel	-5248
▁Anyway	-5249
▁Fortun	-5250
▁cleans	-5251
▁lights	-5252
▁prompt	-5253
▁retire	-5254
▁analyze	-5255
▁crowded	-5256
▁operate	-5257
▁answered	-5258
▁strongly	-5259
▁accidents	-5260
▁gradually	-5261
▁continuous	-5262
▁efficiency	-5263
▁distribution	-5264
▁circumstances	-5265
▁discrimination	-5266
▁AS	-5267
abor	-5268
gged	-5269
host	-5270
iber	-5271
illy	-5272
▁Tur	-5273
cient	-5274
▁Cong	-5275
▁Shin	-5276
▁boil	-5277
▁init	-5278
▁ment	-5279
▁Spain	-5280
▁alive	-5281
▁belly	-5282
▁congr	-5283
▁shock	-5284
ittance	-5285
▁Center	-5286
▁Regard	-5287
▁phones	-5288
▁rental	-5289
▁settle	-5290
▁source	-5291
▁Chuseok	-5292
▁markets	-5293
▁evidence	-5294
▁projects	-5295
▁solutions	-5296
▁colleagues	-5297
▁employment	-5298
▁internship	-5299
▁Fortunately	-5300
▁introduction	-5301
1,	-5302
1.	-5303
5,	-5304
RW	-5305
▁-	-5306
ago	-5307
gen	-5308
uls	-5309
▁Ed	-5310
▁Sc	-5311
aded	-5312
aled	-5313
ancy	-5314
asty	-5315
▁fro	-5316
▁ine	-5317
duces	-5318
fried	-5319
gment	-5320
inter	-5321
point	-5322
▁Both	-5323
▁stir	-5324
engers	-5325
ulated	-5326
▁1,000	-5327
▁Happy	-5328
▁annoy	-5329
▁prett	-5330
▁psych	-5331
▁sides	-5332
▁strap	-5333
▁truck	-5334
▁Brazil	-5335
▁Malays	-5336
▁Market	-5337
▁dispos	-5338
▁manner	-5339
▁switch	-5340
▁walked	-5341
▁congrat	-5342
▁digital	-5343
▁forgive	-5344
▁painful	-5345
▁Honestly	-5346
▁consumer	-5347
▁creating	-5348
▁diseases	-5349
▁elements	-5350
▁handling	-5351
▁headquar	-5352
▁smoothly	-5353
▁enjoyable	-5354
▁intention	-5355
▁political	-5356
▁relatives	-5357
▁discussing	-5358
▁foundation	-5359
▁industrial	-5360
▁remittance	-5361
▁conditioner	-5362
▁opportunities	-5363
wor	-5364
yer	-5365
▁00	-5366
▁PM	-5367
reed	-5368
▁199	-5369
▁Har	-5370
▁Ins	-5371
aewon	-5372
itter	-5373
▁Didn	-5374
▁asso	-5375
▁bowl	-5376
▁bull	-5377
▁cant	-5378
▁hide	-5379
▁susp	-5380
▁wore	-5381
▁Human	-5382
▁Jeong	-5383
▁Suwon	-5384
▁charm	-5385
▁clock	-5386
▁gifts	-5387
ificial	-5388
▁boiled	-5389
▁excess	-5390
▁landsc	-5391
▁square	-5392
▁garbage	-5393
▁systems	-5394
▁tourism	-5395
▁composed	-5396
▁followed	-5397
▁pregnant	-5398
▁princess	-5399
▁Instagram	-5400
▁certainly	-5401
▁estimated	-5402
▁interests	-5403
▁separated	-5404
▁statement	-5405
▁temporary	-5406
▁tradition	-5407
▁combination	-5408
▁independence	-5409
9.	-5410
gon	-5411
▁Da	-5412
aign	-5413
dies	-5414
pack	-5415
▁Pol	-5416
▁awk	-5417
▁rub	-5418
apped	-5419
ctors	-5420
icide	-5421
lines	-5422
▁burn	-5423
▁drug	-5424
▁stew	-5425
advant	-5426
shaped	-5427
▁court	-5428
▁reven	-5429
▁seven	-5430
▁stamp	-5431
▁stone	-5432
▁theme	-5433
▁anyway	-5434
▁cancer	-5435
▁exclus	-5436
▁exists	-5437
▁patent	-5438
▁reject	-5439
▁unable	-5440
▁Western	-5441
▁benefit	-5442
▁exposed	-5443
▁maximum	-5444
▁promote	-5445
▁tuition	-5446
▁affected	-5447
▁distingu	-5448
▁elevator	-5449
▁homepage	-5450
▁replaced	-5451
▁sunlight	-5452
▁terminal	-5453
▁badminton	-5454
▁returning	-5455
▁conclusion	-5456
▁connecting	-5457
▁determined	-5458
▁evaluation	-5459
▁consumption	-5460
2,	-5461
bu	-5462
duc	-5463
lam	-5464
pes	-5465
uct	-5466
▁Fe	-5467
▁Jo	-5468
ager	-5469
hern	-5470
iant	-5471
look	-5472
rier	-5473
▁Car	-5474
▁Eun	-5475
▁TOE	-5476
▁USD	-5477
▁cas	-5478
▁dur	-5479
▁aunt	-5480
▁furn	-5481
▁pill	-5482
▁symp	-5483
▁virt	-5484
▁wrap	-5485
itting	-5486
▁Honey	-5487
▁cried	-5488
▁dough	-5489
▁exams	-5490
▁hello	-5491
▁juice	-5492
▁semin	-5493
related	-5494
▁assemb	-5495
▁blocks	-5496
▁factor	-5497
▁gentle	-5498
▁awkward	-5499
▁fortune	-5500
▁however	-5501
▁reduced	-5502
▁sticker	-5503
▁testing	-5504
▁achieved	-5505
▁audience	-5506
▁chemical	-5507
▁romantic	-5508
▁behaviors	-5509
▁recognize	-5510
▁schedules	-5511
▁contribute	-5512
▁frustrated	-5513
▁accessories	-5514
',	-5515
PI	-5516
uel	-5517
usi	-5518
eper	-5519
upid	-5520
▁Med	-5521
▁Mil	-5522
▁ult	-5523
▁voc	-5524
▁wra	-5525
istry	-5526
▁Pres	-5527
▁bond	-5528
▁leak	-5529
▁onto	-5530
▁stim	-5531
cience	-5532
isions	-5533
▁Think	-5534
▁bless	-5535
▁catal	-5536
▁dirty	-5537
▁fairy	-5538
▁motto	-5539
▁pasta	-5540
▁react	-5541
▁scale	-5542
▁shops	-5543
▁spare	-5544
▁Having	-5545
▁crisis	-5546
▁ignore	-5547
▁killed	-5548
▁remain	-5549
▁superm	-5550
▁cameras	-5551
▁courses	-5552
▁satisfy	-5553
▁sightse	-5554
▁solving	-5555
▁Republic	-5556
▁decrease	-5557
▁reported	-5558
▁terrible	-5559
▁wherever	-5560
▁disadvant	-5561
▁everybody	-5562
▁packaging	-5563
▁paintings	-5564
▁practiced	-5565
▁earthquake	-5566
▁represents	-5567
▁regulations	-5568
▁successfully	-5569
AR	-5570
arp	-5571
kin	-5572
lig	-5573
husi	-5574
mate	-5575
ties	-5576
▁Aut	-5577
▁Sky	-5578
iance	-5579
lling	-5580
works	-5581
▁Four	-5582
▁bean	-5583
▁cott	-5584
▁pair	-5585
▁rode	-5586
▁unex	-5587
▁wise	-5588
▁About	-5589
▁Doesn	-5590
▁Earth	-5591
▁Gener	-5592
▁Until	-5593
▁cloud	-5594
▁entry	-5595
▁fever	-5596
▁immig	-5597
▁innov	-5598
▁polic	-5599
▁slipp	-5600
▁talks	-5601
▁advent	-5602
▁afford	-5603
▁bridge	-5604
▁desert	-5605
▁illust	-5606
▁negoti	-5607
▁parcel	-5608
▁plants	-5609
▁remote	-5610
▁severe	-5611
▁threat	-5612
▁Congrat	-5613
▁Itaewon	-5614
▁charges	-5615
▁couples	-5616
▁demonst	-5617
▁illegal	-5618
▁options	-5619
▁outdoor	-5620
▁campaign	-5621
▁happiest	-5622
▁managing	-5623
▁admission	-5624
▁authority	-5625
▁gathering	-5626
▁independent	-5627
▁transaction	-5628
▁transferred	-5629
▁concentration	-5630
ED	-5631
ox	-5632
ano	-5633
col	-5634
elf	-5635
rif	-5636
vin	-5637
▁CC	-5638
ades	-5639
gers	-5640
haps	-5641
irts	-5642
lest	-5643
unar	-5644
yang	-5645
▁KRW	-5646
▁fry	-5647
▁har	-5648
arest	-5649
aries	-5650
▁Yong	-5651
▁info	-5652
▁zone	-5653
ervice	-5654
iments	-5655
▁films	-5656
▁humid	-5657
▁occup	-5658
▁stops	-5659
▁stret	-5660
▁wound	-5661
▁Sejong	-5662
▁annual	-5663
▁athlet	-5664
▁facial	-5665
▁heaven	-5666
▁listed	-5667
▁obtain	-5668
▁offers	-5669
▁secure	-5670
▁stairs	-5671
▁unless	-5672
▁writer	-5673
▁Indones	-5674
▁actress	-5675
▁coating	-5676
▁consign	-5677
▁extract	-5678
▁hanging	-5679
▁noticed	-5680
▁remains	-5681
▁shuttle	-5682
▁Mountain	-5683
▁announce	-5684
▁choosing	-5685
▁listened	-5686
▁operated	-5687
▁scholars	-5688
▁urgently	-5689
▁organized	-5690
▁artificial	-5691
▁expressing	-5692
▁practicing	-5693
▁suggestion	-5694
▁television	-5695
▁universities	-5696
▁environmental	-5697
MP	-5698
ti	-5699
gun	-5700
icks	-5701
ived	-5702
yond	-5703
▁Dav	-5704
▁unn	-5705
andom	-5706
obile	-5707
osity	-5708
▁Sung	-5709
▁blow	-5710
▁cuis	-5711
▁gram	-5712
▁kiss	-5713
▁magn	-5714
▁mode	-5715
▁shoe	-5716
▁Apple	-5717
▁Being	-5718
▁Kyung	-5719
▁Tower	-5720
▁aband	-5721
▁draft	-5722
▁ghost	-5723
▁tools	-5724
▁tower	-5725
▁worst	-5726
respond	-5727
▁agreed	-5728
▁corner	-5729
▁ending	-5730
▁filter	-5731
▁insert	-5732
▁multip	-5733
▁papers	-5734
▁powder	-5735
▁punish	-5736
▁stupid	-5737
▁supple	-5738
▁visual	-5739
▁Firstly	-5740
▁aspects	-5741
▁dischar	-5742
▁enthusi	-5743
▁largest	-5744
▁profits	-5745
▁recover	-5746
▁capacity	-5747
▁carrying	-5748
▁examples	-5749
▁headache	-5750
▁policies	-5751
▁touching	-5752
▁withdraw	-5753
▁workshop	-5754
▁standards	-5755
▁accurately	-5756
▁correspond	-5757
▁passengers	-5758
▁protection	-5759
▁requesting	-5760
▁unexpected	-5761
▁advertising	-5762
▁compensation	-5763
▁refrigerator	-5764
▁administration	-5765
▁Congratulations	-5766
my	-5767
The	-5768
asc	-5769
woo	-5770
zen	-5771
etic	-5772
name	-5773
▁Fam	-5774
▁Gal	-5775
▁Red	-5776
▁jew	-5777
▁rat	-5778
table	-5779
▁Fore	-5780
▁Mich	-5781
▁enem	-5782
▁envy	-5783
▁lazy	-5784
▁pink	-5785
ieving	-5786
▁cloth	-5787
▁dates	-5788
▁flour	-5789
▁optim	-5790
llation	-5791
ression	-5792
▁Disney	-5793
▁fields	-5794
▁hotels	-5795
▁medium	-5796
▁mirror	-5797
▁pursue	-5798
▁freight	-5799
▁invited	-5800
▁parties	-5801
▁protein	-5802
▁raising	-5803
▁records	-5804
▁streets	-5805
▁concerns	-5806
▁involved	-5807
▁supports	-5808
▁extension	-5809
▁mountains	-5810
▁positively	-5811
▁expressions	-5812
▁performances	-5813
▁specifications	-5814
eds	-5815
hem	-5816
▁31	-5817
▁80	-5818
▁CD	-5819
▁OS	-5820
▁Wr	-5821
▁ep	-5822
ibly	-5823
inct	-5824
lete	-5825
moon	-5826
▁Bel	-5827
▁Cor	-5828
▁Fil	-5829
▁Jae	-5830
▁Men	-5831
▁Sim	-5832
▁Spe	-5833
▁Woo	-5834
▁anc	-5835
▁tag	-5836
▁yen	-5837
jeong	-5838
olute	-5839
undae	-5840
▁Budd	-5841
▁Sang	-5842
▁Sant	-5843
▁acts	-5844
▁chef	-5845
▁decl	-5846
▁drew	-5847
▁eats	-5848
▁indo	-5849
▁lies	-5850
▁Enjoy	-5851
▁basis	-5852
▁menus	-5853
▁renew	-5854
▁roast	-5855
▁robot	-5856
▁socks	-5857
▁tears	-5858
▁tells	-5859
▁weren	-5860
hearted	-5861
quality	-5862
working	-5863
▁Songdo	-5864
▁actors	-5865
▁earned	-5866
▁emails	-5867
▁joyful	-5868
▁polite	-5869
▁script	-5870
▁strugg	-5871
▁cuisine	-5872
▁cutting	-5873
▁seminar	-5874
▁shipper	-5875
▁smiling	-5876
▁strateg	-5877
▁upgrade	-5878
▁criminal	-5879
▁disabled	-5880
▁moisturi	-5881
▁abilities	-5882
▁everywhere	-5883
▁proceeding	-5884
▁considerate	-5885
▁institution	-5886
▁sightseeing	-5887
▁architecture	-5888
▁neighborhood	-5889
NE	-5890
500	-5891
Kim	-5892
agn	-5893
ifi	-5894
ils	-5895
med	-5896
▁2,	-5897
▁Ms	-5898
fish	-5899
ires	-5900
▁Hae	-5901
▁Sir	-5902
▁Sum	-5903
▁anx	-5904
arter	-5905
ograp	-5906
ports	-5907
ulous	-5908
years	-5909
▁Anna	-5910
▁Baek	-5911
▁Bang	-5912
▁Taek	-5913
▁coat	-5914
▁ears	-5915
▁fest	-5916
▁iron	-5917
▁mart	-5918
▁prim	-5919
▁sear	-5920
▁Games	-5921
▁faces	-5922
▁guard	-5923
▁numer	-5924
▁opera	-5925
▁remem	-5926
▁Unlike	-5927
▁ancest	-5928
▁beings	-5929
▁beyond	-5930
▁dramas	-5931
▁hidden	-5932
▁native	-5933
▁refres	-5934
▁skiing	-5935
▁tested	-5936
▁catalog	-5937
▁central	-5938
▁closest	-5939
▁dealing	-5940
▁goodbye	-5941
▁motorcy	-5942
▁printed	-5943
▁sincere	-5944
▁recorded	-5945
▁repeated	-5946
▁shoulder	-5947
▁talented	-5948
▁collected	-5949
▁encourage	-5950
▁luxurious	-5951
▁discussion	-5952
▁historical	-5953
▁supporting	-5954
▁corporation	-5955
▁cancellation	-5956
▁consultation	-5957
▁requirements	-5958
▁investigation	-5959
Fi	-5960
ks	-5961
nic	-5962
ran	-5963
tic	-5964
bits	-5965
rows	-5966
▁Hey	-5967
▁Jun	-5968
▁Spr	-5969
▁amb	-5970
▁eth	-5971
▁tur	-5972
▁vir	-5973
myeon	-5974
vents	-5975
water	-5976
▁Chic	-5977
▁Hope	-5978
▁Jane	-5979
▁Stop	-5980
▁Such	-5981
▁anti	-5982
▁sets	-5983
araoke	-5984
▁drawn	-5985
▁humor	-5986
▁layer	-5987
▁micro	-5988
▁recru	-5989
▁stuck	-5990
▁trial	-5991
▁Museum	-5992
▁domain	-5993
▁flying	-5994
▁fourth	-5995
▁golden	-5996
▁hiking	-5997
▁incred	-5998
▁lyrics	-5999
▁motion	-6000
▁nobody	-6001
▁sensor	-6002
▁strict	-6003
▁Daejeon	-6004
▁moments	-6005
▁obvious	-6006
▁reached	-6007
▁reminds	-6008
▁resolve	-6009
▁fighting	-6010
▁hardship	-6011
▁lectures	-6012
▁machines	-6013
▁magazine	-6014
▁religion	-6015
▁stronger	-6016
▁Kakaotalk	-6017
▁correctly	-6018
▁existence	-6019
▁furniture	-6020
▁incorrect	-6021
▁presented	-6022
▁principle	-6023
▁published	-6024
▁profession	-6025
▁relatively	-6026
▁effectively	-6027
▁imagination	-6028
▁individuals	-6029
▁significant	-6030
ado	-6031
isy	-6032
▁29	-6033
▁CO	-6034
bing	-6035
ette	-6036
wide	-6037
▁Cal	-6038
▁Seo	-6039
▁gor	-6040
▁pic	-6041
▁tor	-6042
anges	-6043
tered	-6044
▁Bank	-6045
▁Ever	-6046
▁chew	-6047
▁gall	-6048
▁grab	-6049
▁weap	-6050
rition	-6051
ynasty	-6052
▁Elect	-6053
▁Start	-6054
▁TOEIC	-6055
▁rains	-6056
▁recyc	-6057
▁scent	-6058
▁sharp	-6059
▁addict	-6060
▁brings	-6061
▁caring	-6062
▁compar	-6063
▁compat	-6064
▁cotton	-6065
▁coupon	-6066
▁exceed	-6067
▁former	-6068
▁packed	-6069
▁prince	-6070
▁prohib	-6071
▁saving	-6072
▁temple	-6073
▁valley	-6074
▁victim	-6075
together	-6076
▁alright	-6077
▁manners	-6078
▁painted	-6079
▁turning	-6080
▁charming	-6081
▁focusing	-6082
▁meetings	-6083
▁patterns	-6084
▁visitors	-6085
▁generally	-6086
▁interpret	-6087
▁landscape	-6088
▁complaints	-6089
▁directions	-6090
▁popularity	-6091
▁assignments	-6092
▁competitive	-6093
▁disappeared	-6094
▁electricity	-6095
▁manufactured	-6096
▁manufacturer	-6097
box	-6098
iam	-6099
omy	-6100
son	-6101
whe	-6102
zed	-6103
▁0.	-6104
▁IS	-6105
▁MC	-6106
▁Op	-6107
cies	-6108
vest	-6109
▁Haw	-6110
▁mut	-6111
▁vib	-6112
proof	-6113
▁Hyun	-6114
▁Wolm	-6115
▁diam	-6116
▁idol	-6117
▁soju	-6118
▁soph	-6119
ealand	-6120
enance	-6121
▁Using	-6122
▁forms	-6123
▁jewel	-6124
▁rates	-6125
▁shirt	-6126
▁shoot	-6127
▁skirt	-6128
▁unfor	-6129
▁wrink	-6130
▁Indian	-6131
▁hearts	-6132
▁parent	-6133
▁passes	-6134
▁phrase	-6135
▁rarely	-6136
▁scenes	-6137
▁British	-6138
▁Chicago	-6139
▁chances	-6140
▁counsel	-6141
▁housing	-6142
▁objects	-6143
▁seasons	-6144
▁absolute	-6145
▁identity	-6146
▁searched	-6147
▁surprise	-6148
▁Christian	-6149
▁construct	-6150
▁producing	-6151
▁reviewing	-6152
▁supported	-6153
▁attachment	-6154
▁designated	-6155
▁ingredient	-6156
▁physically	-6157
▁inconvenient	-6158
▁volunteering	-6159
AT	-6160
hew	-6161
ipe	-6162
▁AA	-6163
▁Ag	-6164
▁MO	-6165
▁Na	-6166
hens	-6167
rian	-6168
▁Out	-6169
▁Rem	-6170
▁den	-6171
▁kne	-6172
▁pra	-6173
▁sou	-6174
▁yog	-6175
based	-6176
class	-6177
ecess	-6178
outer	-6179
press	-6180
venir	-6181
▁Yoon	-6182
▁euro	-6183
▁laun	-6184
▁race	-6185
▁Music	-6186
▁Right	-6187
▁Three	-6188
▁accum	-6189
▁alarm	-6190
▁cakes	-6191
▁corre	-6192
▁medal	-6193
▁oblig	-6194
▁pharm	-6195
▁shrim	-6196
▁10,000	-6197
▁Valent	-6198
▁begins	-6199
▁errors	-6200
▁excuse	-6201
▁hardly	-6202
▁mental	-6203
▁module	-6204
▁unfair	-6205
▁Usually	-6206
▁colored	-6207
▁herself	-6208
▁hobbies	-6209
▁leather	-6210
▁matches	-6211
▁organiz	-6212
▁sisters	-6213
▁suicide	-6214
▁prevents	-6215
▁reaction	-6216
▁software	-6217
▁souvenir	-6218
▁supplied	-6219
▁troubles	-6220
▁violence	-6221
▁Taekwondo	-6222
▁clearance	-6223
▁Vietnamese	-6224
▁accounting	-6225
▁procedures	-6226
▁maintenance	-6227
▁outstanding	-6228
▁scholarship	-6229
▁intelligence	-6230
▁entertainment	-6231
▁characteristic	-6232
11	-6233
IS	-6234
MO	-6235
km	-6236
ael	-6237
bec	-6238
hab	-6239
jun	-6240
lin	-6241
▁4.	-6242
▁Em	-6243
utor	-6244
wear	-6245
weed	-6246
▁Fed	-6247
▁ble	-6248
▁fal	-6249
▁fif	-6250
▁god	-6251
▁nar	-6252
▁row	-6253
▁rum	-6254
iques	-6255
ivals	-6256
▁Rome	-6257
▁Wang	-6258
▁Yeon	-6259
▁bare	-6260
▁bell	-6261
▁belt	-6262
ansion	-6263
▁5,000	-6264
▁Chung	-6265
▁dried	-6266
▁genre	-6267
▁irrit	-6268
▁nutri	-6269
▁presc	-6270
▁south	-6271
amiliar	-6272
ibimbap	-6273
▁Comple	-6274
▁breath	-6275
▁execut	-6276
▁fought	-6277
▁fundam	-6278
▁lawyer	-6279
▁posted	-6280
▁prejud	-6281
friendly	-6282
▁Despite	-6283
▁Olympic	-6284
▁besides	-6285
▁command	-6286
▁lightly	-6287
▁precise	-6288
▁European	-6289
▁academic	-6290
▁believed	-6291
▁cosmetic	-6292
▁organize	-6293
ifications	-6294
▁corrected	-6295
▁festivals	-6296
▁workplace	-6297
▁calculated	-6298
▁enterprise	-6299
▁regulation	-6300
▁distinguish	-6301
▁introducing	-6302
▁recognition	-6303
▁experiencing	-6304
▁participation	-6305
4,	-6306
ER	-6307
OT	-6308
VR	-6309
cra	-6310
mal	-6311
zer	-6312
▁45	-6313
▁90	-6314
▁er	-6315
bble	-6316
xual	-6317
▁Por	-6318
▁ack	-6319
▁tip	-6320
acher	-6321
alous	-6322
bered	-6323
ijing	-6324
isure	-6325
▁Ange	-6326
▁Educ	-6327
▁Jose	-6328
▁Part	-6329
▁Yang	-6330
▁crew	-6331
▁kick	-6332
▁lend	-6333
▁nine	-6334
▁phil	-6335
▁pour	-6336
▁rise	-6337
▁wave	-6338
cerity	-6339
ipping	-6340
▁Above	-6341
▁bills	-6342
▁eight	-6343
▁meets	-6344
▁spoon	-6345
▁subsc	-6346
▁Africa	-6347
▁Palace	-6348
▁carbon	-6349
▁circle	-6350
▁mature	-6351
▁pronun	-6352
▁twenty	-6353
▁violin	-6354
▁vision	-6355
▁Beijing	-6356
▁Russian	-6357
▁absence	-6358
▁artists	-6359
▁briefly	-6360
▁creates	-6361
▁dressed	-6362
▁failure	-6363
▁heating	-6364
▁majored	-6365
▁nearest	-6366
▁removed	-6367
▁singers	-6368
▁Malaysia	-6369
▁arranged	-6370
▁collabor	-6371
▁interact	-6372
▁Americans	-6373
▁Everybody	-6374
▁afterward	-6375
▁defective	-6376
▁departure	-6377
▁forgotten	-6378
▁honeymoon	-6379
▁unfamiliar	-6380
40	-6381
yu	-6382
Pal	-6383
des	-6384
eem	-6385
ien	-6386
imi	-6387
ius	-6388
lom	-6389
pal	-6390
pop	-6391
ups	-6392
uts	-6393
vis	-6394
yst	-6395
▁Jj	-6396
▁Ma	-6397
▁ge	-6398
chon	-6399
hour	-6400
hyun	-6401
▁Del	-6402
▁spr	-6403
ading	-6404
rical	-6405
while	-6406
▁Choi	-6407
▁buck	-6408
▁poem	-6409
▁tape	-6410
actory	-6411
▁Event	-6412
▁Thats	-6413
▁Yeong	-6414
▁index	-6415
▁liber	-6416
▁pages	-6417
▁wears	-6418
▁acknow	-6419
▁convey	-6420
▁crimes	-6421
▁forced	-6422
▁format	-6423
▁levels	-6424
▁locked	-6425
▁revise	-6426
▁scores	-6427
▁sexual	-6428
▁sorrow	-6429
▁styles	-6430
▁Perhaps	-6431
▁Service	-6432
▁anybody	-6433
▁apology	-6434
▁examine	-6435
▁heading	-6436
▁initial	-6437
▁injured	-6438
▁jealous	-6439
▁leisure	-6440
▁printer	-6441
▁reports	-6442
▁survive	-6443
▁sympath	-6444
▁warming	-6445
formation	-6446
▁accounts	-6447
▁articles	-6448
▁assemble	-6449
▁breaking	-6450
▁forecast	-6451
▁memorize	-6452
▁peaceful	-6453
▁restroom	-6454
▁unforget	-6455
▁uniforms	-6456
▁unnecess	-6457
▁Valentine	-6458
▁described	-6459
▁household	-6460
▁photograp	-6461
▁stability	-6462
▁beforehand	-6463
▁businesses	-6464
▁motorcycle	-6465
▁strawberry	-6466
3,	-6467
60	-6468
▁.	-6469
ebu	-6470
gog	-6471
off	-6472
omb	-6473
▁El	-6474
▁Im	-6475
▁LA	-6476
▁La	-6477
▁Wa	-6478
▁od	-6479
Talk	-6480
apes	-6481
born	-6482
emor	-6483
free	-6484
▁Sin	-6485
▁pul	-6486
▁sav	-6487
▁sir	-6488
emplo	-6489
orted	-6490
umber	-6491
▁Cebu	-6492
▁Comm	-6493
▁Wind	-6494
▁cock	-6495
▁defe	-6496
▁plug	-6497
▁rail	-6498
▁scar	-6499
▁thro	-6500
▁Dream	-6501
▁House	-6502
▁Never	-6503
▁Watch	-6504
▁false	-6505
▁onion	-6506
▁opens	-6507
▁recip	-6508
▁scold	-6509
▁shame	-6510
▁threw	-6511
istance	-6512
▁50,000	-6513
▁Pororo	-6514
▁babies	-6515
▁bubble	-6516
▁desper	-6517
▁gender	-6518
▁indeed	-6519
▁intens	-6520
▁serial	-6521
▁stocks	-6522
▁Michael	-6523
▁Nothing	-6524
▁attempt	-6525
▁disturb	-6526
▁editing	-6527
▁essence	-6528
▁fulfill	-6529
▁grammar	-6530
▁oneself	-6531
▁selfish	-6532
▁Recently	-6533
▁combined	-6534
▁firmware	-6535
▁judgment	-6536
▁measures	-6537
▁numerous	-6538
▁stickers	-6539
▁Regarding	-6540
▁architect	-6541
▁automatic	-6542
▁determine	-6543
▁graduating	-6544
▁internally	-6545
▁invitation	-6546
▁resolution	-6547
▁countryside	-6548
▁supermarket	-6549
-1	-6550
7,	-6551
Ch	-6552
py	-6553
cho	-6554
ero	-6555
fit	-6556
▁Ju	-6557
▁ec	-6558
bors	-6559
elly	-6560
fers	-6561
isco	-6562
▁See	-6563
▁lob	-6564
▁nap	-6565
▁sib	-6566
▁tal	-6567
▁zoo	-6568
anted	-6569
eness	-6570
hetic	-6571
inate	-6572
loved	-6573
poses	-6574
▁2018	-6575
▁Life	-6576
▁asks	-6577
▁cand	-6578
▁clin	-6579
▁joke	-6580
▁lets	-6581
▁oven	-6582
▁panc	-6583
▁sang	-6584
▁tone	-6585
▁2015.	-6586
▁2017.	-6587
▁David	-6588
▁Hawai	-6589
▁River	-6590
▁fatig	-6591
▁grows	-6592
▁minds	-6593
▁sweat	-6594
▁PayPal	-6595
▁admire	-6596
▁garlic	-6597
▁meters	-6598
▁myster	-6599
▁random	-6600
▁recall	-6601
▁stored	-6602
▁Product	-6603
▁Thirdly	-6604
▁closely	-6605
▁elastic	-6606
▁figures	-6607
▁filming	-6608
▁harmful	-6609
▁karaoke	-6610
▁neither	-6611
▁skating	-6612
▁speaker	-6613
▁victory	-6614
teokbokki	-6615
▁blossoms	-6616
▁category	-6617
▁constant	-6618
▁launched	-6619
▁potatoes	-6620
▁consignee	-6621
▁cooperate	-6622
▁displayed	-6623
▁exclusive	-6624
▁implement	-6625
▁personnel	-6626
▁sincerity	-6627
▁classmates	-6628
▁collection	-6629
▁remembered	-6630
▁alternative	-6631
▁unnecessary	-6632
▁unforgettable	-6633
IP	-6634
bre	-6635
ito	-6636
law	-6637
oll	-6638
rab	-6639
yal	-6640
iles	-6641
iner	-6642
mark	-6643
oons	-6644
osop	-6645
rant	-6646
umes	-6647
▁Big	-6648
▁Sea	-6649
▁Ser	-6650
▁cho	-6651
▁ham	-6652
▁rot	-6653
acing	-6654
itute	-6655
osaur	-6656
undai	-6657
▁List	-6658
▁Play	-6659
▁mini	-6660
▁ther	-6661
▁toys	-6662
▁vent	-6663
▁worn	-6664
estyle	-6665
▁Chang	-6666
▁Trans	-6667
▁chart	-6668
▁delic	-6669
▁harsh	-6670
▁outer	-6671
▁prove	-6672
▁steps	-6673
▁towel	-6674
fection	-6675
ography	-6676
▁breaks	-6677
▁dollar	-6678
▁luxury	-6679
▁prison	-6680
▁studio	-6681
▁Someone	-6682
▁athlete	-6683
▁beloved	-6684
▁billion	-6685
▁grandma	-6686
▁offline	-6687
▁relaxed	-6688
▁seaweed	-6689
▁shocked	-6690
ibilities	-6691
▁Whenever	-6692
▁acquaint	-6693
▁diligent	-6694
▁instance	-6695
▁interpre	-6696
▁proposed	-6697
▁purposes	-6698
▁superior	-6699
▁textbook	-6700
▁administr	-6701
▁answering	-6702
▁corporate	-6703
▁fantastic	-6704
▁reception	-6705
▁challenges	-6706
▁creativity	-6707
▁retirement	-6708
▁approximately	-6709
6.	-6710
80	-6711
PA	-6712
fu	-6713
aid	-6714
gue	-6715
ixt	-6716
nal	-6717
oty	-6718
pie	-6719
sis	-6720
vit	-6721
▁UK	-6722
etch	-6723
gogi	-6724
▁Bal	-6725
▁Ram	-6726
▁Sil	-6727
▁dip	-6728
▁obt	-6729
▁thr	-6730
▁uns	-6731
aming	-6732
sized	-6733
vince	-6734
▁Hang	-6735
▁bird	-6736
▁mold	-6737
▁nick	-6738
▁pets	-6739
▁prem	-6740
▁slic	-6741
esteem	-6742
ilding	-6743
inting	-6744
liness	-6745
reness	-6746
school	-6747
▁Bible	-6748
▁cells	-6749
▁cough	-6750
▁metal	-6751
▁neckl	-6752
▁overl	-6753
▁route	-6754
▁steel	-6755
▁Hawaii	-6756
▁habits	-6757
▁harmon	-6758
▁palace	-6759
▁trends	-6760
▁wishes	-6761
▁Hyundai	-6762
▁Stadium	-6763
▁Village	-6764
▁ancient	-6765
▁blocked	-6766
▁funeral	-6767
▁harmony	-6768
▁muscles	-6769
▁nursing	-6770
▁propose	-6771
▁session	-6772
▁adjusted	-6773
▁reliable	-6774
▁steadily	-6775
▁supplies	-6776
▁upcoming	-6777
▁decisions	-6778
▁neighbors	-6779
▁nutrients	-6780
▁nutrition	-6781
▁technique	-6782
▁vegetable	-6783
▁attendance	-6784
▁punishment	-6785
▁revolution	-6786
▁sufficient	-6787
▁techniques	-6788
▁replacement	-6789
▁pronunciation	-6790
▁advertisements	-6791
AD	-6792
TS	-6793
TV	-6794
300	-6795
urt	-6796
▁LG	-6797
agon	-6798
anas	-6799
aser	-6800
lass	-6801
phew	-6802
rupt	-6803
ucks	-6804
uine	-6805
▁Ber	-6806
▁Pot	-6807
▁Sud	-6808
▁Sup	-6809
▁Vis	-6810
▁ash	-6811
▁bid	-6812
▁syn	-6813
▁tom	-6814
aghet	-6815
ankly	-6816
check	-6817
force	-6818
ieves	-6819
oween	-6820
store	-6821
▁Were	-6822
▁West	-6823
▁epis	-6824
▁insu	-6825
▁lake	-6826
▁rein	-6827
▁saus	-6828
angers	-6829
ulture	-6830
▁Apply	-6831
▁Gangh	-6832
▁Skype	-6833
▁Ulsan	-6834
▁aging	-6835
▁anger	-6836
▁appet	-6837
▁conse	-6838
▁enorm	-6839
▁minor	-6840
▁moves	-6841
▁multi	-6842
▁taxes	-6843
▁waves	-6844
aghetti	-6845
osexual	-6846
▁Master	-6847
▁Mexico	-6848
▁Travel	-6849
▁doesnt	-6850
▁elimin	-6851
▁faulty	-6852
▁formed	-6853
▁mathem	-6854
▁nephew	-6855
▁observ	-6856
▁resume	-6857
▁rising	-6858
▁verify	-6859
▁cookies	-6860
▁dreamed	-6861
▁encoura	-6862
▁enhance	-6863
▁fatigue	-6864
▁rapidly	-6865
▁reviews	-6866
▁soldier	-6867
▁strengt	-6868
▁virtual	-6869
itionally	-6870
▁assigned	-6871
▁multiple	-6872
▁patience	-6873
▁philosop	-6874
▁resemble	-6875
▁sometime	-6876
▁Halloween	-6877
▁KakaoTalk	-6878
▁attracted	-6879
▁conscious	-6880
▁improving	-6881
▁territory	-6882
▁compliment	-6883
▁influenced	-6884
▁installing	-6885
▁scientific	-6886
▁challenging	-6887
▁specification	-6888
AS	-6889
IF	-6890
wr	-6891
xy	-6892
esh	-6893
mit	-6894
olk	-6895
que	-6896
▁AI	-6897
▁Ah	-6898
▁Dr	-6899
▁pu	-6900
ango	-6901
face	-6902
norm	-6903
ouch	-6904
race	-6905
tail	-6906
yung	-6907
▁Bul	-6908
▁Bup	-6909
▁Dan	-6910
▁Net	-6911
▁Ori	-6912
▁Whe	-6913
▁awa	-6914
▁ens	-6915
▁oct	-6916
▁pad	-6917
▁sne	-6918
atics	-6919
atisf	-6920
▁Jong	-6921
▁Moon	-6922
▁boys	-6923
▁caut	-6924
▁fake	-6925
▁laws	-6926
▁sexy	-6927
▁typh	-6928
▁Hongk	-6929
▁Islam	-6930
▁Write	-6931
▁buses	-6932
▁candy	-6933
▁chest	-6934
▁femin	-6935
▁flies	-6936
▁noisy	-6937
▁persu	-6938
▁screw	-6939
▁trips	-6940
agement	-6941
▁Person	-6942
▁Pyeong	-6943
▁Winter	-6944
▁apples	-6945
▁barbec	-6946
▁batter	-6947
▁behave	-6948
▁betray	-6949
▁duties	-6950
▁hiding	-6951
▁horror	-6952
▁orient	-6953
▁picnic	-6954
▁shrimp	-6955
▁fantasy	-6956
▁pension	-6957
▁seconds	-6958
▁serving	-6959
▁stretch	-6960
▁teaches	-6961
▁trading	-6962
▁worship	-6963
▁borrowed	-6964
▁climbing	-6965
▁football	-6966
▁imported	-6967
▁offering	-6968
▁punished	-6969
▁reviewed	-6970
▁treasure	-6971
▁President	-6972
▁Something	-6973
▁abandoned	-6974
▁classical	-6975
▁destroyed	-6976
▁excessive	-6977
▁expresses	-6978
▁specialty	-6979
▁instrument	-6980
▁interviews	-6981
▁mechanical	-6982
▁competitors	-6983
▁composition	-6984
▁distributed	-6985
▁fundamental	-6986
▁meaningless	-6987
▁applications	-6988
▁misunderstand	-6989
eks	-6990
guk	-6991
ica	-6992
ria	-6993
▁5.	-6994
▁xx	-6995
acle	-6996
airm	-6997
anda	-6998
ench	-6999
gant	-7000
well	-7001
▁Dok	-7002
▁Rob	-7003
▁Ven	-7004
▁Wal	-7005
▁ast	-7006
▁der	-7007
▁mud	-7008
▁tap	-7009
essed	-7010
iddle	-7011
issue	-7012
▁Port	-7013
▁Turn	-7014
▁Yout	-7015
▁blog	-7016
▁dent	-7017
▁diss	-7018
▁inse	-7019
▁lamp	-7020
▁mand	-7021
▁ours	-7022
▁poet	-7023
▁subt	-7024
ishing	-7025
rating	-7026
▁Store	-7027
▁champ	-7028
▁equal	-7029
▁essay	-7030
▁rides	-7031
▁solid	-7032
▁split	-7033
▁stere	-7034
▁width	-7035
arbucks	-7036
▁Fourth	-7037
▁Spring	-7038
▁Sudden	-7039
▁abnorm	-7040
▁arrest	-7041
▁bakery	-7042
▁belief	-7043
▁estate	-7044
▁facing	-7045
▁poster	-7046
▁refers	-7047
▁smiles	-7048
▁spaces	-7049
▁throat	-7050
▁washed	-7051
▁Science	-7052
▁belongs	-7053
▁closing	-7054
▁conclud	-7055
▁fastest	-7056
▁fingers	-7057
▁genuine	-7058
▁illness	-7059
▁inquire	-7060
▁jewelry	-7061
▁lacking	-7062
▁nations	-7063
▁routine	-7064
▁settled	-7065
▁Hongkong	-7066
▁beverage	-7067
▁prettier	-7068
▁province	-7069
▁relieved	-7070
▁sandwich	-7071
▁supplier	-7072
▁Education	-7073
▁cleansing	-7074
▁daughters	-7075
▁institute	-7076
▁reflected	-7077
▁strengths	-7078
▁automobile	-7079
▁guesthouse	-7080
▁researcher	-7081
▁measurement	-7082
▁stomachache	-7083
▁expectations	-7084
▁insufficient	-7085
▁reservations	-7086
ka	-7087
axy	-7088
aya	-7089
ban	-7090
dae	-7091
▁BL	-7092
▁Cr	-7093
list	-7094
ynam	-7095
▁Ass	-7096
▁Att	-7097
▁Bas	-7098
▁Ben	-7099
▁Gir	-7100
▁Hye	-7101
▁Ive	-7102
▁Los	-7103
▁Sub	-7104
▁bot	-7105
▁dum	-7106
▁fle	-7107
▁fur	-7108
▁lip	-7109
▁por	-7110
▁san	-7111
▁wis	-7112
endar	-7113
etime	-7114
▁Char	-7115
▁Plus	-7116
▁Thai	-7117
▁Yuna	-7118
▁buff	-7119
▁chop	-7120
▁core	-7121
▁duck	-7122
▁edge	-7123
▁hire	-7124
▁lied	-7125
▁lips	-7126
▁noon	-7127
▁rely	-7128
▁sake	-7129
▁seek	-7130
▁sung	-7131
▁wifi	-7132
▁wild	-7133
▁writ	-7134
giving	-7135
hentic	-7136
stairs	-7137
▁Black	-7138
▁White	-7139
▁amend	-7140
▁brave	-7141
▁disag	-7142
▁expos	-7143
▁fancy	-7144
▁gorge	-7145
▁salon	-7146
▁Jackal	-7147
▁Jeonju	-7148
▁Turkey	-7149
▁barely	-7150
▁formal	-7151
▁guidel	-7152
▁narrow	-7153
▁planet	-7154
▁silver	-7155
▁stated	-7156
▁Complex	-7157
▁Foreign	-7158
▁delight	-7159
▁greater	-7160
▁mindset	-7161
▁quietly	-7162
▁typical	-7163
icultural	-7164
▁assembly	-7165
▁bringing	-7166
▁brothers	-7167
▁calendar	-7168
▁inspired	-7169
▁intended	-7170
▁protects	-7171
▁symptoms	-7172
▁weekdays	-7173
▁announced	-7174
▁committed	-7175
▁conflicts	-7176
▁confusion	-7177
▁continues	-7178
▁designing	-7179
▁prejudice	-7180
▁respected	-7181
▁worldwide	-7182
▁correction	-7183
▁literature	-7184
▁mysterious	-7185
▁translating	-7186
▁photographer	-7187
.'	-7188
IN	-7189
bow	-7190
lar	-7191
oop	-7192
she	-7193
ula	-7194
▁7.	-7195
▁Ac	-7196
▁CS	-7197
▁EM	-7198
▁Si	-7199
cont	-7200
icip	-7201
itis	-7202
lege	-7203
opus	-7204
part	-7205
rete	-7206
what	-7207
▁Set	-7208
▁boo	-7209
▁hug	-7210
▁pin	-7211
craft	-7212
dered	-7213
▁Gold	-7214
▁Kids	-7215
▁Line	-7216
▁Mart	-7217
▁ages	-7218
▁butt	-7219
▁cure	-7220
▁curi	-7221
▁fuel	-7222
▁issu	-7223
▁leaf	-7224
▁unav	-7225
▁vert	-7226
airman	-7227
ashimi	-7228
inseng	-7229
iverse	-7230
▁Inter	-7231
▁admit	-7232
▁amuse	-7233
▁funds	-7234
▁grass	-7235
▁holds	-7236
▁prose	-7237
▁spons	-7238
▁Family	-7239
▁Indust	-7240
▁Joseon	-7241
▁Mother	-7242
▁Sports	-7243
▁Things	-7244
▁appeal	-7245
▁assess	-7246
▁associ	-7247
▁banana	-7248
▁inevit	-7249
▁infect	-7250
▁signal	-7251
▁stands	-7252
▁widely	-7253
▁Teacher	-7254
▁divorce	-7255
▁gallery	-7256
▁publish	-7257
▁quarter	-7258
▁regions	-7259
▁sadness	-7260
▁snowing	-7261
▁thermal	-7262
▁typhoon	-7263
▁winning	-7264
▁Business	-7265
▁controll	-7266
▁frequent	-7267
▁generous	-7268
▁gorgeous	-7269
▁hesitate	-7270
▁invented	-7271
▁necklace	-7272
▁nickname	-7273
▁postpone	-7274
▁rejected	-7275
▁Customers	-7276
▁Indonesia	-7277
▁Starbucks	-7278
▁awareness	-7279
▁cigarette	-7280
▁comparing	-7281
▁complaint	-7282
▁lifestyle	-7283
▁processes	-7284
▁Eventually	-7285
▁completion	-7286
▁officially	-7287
▁professors	-7288
▁maintaining	-7289
▁negotiation	-7290
▁verification	-7291
▁recommendation	-7292
AN	-7293
fa	-7294
ora	-7295
oto	-7296
roc	-7297
▁36	-7298
▁9.	-7299
▁Bo	-7300
aked	-7301
cuit	-7302
gypt	-7303
mbur	-7304
osis	-7305
otic	-7306
rain	-7307
weet	-7308
▁400	-7309
▁Cup	-7310
▁Glo	-7311
▁Sur	-7312
▁toy	-7313
aired	-7314
ajang	-7315
allow	-7316
iches	-7317
irect	-7318
itage	-7319
liest	-7320
overy	-7321
▁Feel	-7322
▁Land	-7323
▁Miss	-7324
▁Norm	-7325
▁Seop	-7326
▁Star	-7327
▁bite	-7328
▁dece	-7329
▁grat	-7330
▁lean	-7331
▁skip	-7332
▁tong	-7333
arious	-7334
rifice	-7335
▁Seong	-7336
▁euros	-7337
▁incom	-7338
▁proof	-7339
▁ratio	-7340
▁roles	-7341
▁shake	-7342
▁spots	-7343
iculous	-7344
itution	-7345
▁Nobody	-7346
▁bodies	-7347
▁casual	-7348
▁conver	-7349
▁gently	-7350
▁hospit	-7351
▁larger	-7352
▁lenses	-7353
▁output	-7354
▁rained	-7355
▁speaks	-7356
▁terror	-7357
▁thirty	-7358
▁tiring	-7359
▁Gangwon	-7360
▁Gwangju	-7361
▁blanket	-7362
▁capable	-7363
▁causing	-7364
▁hardest	-7365
▁letting	-7366
▁resting	-7367
▁utilize	-7368
▁barbecue	-7369
▁cheering	-7370
▁midnight	-7371
▁occasion	-7372
▁politics	-7373
▁vehicles	-7374
▁worrying	-7375
▁authentic	-7376
▁gratitude	-7377
▁adjustment	-7378
▁delivering	-7379
▁disposable	-7380
▁membership	-7381
▁refreshing	-7382
▁achievement	-7383
▁instruction	-7384
▁headquarters	-7385
▁communicating	-7386
▁misunderstood	-7387
IM	-7388
ma	-7389
aki	-7390
cha	-7391
▁AM	-7392
▁Yu	-7393
ault	-7394
cipe	-7395
down	-7396
ints	-7397
suit	-7398
ulum	-7399
▁API	-7400
▁Cam	-7401
▁Cur	-7402
▁EMS	-7403
▁Hel	-7404
▁Son	-7405
▁Wel	-7406
▁Yoo	-7407
▁dye	-7408
▁pil	-7409
▁ske	-7410
celer	-7411
elled	-7412
ghter	-7413
ician	-7414
pting	-7415
style	-7416
wards	-7417
▁Bill	-7418
▁Meet	-7419
▁Seok	-7420
▁obst	-7421
▁perf	-7422
▁pose	-7423
▁ribs	-7424
▁rose	-7425
▁stab	-7426
encies	-7427
iences	-7428
tering	-7429
uction	-7430
▁Cheon	-7431
▁Egypt	-7432
▁Lunar	-7433
▁Under	-7434
▁abuse	-7435
▁coord	-7436
▁defin	-7437
▁diagn	-7438
▁dumpl	-7439
▁mouse	-7440
▁notes	-7441
jection	-7442
looking	-7443
ologies	-7444
utation	-7445
▁Anyone	-7446
▁Eating	-7447
▁Myeong	-7448
▁battle	-7449
▁buyers	-7450
▁checks	-7451
▁covers	-7452
▁deeper	-7453
▁digest	-7454
▁endure	-7455
▁evenly	-7456
▁hambur	-7457
▁indoor	-7458
▁murder	-7459
▁ranked	-7460
▁taller	-7461
▁tomato	-7462
▁College	-7463
▁Looking	-7464
▁bottles	-7465
▁endless	-7466
▁finance	-7467
▁midterm	-7468
▁primary	-7469
▁replied	-7470
▁screens	-7471
▁unemplo	-7472
▁unknown	-7473
▁Suddenly	-7474
▁dinosaur	-7475
▁enormous	-7476
▁fluently	-7477
▁greeting	-7478
▁guidance	-7479
▁humidity	-7480
▁laughing	-7481
▁outgoing	-7482
▁relation	-7483
▁amusement	-7484
▁curiosity	-7485
▁decreased	-7486
▁exchanged	-7487
▁expansion	-7488
▁fermented	-7489
▁occurring	-7490
▁sacrifice	-7491
▁telephone	-7492
▁cigarettes	-7493
▁discovered	-7494
▁prohibited	-7495
▁surprising	-7496
▁experiments	-7497
▁understands	-7498
▁consistently	-7499
▁modification	-7500
▁particularly	-7501
▁organizations	-7502
-2	-7503
.1	-7504
18	-7505
AP	-7506
sp	-7507
asp	-7508
aza	-7509
azz	-7510
boy	-7511
car	-7512
ini	-7513
oli	-7514
soo	-7515
spe	-7516
▁Ha	-7517
▁Ob	-7518
aken	-7519
coin	-7520
ompl	-7521
uate	-7522
▁198	-7523
▁Bob	-7524
▁Inc	-7525
▁LED	-7526
▁Val	-7527
▁dim	-7528
▁hip	-7529
▁pit	-7530
arian	-7531
month	-7532
nergy	-7533
umped	-7534
uting	-7535
▁Cour	-7536
▁Supp	-7537
▁Work	-7538
▁appl	-7539
▁evil	-7540
▁eyel	-7541
▁fasc	-7542
▁hygi	-7543
▁mild	-7544
▁reun	-7545
▁slee	-7546
▁tale	-7547
▁tons	-7548
▁unre	-7549
▁weld	-7550
nament	-7551
orters	-7552
rently	-7553
▁2014.	-7554
▁Buddh	-7555
▁Dokdo	-7556
▁Franc	-7557
▁Money	-7558
▁Seung	-7559
▁banks	-7560
▁bench	-7561
▁birds	-7562
▁blame	-7563
▁bunch	-7564
▁democ	-7565
▁dying	-7566
▁enemy	-7567
▁falls	-7568
▁innoc	-7569
▁oppon	-7570
▁shell	-7571
▁sizes	-7572
▁toast	-7573
berries	-7574
▁Cheong	-7575
▁Health	-7576
▁Summer	-7577
▁advise	-7578
▁castle	-7579
▁comedy	-7580
▁cowork	-7581
▁franch	-7582
▁hoping	-7583
▁pulled	-7584
▁recipe	-7585
▁states	-7586
▁tariff	-7587
▁thesis	-7588
▁wooden	-7589
▁Dynasty	-7590
▁Youtube	-7591
▁acceler	-7592
▁affects	-7593
▁approve	-7594
▁butterf	-7595
▁climate	-7596
▁defined	-7597
▁inspect	-7598
▁possess	-7599
▁regards	-7600
▁suspect	-7601
▁windows	-7602
▁Probably	-7603
▁Students	-7604
▁Whatever	-7605
▁critical	-7606
▁describe	-7607
▁disagree	-7608
▁election	-7609
▁improves	-7610
▁lifetime	-7611
▁promises	-7612
▁promoted	-7613
▁reducing	-7614
▁youngest	-7615
▁messenger	-7616
▁religious	-7617
▁succeeded	-7618
▁transform	-7619
▁altogether	-7620
▁consistent	-7621
▁expiration	-7622
▁homosexual	-7623
▁monitoring	-7624
▁motivation	-7625
▁philosophy	-7626
▁differently	-7627
▁instructions	-7628
▁specifically	-7629
▁establishment	-7630
▁multicultural	-7631
12	-7632
32	-7633
9,	-7634
Ex	-7635
ya	-7636
cue	-7637
ema	-7638
kok	-7639
▁6.	-7640
▁Av	-7641
▁DB	-7642
▁OE	-7643
▁Ol	-7644
assy	-7645
case	-7646
daem	-7647
gung	-7648
odel	-7649
ribe	-7650
wood	-7651
zzle	-7652
▁150	-7653
▁Ask	-7654
▁Lim	-7655
▁Mat	-7656
▁Mir	-7657
▁UPS	-7658
▁avo	-7659
▁lod	-7660
▁ped	-7661
▁spa	-7662
▁tie	-7663
attle	-7664
▁Chan	-7665
▁Home	-7666
▁Mary	-7667
▁Open	-7668
▁Sout	-7669
▁acid	-7670
▁chap	-7671
▁crab	-7672
▁dear	-7673
▁dial	-7674
▁shad	-7675
▁sofa	-7676
▁tail	-7677
▁vend	-7678
▁wand	-7679
▁west	-7680
▁2,000	-7681
▁Filip	-7682
▁Harry	-7683
▁Smart	-7684
▁Water	-7685
▁agric	-7686
▁baked	-7687
▁crack	-7688
▁dedic	-7689
▁didnt	-7690
▁excel	-7691
▁greed	-7692
▁quote	-7693
▁salty	-7694
▁stays	-7695
ception	-7696
▁Choose	-7697
▁Middle	-7698
▁baking	-7699
▁bucket	-7700
▁candid	-7701
▁closet	-7702
▁cruise	-7703
▁deduct	-7704
▁differ	-7705
▁enroll	-7706
▁fallen	-7707
▁owners	-7708
▁repeat	-7709
▁rescue	-7710
▁stream	-7711
▁tongue	-7712
▁volunt	-7713
▁wholes	-7714
aneously	-7715
▁Without	-7716
▁benefic	-7717
▁element	-7718
▁fitness	-7719
▁healing	-7720
▁organic	-7721
▁revenue	-7722
▁romance	-7723
▁sashimi	-7724
▁scolded	-7725
▁trusted	-7726
abilities	-7727
▁Bupyeong	-7728
▁Electron	-7729
▁earliest	-7730
▁examined	-7731
▁excluded	-7732
▁greatest	-7733
▁replying	-7734
▁resolved	-7735
▁roommate	-7736
▁somewhat	-7737
▁stations	-7738
▁universe	-7739
▁verified	-7740
▁wrinkles	-7741
▁adventure	-7742
▁breathing	-7743
▁colleague	-7744
▁recovered	-7745
▁recycling	-7746
▁referring	-7747
▁spreading	-7748
▁therefore	-7749
▁absolutely	-7750
▁definition	-7751
▁depression	-7752
▁maintained	-7753
▁strengthen	-7754
▁waterproof	-7755
▁disadvantages	-7756
70	-7757
bn	-7758
li	-7759
ux	-7760
rot	-7761
thm	-7762
▁3,	-7763
▁35	-7764
▁Id	-7765
abet	-7766
bean	-7767
fall	-7768
grad	-7769
iche	-7770
mith	-7771
roid	-7772
test	-7773
usan	-7774
warm	-7775
▁Bor	-7776
▁Cle	-7777
▁Jul	-7778
▁Soo	-7779
▁bug	-7780
▁fax	-7781
▁kil	-7782
ampoo	-7783
exist	-7784
ounge	-7785
▁Boss	-7786
▁Food	-7787
▁ador	-7788
▁cups	-7789
▁flag	-7790
▁hadn	-7791
▁icon	-7792
▁mill	-7793
▁puts	-7794
▁smok	-7795
erable	-7796
ynamic	-7797
▁Bring	-7798
▁Great	-7799
▁Still	-7800
▁Sweet	-7801
▁badly	-7802
▁cruel	-7803
▁grace	-7804
▁horiz	-7805
▁manip	-7806
▁reset	-7807
▁skate	-7808
▁virus	-7809
ulating	-7810
▁Father	-7811
▁Global	-7812
▁accord	-7813
▁allerg	-7814
▁assets	-7815
▁commit	-7816
▁curric	-7817
▁divide	-7818
▁donate	-7819
▁encoun	-7820
▁fairly	-7821
▁heroes	-7822
▁insect	-7823
▁junior	-7824
▁liquid	-7825
▁salmon	-7826
▁shapes	-7827
▁smells	-7828
▁string	-7829
▁subtit	-7830
▁therap	-7831
▁thrill	-7832
▁trains	-7833
▁wheels	-7834
▁Angeles	-7835
▁Bangkok	-7836
▁accompl	-7837
▁annoyed	-7838
▁anxious	-7839
▁artwork	-7840
▁circuit	-7841
▁council	-7842
▁diamond	-7843
▁discard	-7844
▁killing	-7845
▁observe	-7846
▁proport	-7847
▁roasted	-7848
▁seniors	-7849
▁shining	-7850
▁somehow	-7851
▁stocked	-7852
▁trained	-7853
▁wrapped	-7854
▁cheerful	-7855
▁division	-7856
▁junction	-7857
▁overtime	-7858
▁removing	-7859
▁revealed	-7860
▁stereoty	-7861
▁tendency	-7862
▁Francisco	-7863
▁alongside	-7864
▁ancestors	-7865
▁designers	-7866
▁excluding	-7867
▁exercises	-7868
▁frequency	-7869
▁strangers	-7870
▁underwear	-7871
▁collecting	-7872
▁comparison	-7873
▁concerning	-7874
▁confirming	-7875
▁diligently	-7876
▁performing	-7877
▁satisfying	-7878
▁accordingly	-7879
▁efficiently	-7880
▁interaction	-7881
▁Thanksgiving	-7882
▁announcement	-7883
▁identification	-7884
34	-7885
mi	-7886
ms	-7887
ari	-7888
aug	-7889
aze	-7890
enn	-7891
ext	-7892
iel	-7893
ola	-7894
▁BB	-7895
▁Fo	-7896
▁PD	-7897
▁Up	-7898
▁ug	-7899
aker	-7900
dney	-7901
itan	-7902
jung	-7903
lets	-7904
osun	-7905
oudy	-7906
▁Dub	-7907
▁GMO	-7908
▁Jud	-7909
▁Law	-7910
▁Lou	-7911
▁ads	-7912
▁bon	-7913
▁eco	-7914
▁fed	-7915
▁hyd	-7916
hythm	-7917
iforn	-7918
▁2015	-7919
▁Arab	-7920
▁Cook	-7921
▁Over	-7922
▁Real	-7923
▁Soon	-7924
▁Test	-7925
▁loan	-7926
▁sole	-7927
▁unus	-7928
moking	-7929
rehens	-7930
▁Found	-7931
▁Green	-7932
▁Press	-7933
▁beans	-7934
▁brace	-7935
▁broch	-7936
▁cabin	-7937
▁conso	-7938
▁jelly	-7939
▁marks	-7940
▁merit	-7941
▁nails	-7942
▁north	-7943
▁pound	-7944
▁queen	-7945
▁rolls	-7946
▁squid	-7947
▁stood	-7948
▁toler	-7949
▁views	-7950
▁waist	-7951
cepting	-7952
develop	-7953
ifornia	-7954
inating	-7955
leyball	-7956
▁Galaxy	-7957
▁Sydney	-7958
▁assume	-7959
▁cloudy	-7960
▁cultiv	-7961
▁entert	-7962
▁frozen	-7963
▁hairst	-7964
▁insist	-7965
▁league	-7966
▁snowed	-7967
▁Various	-7968
▁Washing	-7969
▁burning	-7970
▁cartoon	-7971
▁conserv	-7972
▁convent	-7973
▁daytime	-7974
▁defense	-7975
▁dislike	-7976
▁graphic	-7977
▁handled	-7978
▁instant	-7979
▁liberal	-7980
▁octopus	-7981
▁praying	-7982
▁pushing	-7983
▁symptom	-7984
▁transpa	-7985
▁violent	-7986
▁Building	-7987
▁appetite	-7988
▁cocktail	-7989
▁concrete	-7990
▁divorced	-7991
▁evaluate	-7992
▁flexible	-7993
▁freshman	-7994
▁pharmacy	-7995
▁regional	-7996
▁settings	-7997
▁skincare	-7998
▁allowance	-7999
▁calculate	-8000
▁contracts	-8001
▁criminals	-8002
▁highlight	-8003
▁motivated	-8004
▁protected	-8005
▁spaghetti	-8006
▁uploading	-8007
▁utilizing	-8008
▁California	-8009
▁controlled	-8010
▁curriculum	-8011
▁discounted	-8012
▁explaining	-8013
▁percentage	-8014
▁quantities	-8015
▁accomplished	-8016
▁hospitalized	-8017
▁moisturizing	-8018
▁corresponding	-8019
CC	-8020
OC	-8021
ST	-8022
vi	-8023
hou	-8024
hye	-8025
iox	-8026
lor	-8027
mma	-8028
rip	-8029
sid	-8030
uum	-8031
wha	-8032
yun	-8033
▁3-	-8034
▁Hw	-8035
▁LC	-8036
▁Mc	-8037
▁OK	-8038
ales	-8039
bong	-8040
card	-8041
erry	-8042
iger	-8043
ilst	-8044
ilty	-8045
oman	-8046
racy	-8047
uous	-8048
▁Bar	-8049
▁Den	-8050
▁Met	-8051
▁Mun	-8052
▁hun	-8053
▁unh	-8054
▁wig	-8055
▁wit	-8056
Smith	-8057
acter	-8058
athol	-8059
chang	-8060
cular	-8061
earch	-8062
ebook	-8063
hroom	-8064
rific	-8065
ushed	-8066
▁2014	-8067
▁Chun	-8068
▁Mark	-8069
▁Mong	-8070
▁Sure	-8071
▁chip	-8072
▁coke	-8073
▁corn	-8074
▁dign	-8075
▁fond	-8076
▁hill	-8077
▁pine	-8078
▁shel	-8079
▁sink	-8080
▁tiny	-8081
▁wins	-8082
asting	-8083
ellect	-8084
ensive	-8085
▁FedEx	-8086
▁Group	-8087
▁Steve	-8088
▁angle	-8089
▁auton	-8090
▁chewy	-8091
▁coins	-8092
▁hated	-8093
▁holes	-8094
▁knife	-8095
▁knock	-8096
▁lobby	-8097
▁loose	-8098
▁Paypal	-8099
▁deterg	-8100
▁diplom	-8101
▁ensure	-8102
▁extent	-8103
▁layout	-8104
▁muscle	-8105
▁nearly	-8106
▁nicely	-8107
▁reform	-8108
▁relief	-8109
▁remark	-8110
▁rented	-8111
▁retail	-8112
▁visits	-8113
▁wisdom	-8114
iconduct	-8115
▁Parents	-8116
▁ashamed	-8117
▁blossom	-8118
▁boiling	-8119
▁capture	-8120
▁crucial	-8121
▁dentist	-8122
▁desires	-8123
▁filling	-8124
▁honored	-8125
▁ignored	-8126
▁intense	-8127
▁joining	-8128
▁mothers	-8129
▁premium	-8130
▁sellers	-8131
▁warning	-8132
▁addicted	-8133
▁artistic	-8134
▁catching	-8135
▁cheapest	-8136
▁commemor	-8137
▁contrary	-8138
▁district	-8139
▁explains	-8140
▁extended	-8141
▁identify	-8142
▁invoices	-8143
▁matching	-8144
▁measured	-8145
▁mushroom	-8146
▁notebook	-8147
▁officers	-8148
▁opponent	-8149
▁protocol	-8150
▁reporter	-8151
▁resource	-8152
▁teamwork	-8153
▁vertical	-8154
▁vitamins	-8155
▁accepting	-8156
▁adjusting	-8157
▁assistant	-8158
▁bookstore	-8159
▁bothering	-8160
▁celebrity	-8161
▁deposited	-8162
▁healthier	-8163
▁identical	-8164
▁intellect	-8165
▁objective	-8166
▁compatible	-8167
▁completing	-8168
▁differenti	-8169
▁properties	-8170
▁reputation	-8171
▁settlement	-8172
▁approaching	-8173
▁immigration	-8174
▁implemented	-8175
▁specialized	-8176
▁enthusiastic	-8177
▁participants	-8178
▁perspectives	-8179
▁psychological	-8180
SD	-8181
hi	-8182
00.	-8183
Bay	-8184
hot	-8185
tim	-8186
▁2-	-8187
▁Il	-8188
▁PE	-8189
▁SM	-8190
rise	-8191
unic	-8192
▁ASM	-8193
▁Dad	-8194
▁Gim	-8195
▁Sol	-8196
▁Tem	-8197
▁dot	-8198
▁gal	-8199
▁mos	-8200
▁scr	-8201
▁sew	-8202
▁wat	-8203
ancer	-8204
ancou	-8205
esity	-8206
eters	-8207
ittee	-8208
power	-8209
ridge	-8210
shirt	-8211
▁1000	-8212
▁Dear	-8213
▁Free	-8214
▁Gree	-8215
▁Mike	-8216
▁Paul	-8217
▁Snow	-8218
▁Stay	-8219
▁Swed	-8220
▁Walk	-8221
▁dome	-8222
▁hook	-8223
▁plot	-8224
▁roof	-8225
▁sees	-8226
▁silk	-8227
▁slim	-8228
▁sons	-8229
▁tent	-8230
▁thus	-8231
quence	-8232
▁2016.	-8233
▁3,000	-8234
▁Grand	-8235
▁James	-8236
▁Kevin	-8237
▁Place	-8238
▁Santa	-8239
▁Wolmi	-8240
▁abund	-8241
▁assum	-8242
▁bever	-8243
▁chick	-8244
▁coinc	-8245
▁colon	-8246
▁crush	-8247
▁deals	-8248
▁fewer	-8249
▁hates	-8250
▁jeans	-8251
▁posts	-8252
▁sciss	-8253
▁vocab	-8254
▁weigh	-8255
chester	-8256
colored	-8257
smoking	-8258
▁Always	-8259
▁Autumn	-8260
▁Bridge	-8261
▁League	-8262
▁Vancou	-8263
▁Venice	-8264
▁column	-8265
▁debate	-8266
▁fixing	-8267
▁injury	-8268
▁lovers	-8269
▁simult	-8270
▁sunset	-8271
▁transm	-8272
▁vacuum	-8273
ferences	-8274
ffection	-8275
▁100,000	-8276
▁Welcome	-8277
▁Whether	-8278
▁adopted	-8279
▁breathe	-8280
▁ceiling	-8281
▁choices	-8282
▁confess	-8283
▁context	-8284
▁demands	-8285
▁deserve	-8286
▁diction	-8287
▁dispute	-8288
▁perfume	-8289
▁pretend	-8290
▁pronoun	-8291
▁puppies	-8292
▁readers	-8293
▁returns	-8294
▁sausage	-8295
▁shampoo	-8296
▁Everland	-8297
▁Province	-8298
▁admitted	-8299
▁argument	-8300
▁charging	-8301
▁colorful	-8302
▁distinct	-8303
▁dreaming	-8304
▁dressing	-8305
▁honestly	-8306
▁musician	-8307
▁obtained	-8308
▁refunded	-8309
▁relaxing	-8310
▁seasoned	-8311
▁shocking	-8312
▁shortage	-8313
▁stranger	-8314
▁Gyeongbok	-8315
▁Vancouver	-8316
▁addiction	-8317
▁beverages	-8318
▁competent	-8319
▁forwarder	-8320
▁launching	-8321
▁magazines	-8322
▁practices	-8323
▁precisely	-8324
▁purchases	-8325
▁reduction	-8326
▁residents	-8327
▁selection	-8328
▁assessment	-8329
▁containers	-8330
▁instructor	-8331
▁organizing	-8332
▁preventing	-8333
▁protecting	-8334
▁tteokbokki	-8335
▁volleyball	-8336
▁Electronics	-8337
▁departments	-8338
▁photographs	-8339
▁photography	-8340
▁suggestions	-8341
▁accommodations	-8342
15	-8343
IA	-8344
ID	-8345
30.	-8346
bnb	-8347
gae	-8348
gel	-8349
jae	-8350
juk	-8351
nia	-8352
obs	-8353
zes	-8354
▁CP	-8355
▁IR	-8356
▁Mu	-8357
▁Ve	-8358
▁jj	-8359
ctic	-8360
iary	-8361
oven	-8362
rome	-8363
teen	-8364
▁Ari	-8365
▁Hee	-8366
▁Pri	-8367
▁Rel	-8368
▁Squ	-8369
▁cro	-8370
▁lid	-8371
▁rab	-8372
akers	-8373
etang	-8374
heast	-8375
inger	-8376
ontin	-8377
piece	-8378
▁Aven	-8379
▁Back	-8380
▁Cind	-8381
▁Fall	-8382
▁Lord	-8383
▁Move	-8384
▁folk	-8385
▁pond	-8386
▁rush	-8387
▁tatt	-8388
▁vacc	-8389
▁vote	-8390
itamin	-8391
person	-8392
shirts	-8393
▁Exper	-8394
▁Macao	-8395
▁begun	-8396
▁boost	-8397
▁chief	-8398
▁clubs	-8399
▁curry	-8400
▁explo	-8401
▁forth	-8402
▁fragr	-8403
▁heads	-8404
▁merch	-8405
▁remit	-8406
▁royal	-8407
▁shout	-8408
▁snows	-8409
▁swear	-8410
▁urban	-8411
▁vivid	-8412
▁windy	-8413
orthern	-8414
unction	-8415
▁Chosun	-8416
▁Design	-8417
▁Greece	-8418
▁Street	-8419
▁campus	-8420
▁fortun	-8421
▁greedy	-8422
▁guilty	-8423
▁handic	-8424
▁headed	-8425
▁intent	-8426
▁liquor	-8427
▁lounge	-8428
▁mutual	-8429
▁perman	-8430
▁promot	-8431
▁refuse	-8432
▁rhythm	-8433
▁shadow	-8434
▁sliced	-8435
▁sooner	-8436
▁summar	-8437
▁Central	-8438
▁Develop	-8439
▁cafeter	-8440
▁consent	-8441
▁doctors	-8442
▁enables	-8443
▁episode	-8444
▁foolish	-8445
▁partial	-8446
▁posting	-8447
▁privacy	-8448
▁signing	-8449
▁species	-8450
▁surfing	-8451
▁talents	-8452
▁tension	-8453
▁updates	-8454
▁victims	-8455
▁visitor	-8456
▁abnormal	-8457
▁athletes	-8458
▁delicate	-8459
▁facebook	-8460
▁horizont	-8461
▁inviting	-8462
▁packages	-8463
▁throwing	-8464
▁upgraded	-8465
▁achieving	-8466
▁analyzing	-8467
▁basically	-8468
▁contained	-8469
▁developer	-8470
▁discharge	-8471
▁incidents	-8472
▁promoting	-8473
▁shoulders	-8474
▁sophistic	-8475
▁thickness	-8476
▁accordance	-8477
▁decoration	-8478
▁dictionary	-8479
▁electrical	-8480
▁industries	-8481
▁influences	-8482
▁overcoming	-8483
▁preference	-8484
▁principles	-8485
▁sandwiches	-8486
▁tournament	-8487
▁celebrating	-8488
▁continually	-8489
▁generations	-8490
▁interpreter	-8491
▁mathematics	-8492
▁partnership	-8493
▁semiconduct	-8494
▁temporarily	-8495
▁certificates	-8496
▁congratulate	-8497
▁transferring	-8498
▁consciousness	-8499
▁personalities	-8500
BA	-8501
DP	-8502
IT	-8503
TM	-8504
eon	-8505
epr	-8506
gir	-8507
iot	-8508
loc	-8509
olf	-8510
opy	-8511
pot	-8512
▁34	-8513
▁CR	-8514
▁IC	-8515
▁VR	-8516
oken	-8517
uepr	-8518
vial	-8519
▁DVR	-8520
▁Pat	-8521
▁Run	-8522
▁Sal	-8523
▁cin	-8524
▁ink	-8525
▁rac	-8526
▁sam	-8527
▁une	-8528
agger	-8529
icons	-8530
ictor	-8531
oston	-8532
owner	-8533
rogen	-8534
sters	-8535
verty	-8536
▁2017	-8537
▁CCTV	-8538
▁Nick	-8539
▁Oper	-8540
▁Term	-8541
▁burd	-8542
▁debt	-8543
▁eBay	-8544
▁edit	-8545
▁flaw	-8546
▁melo	-8547
▁myst	-8548
▁rope	-8549
▁seed	-8550
▁vill	-8551
▁wage	-8552
ferent	-8553
ifully	-8554
vation	-8555
▁Enter	-8556
▁acted	-8557
▁aside	-8558
▁audio	-8559
▁awake	-8560
▁debut	-8561
▁drops	-8562
▁eager	-8563
▁finds	-8564
▁flash	-8565
▁fries	-8566
▁hired	-8567
▁incur	-8568
▁lacks	-8569
▁moral	-8570
▁sauna	-8571
▁shift	-8572
▁stole	-8573
▁tires	-8574
▁toner	-8575
atholic	-8576
ointing	-8577
regular	-8578
ruption	-8579
▁Airbnb	-8580
▁Except	-8581
▁Potter	-8582
▁Rather	-8583
▁Wonder	-8584
▁basics	-8585
▁bluepr	-8586
▁buffet	-8587
▁diving	-8588
▁forces	-8589
▁microw	-8590
▁outfit	-8591
▁roller	-8592
▁serves	-8593
▁sheets	-8594
▁softly	-8595
▁sprink	-8596
▁stabil	-8597
▁topics	-8598
▁welcom	-8599
▁acquire	-8600
▁banking	-8601
▁barrier	-8602
▁claimed	-8603
▁easiest	-8604
▁explore	-8605
▁ginseng	-8606
▁hitting	-8607
▁issuing	-8608
▁leakage	-8609
▁lottery	-8610
▁outcome	-8611
▁posture	-8612
▁poverty	-8613
▁recruit	-8614
▁visible	-8615
▁warrant	-8616
▁weapons	-8617
▁workout	-8618
▁Airlines	-8619
▁Filipino	-8620
▁Haeundae	-8621
▁Ministry	-8622
▁Starting	-8623
▁adorable	-8624
▁balanced	-8625
▁bullying	-8626
▁darkness	-8627
▁decorate	-8628
▁duration	-8629
▁imagined	-8630
▁infected	-8631
▁leftover	-8632
▁majority	-8633
▁managers	-8634
▁obsessed	-8635
▁payments	-8636
▁rational	-8637
▁recovery	-8638
▁regarded	-8639
▁supervis	-8640
▁upstairs	-8641
▁versions	-8642
▁acknowled	-8643
▁appearing	-8644
▁batteries	-8645
▁cafeteria	-8646
▁decorated	-8647
▁execution	-8648
▁franchise	-8649
▁hairstyle	-8650
▁invention	-8651
▁postponed	-8652
▁principal	-8653
▁qualities	-8654
▁seasoning	-8655
▁snowboard	-8656
▁wholesale	-8657
▁assistance	-8658
▁downloaded	-8659
▁exchanging	-8660
▁forwarding	-8661
▁incredible	-8662
▁integrated	-8663
▁laboratory	-8664
▁newspapers	-8665
▁repeatedly	-8666
▁surrounded	-8667
▁thoughtful	-8668
▁arrangement	-8669
▁headquarter	-8670
▁surrounding	-8671
▁circumstance	-8672
▁illustration	-8673
▁intellectual	-8674
▁surroundings	-8675
▁qualification	-8676
▁sophisticated	-8677
si	-8678
yo	-8679
bel	-8680
cur	-8681
hak	-8682
hwa	-8683
oos	-8684
udi	-8685
uli	-8686
▁Ki	-8687
▁PP	-8688
▁ax	-8689
firm	-8690
itto	-8691
olen	-8692
onal	-8693
reen	-8694
rene	-8695
umin	-8696
▁000	-8697
▁10.	-8698
▁600	-8699
▁Ban	-8700
▁Ken	-8701
▁Mot	-8702
▁Off	-8703
▁oxy	-8704
▁und	-8705
▁van	-8706
▁vou	-8707
▁yes	-8708
chain	-8709
estay	-8710
stick	-8711
stone	-8712
yalty	-8713
▁Blue	-8714
▁Expl	-8715
▁Game	-8716
▁Lets	-8717
▁Nice	-8718
▁Okay	-8719
▁Wall	-8720
▁cabb	-8721
▁east	-8722
▁eyeb	-8723
▁font	-8724
▁hack	-8725
▁hell	-8726
▁knee	-8727
▁memo	-8728
▁mesh	-8729
▁mile	-8730
▁prog	-8731
▁scat	-8732
▁semi	-8733
▁tank	-8734
▁tips	-8735
▁unst	-8736
▁vary	-8737
▁yach	-8738
akespe	-8739
ctural	-8740
orient	-8741
▁2015,	-8742
▁Below	-8743
▁Hange	-8744
▁Hanok	-8745
▁Techn	-8746
▁argue	-8747
▁audit	-8748
▁cycle	-8749
▁discr	-8750
▁drove	-8751
▁etiqu	-8752
▁fired	-8753
▁guild	-8754
▁lasts	-8755
▁panel	-8756
▁patch	-8757
▁roads	-8758
▁shine	-8759
▁snowy	-8760
▁solar	-8761
▁spoke	-8762
▁spray	-8763
▁timid	-8764
▁trick	-8765
▁wings	-8766
gyetang	-8767
▁20,000	-8768
▁Boston	-8769
▁Engine	-8770
▁breast	-8771
▁consol	-8772
▁criter	-8773
▁excite	-8774
▁faults	-8775
▁inject	-8776
▁intend	-8777
▁ladies	-8778
▁loaded	-8779
▁radish	-8780
▁steady	-8781
▁tender	-8782
▁winner	-8783
▁Contact	-8784
▁Frankly	-8785
▁Seopori	-8786
▁Vitamin	-8787
▁adapted	-8788
▁aggress	-8789
▁bulgogi	-8790
▁compuls	-8791
▁crossed	-8792
▁damages	-8793
▁destiny	-8794
▁devoted	-8795
▁existed	-8796
▁focuses	-8797
▁islands	-8798
▁lodging	-8799
▁pancake	-8800
▁persist	-8801
▁pointed	-8802
▁protest	-8803
▁refused	-8804
▁shaking	-8805
▁synergy	-8806
▁trivial	-8807
▁unusual	-8808
▁voucher	-8809
astically	-8810
ationally	-8811
▁Bibimbap	-8812
▁Compared	-8813
▁Dongdaem	-8814
▁Normally	-8815
▁Shakespe	-8816
▁accompan	-8817
▁backpack	-8818
▁cautious	-8819
▁discover	-8820
▁entirely	-8821
▁exposure	-8822
▁eyesight	-8823
▁feminine	-8824
▁freezing	-8825
▁handmade	-8826
▁hotelier	-8827
▁laughter	-8828
▁produces	-8829
▁repaired	-8830
▁traveler	-8831
▁treating	-8832
▁Generally	-8833
▁detective	-8834
▁generated	-8835
▁hardships	-8836
▁indicated	-8837
▁lunchtime	-8838
▁microwave	-8839
▁miserable	-8840
▁movements	-8841
▁overnight	-8842
▁paperwork	-8843
▁realistic	-8844
▁residence	-8845
▁shipments	-8846
▁voluntary	-8847
▁Washington	-8848
▁belongings	-8849
▁compensate	-8850
▁counseling	-8851
▁emphasized	-8852
▁innovative	-8853
▁presenting	-8854
▁researched	-8855
▁restricted	-8856
▁strategies	-8857
▁submitting	-8858
▁supplement	-8859
▁weaknesses	-8860
▁Accordingly	-8861
▁beautifully	-8862
▁description	-8863
▁distributor	-8864
▁enterprises	-8865
▁flexibility	-8866
▁investigate	-8867
▁Additionally	-8868
▁achievements	-8869
▁improvements	-8870
▁satisfactory	-8871
▁technologies	-8872
▁unemployment	-8873
▁simultaneously	-8874
8,	-8875
DA	-8876
bl	-8877
gil	-8878
han	-8879
mel	-8880
ona	-8881
ops	-8882
ums	-8883
wol	-8884
▁8.	-8885
▁Sl	-8886
▁UV	-8887
▁tv	-8888
ella	-8889
enda	-8890
itty	-8891
omin	-8892
roph	-8893
sang	-8894
stra	-8895
udes	-8896
walk	-8897
▁Ann	-8898
▁Dri	-8899
▁Ele	-8900
▁Inf	-8901
▁Jak	-8902
▁Lad	-8903
▁Ong	-8904
▁Pra	-8905
▁Tan	-8906
▁ado	-8907
▁emp	-8908
▁odd	-8909
▁tab	-8910
▁tun	-8911
adong	-8912
athon	-8913
cream	-8914
getic	-8915
inded	-8916
limin	-8917
omnia	-8918
orean	-8919
ulary	-8920
▁2000	-8921
▁Book	-8922
▁Data	-8923
▁Draw	-8924
▁Eiff	-8925
▁Emma	-8926
▁Hold	-8927
▁Long	-8928
▁Nams	-8929
▁Rest	-8930
▁Rich	-8931
▁Rock	-8932
▁Seon	-8933
▁Sher	-8934
▁Wait	-8935
▁aims	-8936
▁bulk	-8937
▁carp	-8938
▁clip	-8939
▁gest	-8940
▁heav	-8941
▁lift	-8942
▁mixt	-8943
▁pear	-8944
▁sust	-8945
▁tire	-8946
arling	-8947
atural	-8948
called	-8949
ensity	-8950
erella	-8951
inding	-8952
worker	-8953
▁Brian	-8954
▁Party	-8955
▁State	-8956
▁brows	-8957
▁chees	-8958
▁clams	-8959
▁coach	-8960
▁dealt	-8961
▁facts	-8962
▁infer	-8963
▁overc	-8964
▁pilot	-8965
▁pores	-8966
▁repet	-8967
▁repro	-8968
▁rises	-8969
▁signs	-8970
▁spect	-8971
▁stack	-8972
▁stain	-8973
▁syrup	-8974
▁texts	-8975
▁twist	-8976
idering	-8977
quarium	-8978
▁Change	-8979
▁Follow	-8980
▁Little	-8981
▁Origin	-8982
▁Social	-8983
▁absorb	-8984
▁border	-8985
▁chores	-8986
▁claims	-8987
▁contem	-8988
▁crispy	-8989
▁dealer	-8990
▁decent	-8991
▁fellow	-8992
▁finals	-8993
▁folder	-8994
▁gloomy	-8995
▁handed	-8996
▁margin	-8997
▁marine	-8998
▁mixing	-8999
▁oldest	-9000
▁onions	-9001
▁parked	-9002
▁pushed	-9003
▁rechar	-9004
▁sketch	-9005
▁spouse	-9006
▁sprout	-9007
▁triang	-9008
▁waking	-9009
▁wasted	-9010
▁whilst	-9011
▁yogurt	-9012
oriented	-9013
▁Chicken	-9014
▁Express	-9015
▁Hangeul	-9016
▁bowling	-9017
▁compete	-9018
▁destroy	-9019
▁dignity	-9020
▁flights	-9021
▁grandpa	-9022
▁harvest	-9023
▁keyword	-9024
▁longest	-9025
▁monster	-9026
▁neglect	-9027
▁obesity	-9028
▁portion	-9029
▁savings	-9030
▁sensors	-9031
▁sunrise	-9032
▁welding	-9033
▁Gyeonggi	-9034
▁Gyeongju	-9035
▁absorbed	-9036
▁agencies	-9037
▁airlines	-9038
▁analyzed	-9039
▁annoying	-9040
▁athletic	-9041
▁boarding	-9042
▁connects	-9043
▁contacts	-9044
▁drawings	-9045
▁indirect	-9046
▁magnific	-9047
▁prelimin	-9048
▁slippery	-9049
▁survival	-9050
ajangmyeon	-9051
▁Basically	-9052
▁affection	-9053
▁appointed	-9054
▁arranging	-9055
▁certified	-9056
▁discontin	-9057
▁passenger	-9058
▁responses	-9059
▁uncertain	-9060
▁conducting	-9061
▁decreasing	-9062
▁estimation	-9063
▁excitement	-9064
▁forgetting	-9065
▁incredibly	-9066
▁originated	-9067
▁progressed	-9068
▁proportion	-9069
▁supervisor	-9070
▁Considering	-9071
▁Shakespeare	-9072
▁association	-9073
▁desperately	-9074
▁expectation	-9075
▁inspiration	-9076
▁instruments	-9077
▁progressing	-9078
▁concentrated	-9079
▁disadvantage	-9080
▁environments	-9081
▁significantly	-9082
▁competitiveness	-9083
BS	-9084
MA	-9085
RE	-9086
fi	-9087
ga	-9088
ja	-9089
asm	-9090
isc	-9091
▁FO	-9092
▁Mi	-9093
▁SK	-9094
▁na	-9095
live	-9096
ller	-9097
onge	-9098
quet	-9099
sung	-9100
▁250	-9101
▁Bit	-9102
▁Bre	-9103
▁Chi	-9104
▁Coc	-9105
▁Cut	-9106
▁Dut	-9107
▁Gil	-9108
▁Non	-9109
▁OEM	-9110
▁Poh	-9111
▁Vol	-9112
▁Yok	-9113
▁aid	-9114
▁bun	-9115
▁eel	-9116
,000.	-9117
ashed	-9118
eding	-9119
erves	-9120
isher	-9121
organ	-9122
overs	-9123
▁Anim	-9124
▁Help	-9125
▁Hosp	-9126
▁Nike	-9127
▁Read	-9128
▁Tour	-9129
▁abol	-9130
▁bone	-9131
▁clar	-9132
▁flav	-9133
▁foam	-9134
▁heal	-9135
▁laug	-9136
▁lion	-9137
▁peak	-9138
▁pipe	-9139
▁pity	-9140
▁rare	-9141
▁seal	-9142
▁spin	-9143
▁twin	-9144
▁ugly	-9145
lasses	-9146
minute	-9147
months	-9148
sticks	-9149
ushing	-9150
▁Drink	-9151
▁Dubai	-9152
▁Night	-9153
▁Smith	-9154
▁bonus	-9155
▁bride	-9156
▁coast	-9157
▁cooks	-9158
▁drain	-9159
▁fiber	-9160
▁grill	-9161
▁invis	-9162
▁jokes	-9163
▁mocha	-9164
▁shiny	-9165
▁slope	-9166
▁twent	-9167
▁vocal	-9168
atching	-9169
inerary	-9170
quently	-9171
workers	-9172
▁Daniel	-9173
▁Econom	-9174
▁Eiffel	-9175
▁Listen	-9176
▁Pohang	-9177
▁attrib	-9178
▁behalf	-9179
▁bitter	-9180
▁brunch	-9181
▁discip	-9182
▁dragon	-9183
▁enjoys	-9184
▁genres	-9185
▁immune	-9186
▁learns	-9187
▁lowest	-9188
▁neatly	-9189
▁resist	-9190
▁rubber	-9191
▁sector	-9192
▁statue	-9193
▁stolen	-9194
▁strive	-9195
▁weapon	-9196
▁wished	-9197
onscious	-9198
▁affairs	-9199
▁citizen	-9200
▁cleaner	-9201
▁differs	-9202
▁drivers	-9203
▁dynamic	-9204
▁earnest	-9205
▁experts	-9206
▁founded	-9207
▁gaining	-9208
▁jogging	-9209
▁jumping	-9210
▁lighter	-9211
▁loading	-9212
▁mixture	-9213
▁mystery	-9214
▁pumpkin	-9215
▁recycle	-9216
▁replies	-9217
▁shortly	-9218
▁steamed	-9219
▁unhappy	-9220
▁wealthy	-9221
▁western	-9222
▁abundant	-9223
▁artworks	-9224
▁basement	-9225
▁captured	-9226
▁chickens	-9227
▁costumes	-9228
▁creation	-9229
▁deciding	-9230
▁develops	-9231
▁enhanced	-9232
▁equality	-9233
▁executed	-9234
▁faithful	-9235
▁homestay	-9236
▁inquired	-9237
▁lighting	-9238
▁pressing	-9239
▁randomly	-9240
▁scissors	-9241
▁struggle	-9242
▁accessory	-9243
▁coworkers	-9244
▁engineers	-9245
▁itinerary	-9246
▁qualified	-9247
▁reporting	-9248
▁subtitles	-9249
▁supplying	-9250
▁Cinderella	-9251
▁comprehens	-9252
▁continuing	-9253
▁loneliness	-9254
▁structural	-9255
▁symbolizes	-9256
▁vocabulary	-9257
▁approximate	-9258
▁researching	-9259
▁notification	-9260
▁demonstration	-9261
AV	-9262
HA	-9263
In	-9264
ey	-9265
yl	-9266
▁,	-9267
bin	-9268
bul	-9269
ees	-9270
equ	-9271
gee	-9272
iac	-9273
ita	-9274
oda	-9275
oph	-9276
osh	-9277
pre	-9278
rid	-9279
ura	-9280
▁Es	-9281
▁Pe	-9282
▁UR	-9283
3001	-9284
Park	-9285
acay	-9286
anes	-9287
asse	-9288
aste	-9289
aved	-9290
doll	-9291
gger	-9292
ords	-9293
rael	-9294
tles	-9295
urry	-9296
▁Bet	-9297
▁Dem	-9298
▁Eve	-9299
▁Fre	-9300
▁Ice	-9301
▁Mag	-9302
▁Rev	-9303
▁Sad	-9304
amsil	-9305
ashes	-9306
bally	-9307
chief	-9308
enses	-9309
erman	-9310
igned	-9311
lands	-9312
lings	-9313
neung	-9314
pered	-9315
rates	-9316
reate	-9317
reeze	-9318
ribed	-9319
rings	-9320
tonio	-9321
▁Camp	-9322
▁Gong	-9323
▁Hist	-9324
▁Lots	-9325
▁YouT	-9326
▁alph	-9327
▁bran	-9328
▁dare	-9329
▁myth	-9330
▁puri	-9331
▁soil	-9332
▁solo	-9333
▁ster	-9334
▁tang	-9335
▁tied	-9336
▁tube	-9337
▁tuna	-9338
▁whis	-9339
▁yoga	-9340
acific	-9341
ankind	-9342
change	-9343
erting	-9344
itions	-9345
itudes	-9346
minded	-9347
▁Beaut	-9348
▁Greek	-9349
▁Liber	-9350
▁Light	-9351
▁Naver	-9352
▁chain	-9353
▁cheek	-9354
▁chips	-9355
▁comic	-9356
▁couch	-9357
▁craft	-9358
▁drugs	-9359
▁exter	-9360
▁faced	-9361
▁fraud	-9362
▁freel	-9363
▁giant	-9364
▁hopes	-9365
▁links	-9366
▁lists	-9367
▁mango	-9368
▁overs	-9369
▁phase	-9370
▁reads	-9371
▁recon	-9372
▁rehab	-9373
▁repay	-9374
▁rural	-9375
▁serum	-9376
▁sorts	-9377
▁theat	-9378
▁tiger	-9379
▁walls	-9380
eration	-9381
itivity	-9382
oration	-9383
▁30,000	-9384
▁Flitto	-9385
▁Israel	-9386
▁Mongol	-9387
▁Prince	-9388
▁Victor	-9389
▁Wouldn	-9390
▁affili	-9391
▁bacter	-9392
▁clinic	-9393
▁fishes	-9394
▁floors	-9395
▁frying	-9396
▁heater	-9397
▁immers	-9398
▁intest	-9399
▁legend	-9400
▁lotion	-9401
▁nurses	-9402
▁oxygen	-9403
▁pedest	-9404
▁resend	-9405
▁robots	-9406
▁senses	-9407
▁swatch	-9408
▁unlock	-9409
distance	-9410
▁Boracay	-9411
▁General	-9412
▁Seattle	-9413
▁bedroom	-9414
▁bubbles	-9415
▁categor	-9416
▁checkup	-9417
▁decides	-9418
▁desired	-9419
▁elected	-9420
▁elegant	-9421
▁ferment	-9422
▁granted	-9423
▁journal	-9424
▁laughed	-9425
▁pulling	-9426
▁refresh	-9427
▁regrets	-9428
▁servant	-9429
▁viewers	-9430
▁wanting	-9431
▁Thinking	-9432
▁acquired	-9433
▁adapting	-9434
▁aquarium	-9435
▁audition	-9436
▁blessing	-9437
▁blooming	-9438
▁bracelet	-9439
▁brochure	-9440
▁commonly	-9441
▁donation	-9442
▁educated	-9443
▁farewell	-9444
▁hangover	-9445
▁heritage	-9446
▁mentally	-9447
▁notified	-9448
▁overcame	-9449
▁porridge	-9450
▁revision	-9451
▁sequence	-9452
▁warranty	-9453
▁wondered	-9454
▁writings	-9455
▁assembled	-9456
▁blueprint	-9457
▁combining	-9458
▁decreases	-9459
▁disasters	-9460
▁distorted	-9461
▁eliminate	-9462
▁encounter	-9463
▁executive	-9464
▁guideline	-9465
▁hamburger	-9466
▁imagining	-9467
▁importing	-9468
▁informing	-9469
▁irritated	-9470
▁necessity	-9471
▁recording	-9472
▁specified	-9473
▁strategic	-9474
▁Foundation	-9475
▁Management	-9476
▁beneficial	-9477
▁capability	-9478
▁celebrated	-9479
▁chocolates	-9480
▁chopsticks	-9481
▁consulting	-9482
▁discharged	-9483
▁guaranteed	-9484
▁identified	-9485
▁inevitable	-9486
▁operations	-9487
▁Engineering	-9488
▁Information	-9489
▁complaining	-9490
▁constructed	-9491
▁handicapped	-9492
▁limitations	-9493
▁magnificent	-9494
▁necessarily	-9495
▁transparent	-9496
▁accidentally	-9497
▁appreciation	-9498
▁entertaining	-9499
▁institutions	-9500
▁restrictions	-9501
▁disappointing	-9502
▁interpretation	-9503
19	-9504
NT	-9505
PO	-9506
RA	-9507
TD	-9508
jj	-9509
jo	-9510
ko	-9511
pm	-9512
200	-9513
ami	-9514
dim	-9515
isa	-9516
iti	-9517
olt	-9518
oot	-9519
rie	-9520
seo	-9521
zel	-9522
▁4,	-9523
▁FC	-9524
▁Ga	-9525
▁Ja	-9526
▁MF	-9527
▁wi	-9528
acon	-9529
flow	-9530
igae	-9531
mart	-9532
rast	-9533
star	-9534
type	-9535
ults	-9536
vity	-9537
whel	-9538
▁197	-9539
▁Gen	-9540
▁Gun	-9541
▁Int	-9542
▁Jis	-9543
▁Mad	-9544
▁Mel	-9545
▁Nep	-9546
▁Sar	-9547
▁Say	-9548
▁Sho	-9549
▁URL	-9550
▁jet	-9551
▁tid	-9552
▁ven	-9553
ecake	-9554
inity	-9555
itzer	-9556
nment	-9557
omous	-9558
osyst	-9559
▁Find	-9560
▁Gate	-9561
▁Geun	-9562
▁Gwan	-9563
▁Iran	-9564
▁Know	-9565
▁Mult	-9566
▁Phys	-9567
▁Plan	-9568
▁Post	-9569
▁Rain	-9570
▁Rice	-9571
▁Team	-9572
▁cozy	-9573
▁ease	-9574
▁flut	-9575
▁gray	-9576
▁hits	-9577
▁meas	-9578
▁skew	-9579
▁torn	-9580
ifying	-9581
▁Beeth	-9582
▁Const	-9583
▁Gover	-9584
▁Hence	-9585
▁Ocean	-9586
▁Stone	-9587
▁adhes	-9588
▁alien	-9589
▁angel	-9590
▁bears	-9591
▁boots	-9592
▁broth	-9593
▁lunar	-9594
▁masks	-9595
▁mosqu	-9596
▁scrat	-9597
▁spite	-9598
▁storm	-9599
▁sunny	-9600
minutes	-9601
section	-9602
theless	-9603
▁Depend	-9604
▁Friend	-9605
▁Humans	-9606
▁Namsan	-9607
▁Office	-9608
▁Online	-9609
▁Sweden	-9610
▁Taking	-9611
▁adoles	-9612
▁agenda	-9613
▁boxing	-9614
▁breeze	-9615
▁carrot	-9616
▁contam	-9617
▁defend	-9618
▁drying	-9619
▁edited	-9620
▁filmed	-9621
▁firmly	-9622
▁inches	-9623
▁labels	-9624
▁layers	-9625
▁losses	-9626
▁poison	-9627
▁rumors	-9628
▁sophom	-9629
▁subsid	-9630
▁tasted	-9631
▁thread	-9632
▁timing	-9633
▁tissue	-9634
▁writes	-9635
culation	-9636
ensional	-9637
ifferent	-9638
inations	-9639
▁Antonio	-9640
▁Austria	-9641
▁Culture	-9642
▁Hongdae	-9643
▁Medical	-9644
▁Mexican	-9645
▁Shouldn	-9646
▁Switzer	-9647
▁Twitter	-9648
▁Wangsan	-9649
▁Working	-9650
▁anticip	-9651
▁blowing	-9652
▁bothers	-9653
▁burdens	-9654
▁cabbage	-9655
▁captain	-9656
▁chapter	-9657
▁collaps	-9658
▁consume	-9659
▁cooling	-9660
▁cousins	-9661
▁deliber	-9662
▁ecosyst	-9663
▁eternal	-9664
▁exagger	-9665
▁exclude	-9666
▁expired	-9667
▁fabrics	-9668
▁highway	-9669
▁hygiene	-9670
▁insects	-9671
▁passive	-9672
▁phrases	-9673
▁picking	-9674
▁prosper	-9675
▁rainbow	-9676
▁sibling	-9677
▁silicon	-9678
▁sustain	-9679
▁vessels	-9680
▁wrongly	-9681
▁Avengers	-9682
▁Catholic	-9683
▁Hospital	-9684
▁Remember	-9685
▁Studying	-9686
▁bibimbap	-9687
▁bothered	-9688
▁calories	-9689
▁disorder	-9690
▁expanded	-9691
▁fountain	-9692
▁infinite	-9693
▁insomnia	-9694
▁meanings	-9695
▁moderate	-9696
▁receiver	-9697
▁siblings	-9698
▁unstable	-9699
▁websites	-9700
▁welcomed	-9701
▁wrapping	-9702
▁Beethoven	-9703
▁committee	-9704
▁creatures	-9705
▁demanding	-9706
▁detergent	-9707
▁discrimin	-9708
▁energetic	-9709
▁housework	-9710
▁invisible	-9711
▁irregular	-9712
▁screening	-9713
▁secretary	-9714
▁selecting	-9715
▁sentiment	-9716
▁souvenirs	-9717
▁violation	-9718
▁Experience	-9719
▁Philippine	-9720
▁categories	-9721
▁cheesecake	-9722
▁contracted	-9723
▁elasticity	-9724
▁innovation	-9725
▁insulation	-9726
▁prevention	-9727
▁suspicious	-9728
▁accumulated	-9729
▁contributed	-9730
▁researchers	-9731
▁discontinued	-9732
▁productivity	-9733
▁authorization	-9734
▁administrative	-9735
ba	-9736
ea	-9737
ui	-9738
SCO	-9739
buk	-9740
gas	-9741
gor	-9742
ham	-9743
ige	-9744
isp	-9745
omi	-9746
pan	-9747
sun	-9748
▁5-	-9749
▁BM	-9750
▁Ev	-9751
▁Gl	-9752
▁Sn	-9753
▁UN	-9754
▁om	-9755
ails	-9756
ards	-9757
arts	-9758
beth	-9759
ckey	-9760
comm	-9761
ione	-9762
irth	-9763
ueen	-9764
▁Bay	-9765
▁Doo	-9766
▁Eas	-9767
▁Emp	-9768
▁Gar	-9769
▁Jim	-9770
▁Lin	-9771
▁Mor	-9772
▁Mrs	-9773
▁OTA	-9774
▁Ton	-9775
▁bio	-9776
▁cuc	-9777
▁dia	-9778
▁dup	-9779
▁lag	-9780
▁nav	-9781
▁rul	-9782
▁sed	-9783
althy	-9784
appro	-9785
block	-9786
hesis	-9787
ifies	-9788
rozen	-9789
seong	-9790
wheat	-9791
▁Alex	-9792
▁Dire	-9793
▁Eliz	-9794
▁Gogh	-9795
▁Jobs	-9796
▁Phot	-9797
▁Prep	-9798
▁Sand	-9799
▁cave	-9800
▁cush	-9801
▁diox	-9802
▁dong	-9803
▁fate	-9804
▁gear	-9805
▁junk	-9806
▁pays	-9807
▁root	-9808
▁ruin	-9809
▁stam	-9810
▁summ	-9811
▁vain	-9812
▁volc	-9813
▁warn	-9814
▁whit	-9815
▁wipe	-9816
▁wont	-9817
apping	-9818
icking	-9819
ortion	-9820
▁Class	-9821
▁Clean	-9822
▁Girls	-9823
▁Going	-9824
▁Ramen	-9825
▁Super	-9826
▁adopt	-9827
▁asset	-9828
▁bones	-9829
▁brill	-9830
▁cared	-9831
▁crown	-9832
▁crypt	-9833
▁cured	-9834
▁enlar	-9835
▁flood	-9836
▁grant	-9837
▁hesit	-9838
▁loses	-9839
▁parad	-9840
▁penet	-9841
▁rings	-9842
▁rival	-9843
▁ships	-9844
▁spell	-9845
▁swing	-9846
▁thumb	-9847
▁unple	-9848
chestra	-9849
imately	-9850
ropical	-9851
▁Academ	-9852
▁Berlin	-9853
▁Corpor	-9854
▁Course	-9855
▁Golden	-9856
▁Hangul	-9857
▁Jamsil	-9858
▁ballet	-9859
▁chairs	-9860
▁contro	-9861
▁copies	-9862
▁cutlet	-9863
▁defeat	-9864
▁depict	-9865
▁distur	-9866
▁majors	-9867
▁melody	-9868
▁merits	-9869
▁proved	-9870
▁ruined	-9871
▁splend	-9872
▁spoken	-9873
▁staffs	-9874
▁stimul	-9875
▁strike	-9876
▁tattoo	-9877
▁weekly	-9878
▁worthy	-9879
atisfied	-9880
▁YouTube	-9881
▁beating	-9882
▁centers	-9883
▁coexist	-9884
▁costume	-9885
▁defects	-9886
▁earning	-9887
▁embassy	-9888
▁enemies	-9889
▁genetic	-9890
▁heavily	-9891
▁honesty	-9892
▁hottest	-9893
▁logical	-9894
▁oranges	-9895
▁pouring	-9896
▁ranking	-9897
▁reduces	-9898
▁shorter	-9899
▁staring	-9900
▁witness	-9901
fortunate	-9902
▁allergic	-9903
▁alliance	-9904
▁attempts	-9905
▁branches	-9906
▁covering	-9907
▁criteria	-9908
▁equipped	-9909
▁freshmen	-9910
▁homeless	-9911
▁inserted	-9912
▁maximize	-9913
▁overwhel	-9914
▁polluted	-9915
▁sacrific	-9916
▁speakers	-9917
▁watermel	-9918
▁Depending	-9919
▁cancelled	-9920
▁democracy	-9921
▁discounts	-9922
▁diversity	-9923
▁economics	-9924
▁expanding	-9925
▁factories	-9926
▁hospitals	-9927
▁indicates	-9928
▁infection	-9929
▁logistics	-9930
▁obviously	-9931
▁permitted	-9932
▁recipient	-9933
▁scratches	-9934
▁undergrad	-9935
▁Manchester	-9936
▁assembling	-9937
▁associated	-9938
▁attendants	-9939
▁blockchain	-9940
▁obligation	-9941
▁sunglasses	-9942
▁worthwhile	-9943
▁Switzerland	-9944
▁electronics	-9945
▁financially	-9946
▁investments	-9947
▁nationality	-9948
▁programming	-9949
▁registering	-9950
▁unfortunate	-9951
▁acquaintance	-9952
▁agricultural	-9953
▁appointments	-9954
▁capabilities	-9955
▁conveniently	-9956
▁prescription	-9957
▁respectively	-9958
▁professionally	-9959
16	-9960
GO	-9961
LL	-9962
OM	-9963
ta	-9964
afe	-9965
aly	-9966
dog	-9967
eun	-9968
ida	-9969
iev	-9970
lee	-9971
oft	-9972
osu	-9973
ped	-9974
▁AR	-9975
▁DC	-9976
▁Gi	-9977
▁Gy	-9978
▁TA	-9979
agen	-9980
angs	-9981
bles	-9982
cond	-9983
corn	-9984
hous	-9985
iser	-9986
izer	-9987
life	-9988
long	-9989
nels	-9990
oses	-9991
zech	-9992
▁1.5	-9993
▁12.	-9994
▁120	-9995
▁123	-9996
▁Ahn	-9997
▁Bat	-9998
▁CMS	-9999
▁Dec	-10000
▁Jen	-10001
▁NVR	-10002
▁Tax	-10003
▁VIP	-10004
▁bin	-10005
▁fog	-10006
▁mal	-10007
▁nic	-10008
▁ses	-10009
▁spo	-10010
▁tut	-10011
abeth	-10012
hours	-10013
hyeon	-10014
imbab	-10015
ipper	-10016
istan	-10017
ivery	-10018
plate	-10019
times	-10020
weeks	-10021
worth	-10022
▁Kimb	-10023
▁Mill	-10024
▁Mins	-10025
▁Mont	-10026
▁Pork	-10027
▁Road	-10028
▁Soju	-10029
▁adds	-10030
▁apps	-10031
▁bars	-10032
▁cram	-10033
▁desp	-10034
▁dism	-10035
▁dock	-10036
▁fame	-10037
▁groc	-10038
▁hood	-10039
▁lung	-10040
▁murd	-10041
▁nons	-10042
▁oily	-10043
▁pier	-10044
▁pigs	-10045
▁proc	-10046
▁slip	-10047
▁soot	-10048
▁sore	-10049
▁tofu	-10050
▁trim	-10051
▁zero	-10052
affold	-10053
screen	-10054
ubborn	-10055
▁Guard	-10056
▁Myung	-10057
▁Rober	-10058
▁Trust	-10059
▁Union	-10060
▁adequ	-10061
▁balls	-10062
▁cafes	-10063
▁cares	-10064
▁cliff	-10065
▁erase	-10066
▁fifth	-10067
▁laser	-10068
▁owned	-10069
▁plain	-10070
▁purif	-10071
▁rooft	-10072
▁shark	-10073
▁slice	-10074
▁trail	-10075
▁yacht	-10076
healthy	-10077
limited	-10078
onsider	-10079
rations	-10080
ructure	-10081
▁Seeing	-10082
▁Spread	-10083
▁awards	-10084
▁backup	-10085
▁buckle	-10086
▁chilly	-10087
▁clouds	-10088
▁colder	-10089
▁convin	-10090
▁eldest	-10091
▁explos	-10092
▁fridge	-10093
▁ghosts	-10094
▁glance	-10095
▁harbor	-10096
▁heated	-10097
▁hockey	-10098
▁hosted	-10099
▁marvel	-10100
▁parade	-10101
▁ribbon	-10102
▁silent	-10103
▁sleeve	-10104
▁stamps	-10105
▁stroll	-10106
▁wisely	-10107
iability	-10108
▁African	-10109
▁Android	-10110
▁Ganghwa	-10111
▁Meeting	-10112
▁Sundays	-10113
▁Support	-10114
▁Wolmido	-10115
▁catches	-10116
▁commute	-10117
▁compact	-10118
▁console	-10119
▁donated	-10120
▁exhibit	-10121
▁grocery	-10122
▁hurting	-10123
▁landing	-10124
▁leaking	-10125
▁painter	-10126
▁physics	-10127
▁roughly	-10128
▁soybean	-10129
▁sweater	-10130
▁Administ	-10131
▁Buddhist	-10132
▁Insadong	-10133
▁Likewise	-10134
▁betrayed	-10135
▁delivers	-10136
▁deserves	-10137
▁exterior	-10138
▁finishes	-10139
▁horrible	-10140
▁indicate	-10141
▁inferior	-10142
▁interval	-10143
▁memorial	-10144
▁minimize	-10145
▁minister	-10146
▁modeling	-10147
▁offended	-10148
▁operates	-10149
▁portable	-10150
▁preserve	-10151
▁resident	-10152
▁scaffold	-10153
▁sympathy	-10154
▁unreason	-10155
ailability	-10156
▁Currently	-10157
▁Elizabeth	-10158
▁activated	-10159
▁applicant	-10160
▁confusing	-10161
▁converted	-10162
▁ecosystem	-10163
▁estimates	-10164
▁etiquette	-10165
▁finalized	-10166
▁fireworks	-10167
▁immediate	-10168
▁inserting	-10169
▁interface	-10170
▁mandatory	-10171
▁marinated	-10172
▁mechanism	-10173
▁negotiate	-10174
▁permanent	-10175
▁positions	-10176
▁preferred	-10177
▁pregnancy	-10178
▁pretended	-10179
▁prettiest	-10180
▁reactions	-10181
▁substance	-10182
▁tiredness	-10183
▁whitening	-10184
▁Government	-10185
▁Indonesian	-10186
▁Industrial	-10187
▁applicable	-10188
▁compulsory	-10189
▁containing	-10190
▁controvers	-10191
▁encouraged	-10192
▁evaluating	-10193
▁greenhouse	-10194
▁intentions	-10195
▁negatively	-10196
▁occupation	-10197
▁opposition	-10198
▁perception	-10199
▁reflection	-10200
▁screenshot	-10201
▁statistics	-10202
▁stretching	-10203
▁submission	-10204
▁unpleasant	-10205
▁calculation	-10206
▁documentary	-10207
▁preliminary	-10208
▁restriction	-10209
▁underground	-10210
▁Nevertheless	-10211
▁civilization	-10212
▁embarrassing	-10213
▁similarities	-10214
▁Gyeongbokgung	-10215
▁acquaintances	-10216
▁compatibility	-10217
▁semiconductor	-10218
▁internationally	-10219
'?	-10220
TC	-10221
oi	-10222
rs	-10223
▁?	-10224
ags	-10225
ghw	-10226
ios	-10227
isk	-10228
log	-10229
nce	-10230
nut	-10231
ody	-10232
oly	-10233
rep	-10234
ros	-10235
ste	-10236
umi	-10237
▁1-	-10238
▁4-	-10239
▁5,	-10240
▁Ap	-10241
▁PI	-10242
▁ST	-10243
athy	-10244
atin	-10245
dern	-10246
eram	-10247
hwan	-10248
icop	-10249
inse	-10250
lesh	-10251
mons	-10252
ogue	-10253
opia	-10254
rary	-10255
ront	-10256
tang	-10257
trip	-10258
wado	-10259
zhou	-10260
▁180	-10261
▁AAA	-10262
▁Bad	-10263
▁Det	-10264
▁Dra	-10265
▁FTA	-10266
▁Hak	-10267
▁Inv	-10268
▁Jam	-10269
▁Las	-10270
▁Log	-10271
▁Mak	-10272
▁Muk	-10273
▁Nor	-10274
▁PDF	-10275
▁Roy	-10276
▁Tor	-10277
▁UNE	-10278
▁Yet	-10279
▁ank	-10280
▁cub	-10281
▁dat	-10282
▁dol	-10283
▁goo	-10284
▁ted	-10285
▁vul	-10286
ckets	-10287
dules	-10288
erals	-10289
grade	-10290
inals	-10291
losed	-10292
ohama	-10293
rants	-10294
umper	-10295
unchy	-10296
▁Arts	-10297
▁Hany	-10298
▁Lead	-10299
▁Prom	-10300
▁auto	-10301
▁bark	-10302
▁bend	-10303
▁bold	-10304
▁bugs	-10305
▁cham	-10306
▁conv	-10307
▁disk	-10308
▁dots	-10309
▁emer	-10310
▁flew	-10311
▁glue	-10312
▁keys	-10313
▁lane	-10314
▁malf	-10315
▁melt	-10316
▁none	-10317
▁palm	-10318
▁poly	-10319
▁refu	-10320
▁soda	-10321
▁synt	-10322
▁trem	-10323
agraph	-10324
making	-10325
pyeong	-10326
rilled	-10327
rolled	-10328
▁43001	-10329
▁Cross	-10330
▁Czech	-10331
▁Excel	-10332
▁Guess	-10333
▁Later	-10334
▁Nepal	-10335
▁Organ	-10336
▁Sleep	-10337
▁Sound	-10338
▁Study	-10339
▁alert	-10340
▁arrow	-10341
▁burst	-10342
▁chili	-10343
▁codes	-10344
▁curse	-10345
▁curve	-10346
▁defic	-10347
▁disin	-10348
▁homes	-10349
▁idols	-10350
▁marsh	-10351
▁messy	-10352
▁mount	-10353
▁occas	-10354
▁packs	-10355
▁param	-10356
▁peach	-10357
▁rocks	-10358
▁sends	-10359
▁surve	-10360
▁tends	-10361
▁timet	-10362
▁trace	-10363
▁tutor	-10364
▁union	-10365
▁valve	-10366
▁wider	-10367
▁yards	-10368
actions	-10369
imeters	-10370
urities	-10371
urrency	-10372
▁Empire	-10373
▁Temple	-10374
▁UNESCO	-10375
▁Unless	-10376
▁argued	-10377
▁broker	-10378
▁comply	-10379
▁config	-10380
▁define	-10381
▁dumped	-10382
▁elders	-10383
▁fright	-10384
▁gloves	-10385
▁judged	-10386
▁kicked	-10387
▁linked	-10388
▁medals	-10389
▁novels	-10390
▁outlet	-10391
▁prosec	-10392
▁rabbit	-10393
▁rating	-10394
▁robber	-10395
▁rolled	-10396
▁sesame	-10397
▁shines	-10398
▁towels	-10399
▁trendy	-10400
▁vendor	-10401
appropri	-10402
lication	-10403
▁Macbeth	-10404
▁Pacific	-10405
▁Windows	-10406
▁advised	-10407
▁amounts	-10408
▁applies	-10409
▁bidding	-10410
▁buttons	-10411
▁cherish	-10412
▁climbed	-10413
▁coupons	-10414
▁density	-10415
▁dioxide	-10416
▁grounds	-10417
▁haircut	-10418
▁hugging	-10419
▁interfe	-10420
▁listens	-10421
▁matched	-10422
▁nowhere	-10423
▁popcorn	-10424
▁revenge	-10425
▁rooftop	-10426
▁scanned	-10427
▁shelter	-10428
▁sources	-10429
▁storing	-10430
▁swallow	-10431
▁therapy	-10432
▁viewing	-10433
boyfriend	-10434
unication	-10435
▁Terminal	-10436
▁Yokohama	-10437
▁activate	-10438
▁brightly	-10439
▁cartoons	-10440
▁chairman	-10441
▁contrast	-10442
▁detected	-10443
▁dispatch	-10444
▁extraord	-10445
▁eyebrows	-10446
▁guardian	-10447
▁ignoring	-10448
▁invested	-10449
▁mosquito	-10450
▁proceeds	-10451
▁promptly	-10452
▁prospect	-10453
▁receives	-10454
▁slippers	-10455
▁sociable	-10456
▁stubborn	-10457
▁tropical	-10458
▁twenties	-10459
▁ultimate	-10460
▁Traveling	-10461
▁brilliant	-10462
▁buckwheat	-10463
▁butterfly	-10464
▁champions	-10465
▁companion	-10466
▁considers	-10467
▁copyright	-10468
▁dedicated	-10469
▁delighted	-10470
▁dumplings	-10471
▁earphones	-10472
▁fragrance	-10473
▁interlock	-10474
▁officials	-10475
▁predicted	-10476
▁resembles	-10477
▁sophomore	-10478
▁travelers	-10479
▁absorption	-10480
▁acceptance	-10481
▁applicants	-10482
▁autonomous	-10483
▁brightness	-10484
▁classified	-10485
▁competitor	-10486
▁distribute	-10487
▁emphasizes	-10488
▁functional	-10489
▁inappropri	-10490
▁meticulous	-10491
▁missionary	-10492
▁promotions	-10493
▁reconsider	-10494
▁acknowledge	-10495
▁appearances	-10496
▁connections	-10497
▁declaration	-10498
▁discussions	-10499
▁observatory	-10500
▁unavailable	-10501
▁acknowledged	-10502
▁availability	-10503
▁considerable	-10504
▁corporations	-10505
▁grandparents	-10506
▁globalization	-10507
▁independently	-10508
▁qualifications	-10509
-4	-10510
22	-10511
25	-10512
56	-10513
ON	-10514
Se	-10515
la	-10516
ns	-10517
tr	-10518
wo	-10519
za	-10520
Min	-10521
ava	-10522
bar	-10523
bro	-10524
pin	-10525
raq	-10526
run	-10527
tem	-10528
tra	-10529
uki	-10530
▁7,	-10531
▁ED	-10532
▁Hu	-10533
▁II	-10534
▁Io	-10535
▁Lu	-10536
▁PU	-10537
▁SD	-10538
▁TT	-10539
▁Ty	-10540
▁Uk	-10541
▁Vi	-10542
ario	-10543
bled	-10544
enic	-10545
keep	-10546
mond	-10547
ople	-10548
size	-10549
tesy	-10550
ulpt	-10551
yong	-10552
▁032	-10553
▁194	-10554
▁Age	-10555
▁FOB	-10556
▁GOC	-10557
▁Jew	-10558
▁Lab	-10559
▁Lib	-10560
▁MCS	-10561
▁Mic	-10562
▁Old	-10563
▁Rub	-10564
▁VAT	-10565
▁Win	-10566
▁bib	-10567
▁cyl	-10568
▁fox	-10569
▁mac	-10570
▁mig	-10571
▁nan	-10572
▁pee	-10573
abase	-10574
ducer	-10575
eries	-10576
ollen	-10577
ordan	-10578
peror	-10579
price	-10580
quest	-10581
unity	-10582
▁ASMR	-10583
▁Dogs	-10584
▁Fire	-10585
▁Iraq	-10586
▁Iron	-10587
▁Lisa	-10588
▁Luck	-10589
▁Mean	-10590
▁Ship	-10591
▁Step	-10592
▁Syst	-10593
▁arom	-10594
▁beds	-10595
▁dies	-10596
▁disg	-10597
▁drow	-10598
▁dyed	-10599
▁gour	-10600
▁kaka	-10601
▁matt	-10602
▁nuts	-10603
▁peel	-10604
▁plus	-10605
▁prob	-10606
▁reck	-10607
▁sout	-10608
▁tomb	-10609
▁vast	-10610
Korean	-10611
active	-10612
anasia	-10613
ashing	-10614
atient	-10615
enders	-10616
gorith	-10617
hedral	-10618
inates	-10619
irable	-10620
lation	-10621
orship	-10622
porary	-10623
umbers	-10624
velope	-10625
▁2013.	-10626
▁Spicy	-10627
▁Vegas	-10628
▁ambul	-10629
▁ceram	-10630
▁crowd	-10631
▁drone	-10632
▁flesh	-10633
▁grasp	-10634
▁lemon	-10635
▁netiz	-10636
▁pairs	-10637
▁patri	-10638
▁pills	-10639
▁pursu	-10640
▁resid	-10641
▁safer	-10642
▁shots	-10643
▁steal	-10644
▁tours	-10645
▁venue	-10646
▁yield	-10647
anguage	-10648
issions	-10649
raction	-10650
writing	-10651
▁Almost	-10652
▁Buddha	-10653
▁Doctor	-10654
▁Edward	-10655
▁Jordan	-10656
▁Making	-10657
▁Secret	-10658
▁banned	-10659
▁cinema	-10660
▁coding	-10661
▁collap	-10662
▁cookie	-10663
▁dining	-10664
▁drawer	-10665
▁genius	-10666
▁greasy	-10667
▁joints	-10668
▁lastly	-10669
▁liking	-10670
▁lively	-10671
▁portra	-10672
▁praise	-10673
▁resche	-10674
▁scream	-10675
▁sculpt	-10676
▁shares	-10677
▁skinny	-10678
▁spider	-10679
▁thrown	-10680
▁treats	-10681
▁uneasy	-10682
▁unpack	-10683
▁warmth	-10684
kerchief	-10685
▁Academy	-10686
▁Bitcoin	-10687
▁Explain	-10688
▁Getting	-10689
▁Mukbang	-10690
▁anxiety	-10691
▁auction	-10692
▁balloon	-10693
▁broaden	-10694
▁couldnt	-10695
▁cushion	-10696
▁decline	-10697
▁derived	-10698
▁edition	-10699
▁educate	-10700
▁engaged	-10701
▁firstly	-10702
▁forming	-10703
▁helicop	-10704
▁heroine	-10705
▁indoors	-10706
▁infants	-10707
▁jackets	-10708
▁largely	-10709
▁lawsuit	-10710
▁miracle	-10711
▁modules	-10712
▁ongoing	-10713
▁pencils	-10714
▁recipes	-10715
▁reinfor	-10716
▁retired	-10717
▁rewards	-10718
▁stamina	-10719
▁swollen	-10720
▁touches	-10721
▁travels	-10722
▁tremend	-10723
▁unavoid	-10724
▁useless	-10725
▁vending	-10726
▁watches	-10727
developed	-10728
forcement	-10729
uthanasia	-10730
▁Cultural	-10731
▁Customer	-10732
▁adoption	-10733
▁arrested	-10734
▁avoiding	-10735
▁boundary	-10736
▁consecut	-10737
▁desserts	-10738
▁diameter	-10739
▁earrings	-10740
▁emailing	-10741
▁employed	-10742
▁humorous	-10743
▁innocent	-10744
▁marathon	-10745
▁mistaken	-10746
▁observed	-10747
▁persuade	-10748
▁presence	-10749
▁recycled	-10750
▁remained	-10751
▁scenario	-10752
▁tomatoes	-10753
▁tutoring	-10754
▁utilized	-10755
▁variable	-10756
▁Americano	-10757
▁Gangneung	-10758
▁Otherwise	-10759
▁addresses	-10760
▁audiences	-10761
▁classmate	-10762
▁collapsed	-10763
▁criticism	-10764
▁departing	-10765
▁endlessly	-10766
▁exception	-10767
▁favorable	-10768
▁formation	-10769
▁freshness	-10770
▁investing	-10771
▁marvelous	-10772
▁memorized	-10773
▁promising	-10774
▁pronounce	-10775
▁regretted	-10776
▁repairing	-10777
▁shipowner	-10778
▁vibration	-10779
▁wandering	-10780
dimensional	-10781
▁Dongdaemun	-10782
▁Originally	-10783
▁authorized	-10784
▁controller	-10785
▁disappears	-10786
▁durability	-10787
▁pretending	-10788
▁reflecting	-10789
▁repetitive	-10790
▁resistance	-10791
▁separation	-10792
▁technician	-10793
▁treatments	-10794
▁vegetarian	-10795
▁Corporation	-10796
▁Pyeongchang	-10797
▁businessman	-10798
▁cooperating	-10799
▁fascinating	-10800
▁intelligent	-10801
▁malfunction	-10802
▁masterpiece	-10803
▁publication	-10804
▁sensitivity	-10805
▁translators	-10806
▁handkerchief	-10807
▁individually	-10808
▁passionately	-10809
▁snowboarding	-10810
▁unreasonable	-10811
▁concentrating	-10812
▁inappropriate	-10813
▁unfortunately	-10814
▁Administration	-10815
.2	-10816
6,	-10817
FP	-10818
OL	-10819
SA	-10820
ml	-10821
sm	-10822
ads	-10823
bay	-10824
duk	-10825
erk	-10826
gic	-10827
hyd	-10828
ico	-10829
ima	-10830
mun	-10831
ols	-10832
osc	-10833
ota	-10834
▁32	-10835
▁LE	-10836
▁Ta	-10837
▁py	-10838
ador	-10839
ania	-10840
arta	-10841
atar	-10842
cium	-10843
coal	-10844
esty	-10845
ford	-10846
gent	-10847
inyl	-10848
izzy	-10849
lers	-10850
lose	-10851
mare	-10852
obia	-10853
owon	-10854
pool	-10855
stal	-10856
stud	-10857
ummy	-10858
vals	-10859
yers	-10860
▁30.	-10861
▁Bur	-10862
▁Dig	-10863
▁Dor	-10864
▁Eat	-10865
▁Ext	-10866
▁GPS	-10867
▁Gan	-10868
▁Hil	-10869
▁Hyo	-10870
▁IoT	-10871
▁MOU	-10872
▁Maj	-10873
▁Map	-10874
▁Nag	-10875
▁Nak	-10876
▁Sag	-10877
▁Sep	-10878
▁aer	-10879
▁gam	-10880
▁mak	-10881
▁nin	-10882
▁tub	-10883
▁wip	-10884
acles	-10885
ggers	-10886
lette	-10887
mails	-10888
ombie	-10889
ppers	-10890
print	-10891
ratic	-10892
ribly	-10893
sided	-10894
▁Asso	-10895
▁Beat	-10896
▁Cost	-10897
▁Eric	-10898
▁Fill	-10899
▁Guys	-10900
▁Main	-10901
▁Mald	-10902
▁Myan	-10903
▁Skin	-10904
▁Stat	-10905
▁Stew	-10906
▁Text	-10907
▁Wash	-10908
▁axis	-10909
▁bump	-10910
▁chin	-10911
▁dual	-10912
▁grey	-10913
▁isol	-10914
▁itch	-10915
▁jazz	-10916
▁kidn	-10917
▁lent	-10918
▁navy	-10919
▁pens	-10920
▁quiz	-10921
▁rash	-10922
▁rear	-10923
▁rect	-10924
▁rust	-10925
▁seas	-10926
▁stem	-10927
▁swit	-10928
▁trap	-10929
▁vest	-10930
▁vice	-10931
▁wars	-10932
omfort	-10933
people	-10934
worthy	-10935
▁2016,	-10936
▁Canad	-10937
▁Champ	-10938
▁Exerc	-10939
▁Gimpo	-10940
▁Jenny	-10941
▁Kyoto	-10942
▁Leave	-10943
▁Model	-10944
▁Price	-10945
▁Visit	-10946
▁alley	-10947
▁ankle	-10948
▁bible	-10949
▁chase	-10950
▁dated	-10951
▁doors	-10952
▁fills	-10953
▁flows	-10954
▁gloss	-10955
▁lease	-10956
▁maker	-10957
▁meter	-10958
▁notar	-10959
▁rumor	-10960
▁seeds	-10961
▁thief	-10962
▁vital	-10963
▁wakes	-10964
agonist	-10965
product	-10966
ressing	-10967
warming	-10968
▁Advert	-10969
▁Compan	-10970
▁Garden	-10971
▁Kyeong	-10972
▁Modern	-10973
▁Muslim	-10974
▁Nether	-10975
▁Number	-10976
▁Safety	-10977
▁Square	-10978
▁attent	-10979
▁boiler	-10980
▁cables	-10981
▁devote	-10982
▁editor	-10983
▁fusion	-10984
▁gladly	-10985
▁healed	-10986
▁humble	-10987
▁hunger	-10988
▁incent	-10989
▁intake	-10990
▁kidney	-10991
▁messed	-10992
▁monkey	-10993
▁oppose	-10994
▁pastor	-10995
▁permit	-10996
▁racism	-10997
▁sevent	-10998
▁stance	-10999
▁steril	-11000
▁sticky	-11001
▁triple	-11002
▁warmly	-11003
riptions	-11004
▁Britain	-11005
▁History	-11006
▁Picture	-11007
▁Prepare	-11008
▁Project	-11009
▁adolesc	-11010
▁bananas	-11011
▁bracket	-11012
▁carrier	-11013
▁cheated	-11014
▁combine	-11015
▁default	-11016
▁dresses	-11017
▁dynasty	-11018
▁failing	-11019
▁farming	-11020
▁flavors	-11021
▁legally	-11022
▁mineral	-11023
▁persons	-11024
▁pottery	-11025
▁praised	-11026
▁restart	-11027
▁snowman	-11028
▁spilled	-11029
▁summary	-11030
▁texting	-11031
▁tightly	-11032
ocurrency	-11033
▁Products	-11034
▁Research	-11035
▁Watching	-11036
▁aviation	-11037
▁channels	-11038
▁departed	-11039
▁gestures	-11040
▁incurred	-11041
▁oriental	-11042
▁pancakes	-11043
▁politely	-11044
▁possibly	-11045
▁postcard	-11046
▁producer	-11047
▁quitting	-11048
▁reminded	-11049
▁resulted	-11050
▁rewarded	-11051
▁sneakers	-11052
▁sprinkle	-11053
▁wireless	-11054
▁Chuncheon	-11055
▁Following	-11056
▁Institute	-11057
▁Southeast	-11058
▁accompany	-11059
▁attitudes	-11060
▁candidate	-11061
▁concluded	-11062
▁crosswalk	-11063
▁describes	-11064
▁exercised	-11065
▁injection	-11066
▁interfere	-11067
▁measuring	-11068
▁modifying	-11069
▁occasions	-11070
▁partially	-11071
▁secondary	-11072
▁sentenced	-11073
▁timetable	-11074
▁unlimited	-11075
▁Foreigners	-11076
▁Personally	-11077
▁Regardless	-11078
▁Samgyetang	-11079
▁acceptable	-11080
▁criticized	-11081
▁customized	-11082
▁decorating	-11083
▁discomfort	-11084
▁hesitation	-11085
▁horizontal	-11086
▁overlapped	-11087
▁programmer	-11088
▁psychology	-11089
▁publishing	-11090
▁ridiculous	-11091
▁scientists	-11092
▁substances	-11093
▁systematic	-11094
▁ultimately	-11095
▁volunteers	-11096
▁withdrawal	-11097
▁Development	-11098
▁broadcasted	-11099
▁controlling	-11100
▁destruction	-11101
▁exhibitions	-11102
▁orientation	-11103
▁unconscious	-11104
▁conservative	-11105
▁entertainers	-11106
▁explanations	-11107
▁strawberries	-11108
▁subscription	-11109
▁transactions	-11110
▁collaboration	-11111
▁extraordinary	-11112
▁possibilities	-11113
▁undergraduate	-11114
▁differentiated	-11115
35	-11116
75	-11117
Do	-11118
600	-11119
800	-11120
aeb	-11121
agu	-11122
awa	-11123
chu	-11124
dge	-11125
eno	-11126
fol	-11127
gye	-11128
hin	-11129
igm	-11130
jam	-11131
lay	-11132
ris	-11133
tar	-11134
tub	-11135
uba	-11136
urd	-11137
xic	-11138
yeo	-11139
yon	-11140
▁48	-11141
▁55	-11142
▁6-	-11143
▁75	-11144
▁Ae	-11145
▁BI	-11146
▁Ba	-11147
▁CG	-11148
▁DD	-11149
▁HD	-11150
▁SE	-11151
▁SH	-11152
HAAD	-11153
acco	-11154
amun	-11155
atsu	-11156
away	-11157
bone	-11158
code	-11159
deok	-11160
keys	-11161
okka	-11162
oret	-11163
park	-11164
rawn	-11165
roke	-11166
site	-11167
stan	-11168
stop	-11169
▁130	-11170
▁196	-11171
▁700	-11172
▁BTS	-11173
▁Bon	-11174
▁Box	-11175
▁CRD	-11176
▁Die	-11177
▁ETD	-11178
▁Eth	-11179
▁Fig	-11180
▁ICO	-11181
▁Joo	-11182
▁OSD	-11183
▁PCN	-11184
▁Pur	-11185
▁Rad	-11186
▁Rom	-11187
▁Ten	-11188
▁Top	-11189
▁Toy	-11190
▁Tri	-11191
▁Ver	-11192
▁Yuk	-11193
▁bee	-11194
▁fib	-11195
▁gau	-11196
▁gay	-11197
▁gel	-11198
▁pip	-11199
▁pir	-11200
▁rip	-11201
▁unw	-11202
aping	-11203
comes	-11204
erate	-11205
iders	-11206
inery	-11207
lined	-11208
merce	-11209
olmes	-11210
oodle	-11211
ooled	-11212
plays	-11213
shine	-11214
▁Bong	-11215
▁Dist	-11216
▁Girl	-11217
▁Hand	-11218
▁Inte	-11219
▁Math	-11220
▁Mina	-11221
▁Minh	-11222
▁Mink	-11223
▁Pass	-11224
▁Rose	-11225
▁Tech	-11226
▁abst	-11227
▁aged	-11228
▁agon	-11229
▁arro	-11230
▁bake	-11231
▁brew	-11232
▁brow	-11233
▁drum	-11234
▁inju	-11235
▁knit	-11236
▁lace	-11237
▁mock	-11238
▁mole	-11239
▁mort	-11240
▁narr	-11241
▁outs	-11242
▁shif	-11243
▁swam	-11244
▁tens	-11245
▁tidy	-11246
▁vine	-11247
▁wool	-11248
abetes	-11249
aching	-11250
aneous	-11251
ansori	-11252
icians	-11253
ighter	-11254
olitan	-11255
ysters	-11256
▁4,000	-11257
▁Alice	-11258
▁Billy	-11259
▁Cheol	-11260
▁Coast	-11261
▁Color	-11262
▁Guang	-11263
▁Pract	-11264
▁Pusan	-11265
▁Refer	-11266
▁Royal	-11267
▁THAAD	-11268
▁Treat	-11269
▁Yeosu	-11270
▁aimed	-11271
▁antib	-11272
▁arise	-11273
▁awful	-11274
▁barbe	-11275
▁billi	-11276
▁cents	-11277
▁clips	-11278
▁crops	-11279
▁debit	-11280
▁fails	-11281
▁grave	-11282
▁idiot	-11283
▁inher	-11284
▁knees	-11285
▁landl	-11286
▁mails	-11287
▁mater	-11288
▁melts	-11289
▁monop	-11290
▁parks	-11291
▁rearr	-11292
▁rites	-11293
▁saves	-11294
▁scope	-11295
▁sheep	-11296
▁silly	-11297
▁slide	-11298
▁sword	-11299
▁uncon	-11300
▁vinyl	-11301
▁witch	-11302
comings	-11303
gorithm	-11304
itative	-11305
llywood	-11306
ologist	-11307
urchase	-11308
▁Cambod	-11309
▁Frozen	-11310
▁Hilton	-11311
▁Living	-11312
▁Martin	-11313
▁Photos	-11314
▁affair	-11315
▁aiming	-11316
▁alumin	-11317
▁amazed	-11318
▁calmly	-11319
▁correl	-11320
▁discon	-11321
▁drives	-11322
▁kitten	-11323
▁pickup	-11324
▁pillar	-11325
▁planes	-11326
▁plates	-11327
▁poetry	-11328
▁profic	-11329
▁proves	-11330
▁puzzle	-11331
▁racial	-11332
▁reluct	-11333
▁reveal	-11334
▁sticks	-11335
▁stones	-11336
▁subord	-11337
▁tables	-11338
▁traged	-11339
▁turkey	-11340
▁typing	-11341
▁uncond	-11342
▁vulner	-11343
▁waiter	-11344
▁wastes	-11345
ountered	-11346
▁Beatles	-11347
▁Denmark	-11348
▁Eastern	-11349
▁Hanyang	-11350
▁Islamic	-11351
▁Kingdom	-11352
▁Luckily	-11353
▁Myanmar	-11354
▁Someday	-11355
▁Special	-11356
▁William	-11357
▁accepts	-11358
▁candies	-11359
▁carries	-11360
▁charity	-11361
▁cheerle	-11362
▁chopped	-11363
▁compass	-11364
▁ethical	-11365
▁fifteen	-11366
▁figured	-11367
▁fitting	-11368
▁gourmet	-11369
▁hunting	-11370
▁infring	-11371
▁lowered	-11372
▁massive	-11373
▁murdere	-11374
▁omitted	-11375
▁periods	-11376
▁placing	-11377
▁planets	-11378
▁removal	-11379
▁suppose	-11380
▁tallest	-11381
▁violate	-11382
roduction	-11383
▁Director	-11384
▁Material	-11385
▁Physical	-11386
▁adequate	-11387
▁allowing	-11388
▁attacked	-11389
▁bacteria	-11390
▁blocking	-11391
▁careless	-11392
▁crossing	-11393
▁database	-11394
▁displays	-11395
▁dumpling	-11396
▁envelope	-11397
▁exceeded	-11398
▁exported	-11399
▁globally	-11400
▁hardware	-11401
▁injuries	-11402
▁interrup	-11403
▁keyboard	-11404
▁lipstick	-11405
▁literary	-11406
▁pursuing	-11407
▁scanning	-11408
▁southern	-11409
▁splendid	-11410
▁starving	-11411
▁stepping	-11412
▁stopping	-11413
▁teenager	-11414
▁terribly	-11415
▁triangle	-11416
▁Companies	-11417
▁Ganghwado	-11418
▁Meanwhile	-11419
▁alcoholic	-11420
▁appealing	-11421
▁cathedral	-11422
▁competing	-11423
▁criticize	-11424
▁dependent	-11425
▁desperate	-11426
▁deviation	-11427
▁directors	-11428
▁examining	-11429
▁exporting	-11430
▁forwarded	-11431
▁intensity	-11432
▁literally	-11433
▁nightmare	-11434
▁otherwise	-11435
▁realizing	-11436
▁releasing	-11437
▁scattered	-11438
▁spiritual	-11439
▁stressful	-11440
▁suspected	-11441
▁unhealthy	-11442
▁universal	-11443
▁waterfall	-11444
▁Revolution	-11445
▁aggressive	-11446
▁committing	-11447
▁complement	-11448
▁executives	-11449
▁harmonious	-11450
▁households	-11451
▁limitation	-11452
▁memorizing	-11453
▁optimistic	-11454
▁prescribed	-11455
▁recruiting	-11456
▁structures	-11457
▁sympathize	-11458
▁watermelon	-11459
▁backgrounds	-11460
▁backpacking	-11461
▁demonstrate	-11462
▁encountered	-11463
▁exclusively	-11464
▁integration	-11465
▁problematic	-11466
▁specializes	-11467
▁volunteered	-11468
▁Construction	-11469
▁advantageous	-11470
▁confidential	-11471
▁economically	-11472
▁investigated	-11473
▁occasionally	-11474
▁preciousness	-11475
▁shortcomings	-11476
▁administrator	-11477
▁modifications	-11478
▁presentations	-11479
▁supplementary	-11480
▁technological	-11481
▁authentication	-11482
▁congratulations	-11483
-9	-11484
.,	-11485
31	-11486
FC	-11487
cs	-11488
bie	-11489
bur	-11490
bus	-11491
cal	-11492
ias	-11493
jac	-11494
lon	-11495
pei	-11496
ref	-11497
see	-11498
sex	-11499
uan	-11500
▁99	-11501
▁DM	-11502
▁DV	-11503
▁EU	-11504
▁Ni	-11505
▁UI	-11506
▁km	-11507
ando	-11508
arer	-11509
dest	-11510
elve	-11511
fest	-11512
iens	-11513
loin	-11514
mido	-11515
olli	-11516
onto	-11517
osan	-11518
othy	-11519
paid	-11520
plus	-11521
rine	-11522
step	-11523
tech	-11524
▁Dom	-11525
▁EOS	-11526
▁ETA	-11527
▁Eel	-11528
▁Ell	-11529
▁Emb	-11530
▁Est	-11531
▁Ham	-11532
▁Imp	-11533
▁Kar	-11534
▁Nut	-11535
▁Ora	-11536
▁PPT	-11537
▁Pan	-11538
▁Pop	-11539
▁Rio	-11540
▁Tim	-11541
▁ego	-11542
▁gig	-11543
▁han	-11544
▁inh	-11545
▁pou	-11546
▁vel	-11547
▁vit	-11548
aceut	-11549
ander	-11550
chery	-11551
field	-11552
ingly	-11553
lying	-11554
ondae	-11555
orini	-11556
orney	-11557
orous	-11558
paper	-11559
ppong	-11560
rylic	-11561
▁4100	-11562
▁Asse	-11563
▁Ball	-11564
▁Cher	-11565
▁Copy	-11566
▁Deok	-11567
▁Film	-11568
▁Fish	-11569
▁Holy	-11570
▁Live	-11571
▁Matt	-11572
▁Maze	-11573
▁Save	-11574
▁Seor	-11575
▁Soup	-11576
▁Tong	-11577
▁Trad	-11578
▁Wish	-11579
▁ants	-11580
▁bunk	-11581
▁carn	-11582
▁fart	-11583
▁fert	-11584
▁frag	-11585
▁holy	-11586
▁iced	-11587
▁jail	-11588
▁obey	-11589
▁pace	-11590
▁pole	-11591
▁puzz	-11592
▁rays	-11593
▁shed	-11594
▁tide	-11595
▁unch	-11596
▁vari	-11597
▁waff	-11598
▁wors	-11599
ainted	-11600
encing	-11601
insula	-11602
intage	-11603
luding	-11604
mbling	-11605
vessel	-11606
▁2012.	-11607
▁Agree	-11608
▁Cheer	-11609
▁Emily	-11610
▁Hanoi	-11611
▁Hwang	-11612
▁Kwang	-11613
▁Marie	-11614
▁Minho	-11615
▁Nobel	-11616
▁Peter	-11617
▁Sales	-11618
▁Saudi	-11619
▁Story	-11620
▁Swiss	-11621
▁Times	-11622
▁Youth	-11623
▁abbre	-11624
▁align	-11625
▁alloc	-11626
▁capsu	-11627
▁dizzy	-11628
▁dolph	-11629
▁engra	-11630
▁fence	-11631
▁flaws	-11632
▁forty	-11633
▁glory	-11634
▁grape	-11635
▁guilt	-11636
▁heels	-11637
▁imper	-11638
▁latte	-11639
▁malls	-11640
▁manne	-11641
▁miles	-11642
▁monet	-11643
▁navig	-11644
▁picky	-11645
▁plent	-11646
▁recre	-11647
▁rescu	-11648
▁rinse	-11649
▁scarf	-11650
▁scuba	-11651
▁setup	-11652
▁shelf	-11653
▁sized	-11654
▁spark	-11655
▁steam	-11656
▁veter	-11657
emption	-11658
isition	-11659
lasting	-11660
measure	-11661
ometers	-11662
respons	-11663
▁Awards	-11664
▁Create	-11665
▁Doosan	-11666
▁Holmes	-11667
▁Milano	-11668
▁Oracle	-11669
▁Orange	-11670
▁Sample	-11671
▁System	-11672
▁accent	-11673
▁agents	-11674
▁bullet	-11675
▁carpet	-11676
▁clause	-11677
▁enable	-11678
▁enters	-11679
▁ethics	-11680
▁expend	-11681
▁folded	-11682
▁hiring	-11683
▁hotdog	-11684
▁insult	-11685
▁laying	-11686
▁limits	-11687
▁misses	-11688
▁nerves	-11689
▁pillow	-11690
▁portal	-11691
▁pounds	-11692
▁powers	-11693
▁prepar	-11694
▁priest	-11695
▁promin	-11696
▁retrie	-11697
▁shaped	-11698
▁sights	-11699
▁slaves	-11700
▁solely	-11701
▁spices	-11702
▁sponge	-11703
▁struck	-11704
▁suburb	-11705
▁turtle	-11706
▁weaker	-11707
▁worlds	-11708
esthetic	-11709
▁Anyways	-11710
▁Bucheon	-11711
▁Bulgogi	-11712
▁Digital	-11713
▁Gwanghw	-11714
▁Jakarta	-11715
▁Mondays	-11716
▁Univers	-11717
▁abandon	-11718
▁acrylic	-11719
▁adapter	-11720
▁assault	-11721
▁assumed	-11722
▁avoided	-11723
▁awarded	-11724
▁bathtub	-11725
▁beaches	-11726
▁bitcoin	-11727
▁calcium	-11728
▁classic	-11729
▁constra	-11730
▁disgust	-11731
▁electro	-11732
▁emperor	-11733
▁equally	-11734
▁exceeds	-11735
▁flowing	-11736
▁frankly	-11737
▁glitter	-11738
▁imitate	-11739
▁listing	-11740
▁loyalty	-11741
▁martial	-11742
▁mileage	-11743
▁prepaid	-11744
▁pressed	-11745
▁reaches	-11746
▁renting	-11747
▁restore	-11748
▁reunion	-11749
▁reverse	-11750
▁rolling	-11751
▁steward	-11752
▁stylish	-11753
▁tangled	-11754
▁terrace	-11755
▁trigger	-11756
▁unclear	-11757
▁venture	-11758
▁volcano	-11759
▁writers	-11760
aceutical	-11761
ropolitan	-11762
▁Cambodia	-11763
▁Language	-11764
▁Northern	-11765
▁Southern	-11766
▁Teachers	-11767
▁attracts	-11768
▁barbeque	-11769
▁champion	-11770
▁coloring	-11771
▁comforts	-11772
▁compound	-11773
▁conclude	-11774
▁cucumber	-11775
▁diabetes	-11776
▁directed	-11777
▁disposal	-11778
▁distract	-11779
▁dividing	-11780
▁dropping	-11781
▁formally	-11782
▁humanity	-11783
▁joyfully	-11784
▁keywords	-11785
▁magician	-11786
▁meantime	-11787
▁networks	-11788
▁outdoors	-11789
▁reflects	-11790
▁revising	-11791
▁sticking	-11792
▁suggests	-11793
▁updating	-11794
▁workload	-11795
▁Hollywood	-11796
▁ambulance	-11797
▁ancestral	-11798
▁chemistry	-11799
▁diagnosis	-11800
▁disinfect	-11801
▁emoticons	-11802
▁gentleman	-11803
▁innocence	-11804
▁instantly	-11805
▁integrate	-11806
▁interrupt	-11807
▁introvert	-11808
▁orchestra	-11809
▁paragraph	-11810
▁plentiful	-11811
▁provision	-11812
▁religions	-11813
▁rewarding	-11814
▁summarize	-11815
▁suspended	-11816
▁targeting	-11817
▁Especially	-11818
▁Tteokbokki	-11819
▁biological	-11820
▁cellphones	-11821
▁challenged	-11822
▁corruption	-11823
▁developers	-11824
▁dispatched	-11825
▁ecological	-11826
▁exhausting	-11827
▁guidelines	-11828
▁indirectly	-11829
▁relaxation	-11830
▁reschedule	-11831
▁statements	-11832
▁struggling	-11833
▁substitute	-11834
▁tremendous	-11835
▁accompanied	-11836
▁butterflies	-11837
▁categorized	-11838
▁celebration	-11839
▁centimeters	-11840
▁consecutive	-11841
▁consolation	-11842
▁cooperative	-11843
▁intensively	-11844
▁observation	-11845
▁prosecution	-11846
▁protagonist	-11847
▁stereotypes	-11848
▁unavoidable	-11849
▁unification	-11850
▁constitution	-11851
▁contribution	-11852
▁experimental	-11853
▁fermentation	-11854
▁translations	-11855
▁effectiveness	-11856
▁accomplishment	-11857
▁countermeasure	-11858
.?	-11859
14	-11860
78	-11861
89	-11862
AC	-11863
AM	-11864
CD	-11865
EB	-11866
EP	-11867
NA	-11868
ni	-11869
sa	-11870
001	-11871
aby	-11872
agi	-11873
cco	-11874
dep	-11875
dol	-11876
hae	-11877
hoe	-11878
inc	-11879
joo	-11880
lls	-11881
ono	-11882
ppy	-11883
top	-11884
vil	-11885
you	-11886
▁95	-11887
▁AC	-11888
▁AD	-11889
▁Ey	-11890
▁Lo	-11891
▁PS	-11892
▁SP	-11893
▁Sk	-11894
apor	-11895
bike	-11896
cake	-11897
chae	-11898
comp	-11899
eled	-11900
ends	-11901
five	-11902
gium	-11903
heon	-11904
kind	-11905
loss	-11906
nori	-11907
odes	-11908
ping	-11909
rang	-11910
real	-11911
show	-11912
tage	-11913
utin	-11914
west	-11915
zard	-11916
▁10,	-11917
▁11.	-11918
▁195	-11919
▁20.	-11920
▁Amy	-11921
▁Boy	-11922
▁Buk	-11923
▁Cra	-11924
▁Dak	-11925
▁Els	-11926
▁Env	-11927
▁Fif	-11928
▁Gap	-11929
▁Gym	-11930
▁Inn	-11931
▁Jok	-11932
▁NAS	-11933
▁Nar	-11934
▁Pet	-11935
▁Sor	-11936
▁gro	-11937
▁gum	-11938
▁mas	-11939
▁nom	-11940
▁org	-11941
▁pap	-11942
▁pud	-11943
▁rug	-11944
▁toe	-11945
▁unt	-11946
achel	-11947
agers	-11948
ament	-11949
atsby	-11950
break	-11951
cript	-11952
emark	-11953
inawa	-11954
isers	-11955
isive	-11956
onald	-11957
plete	-11958
quent	-11959
range	-11960
uated	-11961
▁Andy	-11962
▁Bali	-11963
▁Beef	-11964
▁Card	-11965
▁Conc	-11966
▁Down	-11967
▁Drop	-11968
▁Farm	-11969
▁Hans	-11970
▁Hill	-11971
▁Jean	-11972
▁Joon	-11973
▁Judy	-11974
▁Kind	-11975
▁Lake	-11976
▁Lear	-11977
▁Milk	-11978
▁Patt	-11979
▁Room	-11980
▁Sapp	-11981
▁Ueno	-11982
▁Vide	-11983
▁Visa	-11984
▁Wear	-11985
▁Wifi	-11986
▁Wood	-11987
▁ache	-11988
▁amen	-11989
▁bomb	-11990
▁bust	-11991
▁buzz	-11992
▁cogn	-11993
▁deck	-11994
▁dict	-11995
▁ende	-11996
▁fork	-11997
▁gang	-11998
▁garn	-11999
▁glow	-12000
▁hose	-12001
▁hunt	-12002
▁inex	-12003
▁neut	-12004
▁prey	-12005
▁puff	-12006
▁quar	-12007
▁rehe	-12008
▁sail	-12009
▁sate	-12010
▁sixt	-12011
▁smal	-12012
▁spam	-12013
▁tumb	-12014
▁vibe	-12015
arkets	-12016
atical	-12017
broken	-12018
erving	-12019
flight	-12020
iances	-12021
imming	-12022
izzard	-12023
ndrome	-12024
orders	-12025
ousine	-12026
regard	-12027
verted	-12028
▁2017,	-12029
▁Ansan	-12030
▁Avoid	-12031
▁Berke	-12032
▁Chall	-12033
▁Charl	-12034
▁Click	-12035
▁Dutch	-12036
▁Frank	-12037
▁Heung	-12038
▁Hokka	-12039
▁Liter	-12040
▁Liver	-12041
▁Major	-12042
▁Minji	-12043
▁Sadly	-12044
▁Stand	-12045
▁Sujin	-12046
▁boast	-12047
▁breed	-12048
▁burnt	-12049
▁cheat	-12050
▁choir	-12051
▁conce	-12052
▁debts	-12053
▁disgu	-12054
▁domin	-12055
▁draws	-12056
▁drill	-12057
▁firms	-12058
▁flame	-12059
▁frank	-12060
▁hasty	-12061
▁ignor	-12062
▁logic	-12063
▁metap	-12064
▁olive	-12065
▁pains	-12066
▁prost	-12067
▁punct	-12068
▁risky	-12069
▁scrap	-12070
▁steep	-12071
▁unint	-12072
▁wrist	-12073
apanese	-12074
fulness	-12075
inction	-12076
isingly	-12077
itarian	-12078
quences	-12079
reprene	-12080
ritious	-12081
uration	-12082
▁15,000	-12083
▁Adults	-12084
▁Consum	-12085
▁Figure	-12086
▁Flight	-12087
▁Gatsby	-12088
▁Juliet	-12089
▁Koreas	-12090
▁Norway	-12091
▁Police	-12092
▁Robert	-12093
▁Select	-12094
▁Seorak	-12095
▁Studio	-12096
▁Viking	-12097
▁absurd	-12098
▁astron	-12099
▁bumped	-12100
▁charms	-12101
▁coated	-12102
▁dental	-12103
▁eleven	-12104
▁exting	-12105
▁extrem	-12106
▁grapes	-12107
▁havent	-12108
▁hectic	-12109
▁jumped	-12110
▁loudly	-12111
▁melted	-12112
▁needle	-12113
▁polish	-12114
▁poorly	-12115
▁poured	-12116
▁purple	-12117
▁shrink	-12118
▁societ	-12119
▁stuffy	-12120
▁thirst	-12121
▁topped	-12122
▁upside	-12123
▁viewed	-12124
▁voices	-12125
▁warmer	-12126
▁zombie	-12127
ervation	-12128
▁Animals	-12129
▁Belgium	-12130
▁Contest	-12131
▁Cooking	-12132
▁Install	-12133
▁Kanglim	-12134
▁Knowing	-12135
▁Okinawa	-12136
▁Request	-12137
▁Sapporo	-12138
▁Several	-12139
▁Tonight	-12140
▁Toronto	-12141
▁Tourism	-12142
▁airmail	-12143
▁attacks	-12144
▁bearing	-12145
▁browser	-12146
▁cheered	-12147
▁cleared	-12148
▁credits	-12149
▁crunchy	-12150
▁curtain	-12151
▁diagram	-12152
▁disasse	-12153
▁distant	-12154
▁durable	-12155
▁enlight	-12156
▁envious	-12157
▁execute	-12158
▁farmers	-12159
▁folding	-12160
▁imports	-12161
▁justice	-12162
▁kingdom	-12163
▁matured	-12164
▁natives	-12165
▁outline	-12166
▁outlook	-12167
▁oysters	-12168
▁passage	-12169
▁railway	-12170
▁rehabil	-12171
▁renewed	-12172
▁reorder	-12173
▁restock	-12174
▁secured	-12175
▁shallow	-12176
▁sleeves	-12177
▁smokers	-12178
▁startup	-12179
▁suffers	-12180
▁vicious	-12181
▁vintage	-12182
▁winners	-12183
ependence	-12184
istically	-12185
prisingly	-12186
▁Canadian	-12187
▁Changwon	-12188
▁Delivery	-12189
▁Exchange	-12190
▁Hokkaido	-12191
▁Mongolia	-12192
▁Sherlock	-12193
▁Transfer	-12194
▁Victoria	-12195
▁Wherever	-12196
▁accuracy	-12197
▁advances	-12198
▁alphabet	-12199
▁aluminum	-12200
▁arrogant	-12201
▁assorted	-12202
▁backside	-12203
▁bankrupt	-12204
▁bicycles	-12205
▁charcoal	-12206
▁cheating	-12207
▁checkout	-12208
▁clinical	-12209
▁collapse	-12210
▁comeback	-12211
▁companys	-12212
▁controls	-12213
▁coughing	-12214
▁courtesy	-12215
▁cylinder	-12216
▁deducted	-12217
▁defeated	-12218
▁devotion	-12219
▁emphasis	-12220
▁floating	-12221
▁historic	-12222
▁hydrogen	-12223
▁instinct	-12224
▁intimate	-12225
▁isolated	-12226
▁mattress	-12227
▁minerals	-12228
▁missions	-12229
▁netizens	-12230
▁reaching	-12231
▁remitted	-12232
▁smallest	-12233
▁socially	-12234
▁sunblock	-12235
▁sunshine	-12236
▁trillion	-12237
▁weakened	-12238
▁Santorini	-12239
▁Taiwanese	-12240
▁algorithm	-12241
▁childcare	-12242
▁expertise	-12243
▁extracted	-12244
▁eyelashes	-12245
▁fortunate	-12246
▁fulfilled	-12247
▁graduates	-12248
▁impatient	-12249
▁inspected	-12250
▁locations	-12251
▁medicines	-12252
▁musicians	-12253
▁preserved	-12254
▁refreshed	-12255
▁replacing	-12256
▁responded	-12257
▁supporter	-12258
▁trademark	-12259
▁viewpoint	-12260
▁welcoming	-12261
▁withdrawn	-12262
responsible	-12263
▁apartments	-12264
▁apologized	-12265
▁approached	-12266
▁carelessly	-12267
▁complained	-12268
▁conscience	-12269
▁consultant	-12270
▁delightful	-12271
▁disability	-12272
▁disconnect	-12273
▁euthanasia	-12274
▁guarantees	-12275
▁immigrants	-12276
▁medication	-12277
▁recommends	-12278
▁regretting	-12279
▁stereotype	-12280
▁stimulates	-12281
▁structured	-12282
▁suggesting	-12283
▁supporters	-12284
▁transition	-12285
▁Netherlands	-12286
▁calculating	-12287
▁coincidence	-12288
▁comparative	-12289
▁controversy	-12290
▁correlation	-12291
▁hardworking	-12292
▁hospitality	-12293
▁installment	-12294
▁reliability	-12295
▁sustainable	-12296
▁troublesome	-12297
▁trustworthy	-12298
▁utilization	-12299
▁championship	-12300
▁conventional	-12301
▁establishing	-12302
▁negotiations	-12303
▁sufficiently	-12304
▁supermarkets	-12305
▁transmission	-12306
▁encouragement	-12307
▁cryptocurrency	-12308
▁systematically	-12309
45	-12310
EN	-12311
ES	-12312
RI	-12313
SC	-12314
Wh	-12315
zu	-12316
900	-12317
auc	-12318
can	-12319
due	-12320
eor	-12321
flo	-12322
got	-12323
hea	-12324
iju	-12325
oom	-12326
pay	-12327
rav	-12328
sik	-12329
sol	-12330
uty	-12331
uxe	-12332
▁8,	-12333
▁85	-12334
▁AW	-12335
▁CF	-12336
▁EC	-12337
▁Er	-12338
▁FW	-12339
▁IM	-12340
▁KT	-12341
▁Kn	-12342
▁SS	-12343
▁kg	-12344
▁ud	-12345
acqu	-12346
aire	-12347
arel	-12348
burn	-12349
ergy	-12350
fire	-12351
fuci	-12352
gain	-12353
gees	-12354
have	-12355
juku	-12356
lant	-12357
lept	-12358
mbly	-12359
oked	-12360
onze	-12361
ooth	-12362
orke	-12363
pret	-12364
quin	-12365
seok	-12366
shin	-12367
soon	-12368
tuce	-12369
usal	-12370
wife	-12371
zone	-12372
▁Aud	-12373
▁Bae	-12374
▁Bok	-12375
▁Buy	-12376
▁Cap	-12377
▁Cir	-12378
▁Cos	-12379
▁DVD	-12380
▁Dam	-12381
▁Geo	-12382
▁Gye	-12383
▁Hun	-12384
▁Imm	-12385
▁Jer	-12386
▁LOT	-12387
▁Leg	-12388
▁Max	-12389
▁Mok	-12390
▁Nan	-12391
▁Ret	-12392
▁Ryu	-12393
▁SAP	-12394
▁SPA	-12395
▁TVI	-12396
▁Too	-12397
▁UCC	-12398
▁Way	-12399
▁abr	-12400
▁alt	-12401
▁apt	-12402
▁asc	-12403
▁bru	-12404
▁cha	-12405
▁cul	-12406
▁max	-12407
▁que	-12408
▁slo	-12409
▁spy	-12410
▁tan	-12411
▁zom	-12412
amboo	-12413
amous	-12414
asaki	-12415
chers	-12416
ciety	-12417
gical	-12418
girls	-12419
ierce	-12420
kerel	-12421
oline	-12422
olved	-12423
owers	-12424
raged	-12425
raine	-12426
riers	-12427
roads	-12428
segae	-12429
storm	-12430
unken	-12431
uster	-12432
ville	-12433
watch	-12434
yster	-12435
▁2010	-12436
▁3000	-12437
▁Alph	-12438
▁Band	-12439
▁Bean	-12440
▁Carn	-12441
▁Chap	-12442
▁Club	-12443
▁Code	-12444
▁Fine	-12445
▁Five	-12446
▁Geum	-12447
▁Lego	-12448
▁Mars	-12449
▁Mini	-12450
▁Nurs	-12451
▁Pole	-12452
▁Prin	-12453
▁Town	-12454
▁Turk	-12455
▁Wasn	-12456
▁Wire	-12457
▁Yeou	-12458
▁anch	-12459
▁bees	-12460
▁bent	-12461
▁clam	-12462
▁cuts	-12463
▁dump	-12464
▁feas	-12465
▁gard	-12466
▁guns	-12467
▁inch	-12468
▁nurt	-12469
▁owns	-12470
▁scal	-12471
acular	-12472
alysis	-12473
antern	-12474
arrhea	-12475
avored	-12476
celona	-12477
cheong	-12478
endant	-12479
flower	-12480
geolli	-12481
ildong	-12482
istant	-12483
keeper	-12484
prints	-12485
ulnori	-12486
▁2014,	-12487
▁2018.	-12488
▁Apart	-12489
▁Block	-12490
▁Break	-12491
▁Brown	-12492
▁Cream	-12493
▁Dowon	-12494
▁Galbi	-12495
▁Haven	-12496
▁Istan	-12497
▁Jinju	-12498
▁Latin	-12499
▁Media	-12500
▁Memor	-12501
▁Opera	-12502
▁Plaza	-12503
▁Table	-12504
▁alike	-12505
▁aston	-12506
▁bland	-12507
▁chron	-12508
▁clerk	-12509
▁creep	-12510
▁cries	-12511
▁depri	-12512
▁depth	-12513
▁dodge	-12514
▁fatal	-12515
▁fluct	-12516
▁gains	-12517
▁herbs	-12518
▁loyal	-12519
▁march	-12520
▁mercy	-12521
▁monit	-12522
▁nerve	-12523
▁noble	-12524
▁perce	-12525
▁piled	-12526
▁pione	-12527
▁pleas	-12528
▁polar	-12529
▁query	-12530
▁ranks	-12531
▁roses	-12532
▁scall	-12533
▁shade	-12534
▁snake	-12535
▁spill	-12536
▁stove	-12537
▁tales	-12538
▁teddy	-12539
▁unity	-12540
▁vague	-12541
▁whale	-12542
amppong	-12543
illance	-12544
keeping	-12545
verance	-12546
▁Asians	-12547
▁Chanel	-12548
▁Contin	-12549
▁Forget	-12550
▁Gimbap	-12551
▁Inside	-12552
▁Philip	-12553
▁Portug	-12554
▁Public	-12555
▁Search	-12556
▁Sundae	-12557
▁Taipei	-12558
▁analog	-12559
▁assass	-12560
▁assure	-12561
▁bumper	-12562
▁bungee	-12563
▁candle	-12564
▁closes	-12565
▁cooler	-12566
▁danced	-12567
▁dances	-12568
▁drones	-12569
▁fights	-12570
▁geomet	-12571
▁guided	-12572
▁hacked	-12573
▁impuls	-12574
▁induce	-12575
▁interm	-12576
▁lacked	-12577
▁ladder	-12578
▁locker	-12579
▁merely	-12580
▁motive	-12581
▁prayer	-12582
▁prints	-12583
▁ramens	-12584
▁rapper	-12585
▁robbed	-12586
▁routes	-12587
▁salted	-12588
▁sewing	-12589
▁shirts	-12590
▁skirts	-12591
▁spends	-12592
▁summit	-12593
▁sweets	-12594
▁terrif	-12595
▁theres	-12596
▁united	-12597
▁voting	-12598
▁zipper	-12599
appiness	-12600
engmyeon	-12601
▁Article	-12602
▁Confirm	-12603
▁Confuci	-12604
▁Darling	-12605
▁Friends	-12606
▁Kangrim	-12607
▁Library	-12608
▁Pattaya	-12609
▁Running	-12610
▁Society	-12611
▁Success	-12612
▁apparel	-12613
▁archery	-12614
▁bathing	-12615
▁bookshe	-12616
▁bullied	-12617
▁burgers	-12618
▁chamber	-12619
▁compose	-12620
▁comprom	-12621
▁contrad	-12622
▁declare	-12623
▁dismiss	-12624
▁drunken	-12625
▁english	-12626
▁excuses	-12627
▁freshly	-12628
▁hallway	-12629
▁handles	-12630
▁infrast	-12631
▁judging	-12632
▁lifting	-12633
▁longing	-12634
▁mailbox	-12635
▁mankind	-12636
▁melting	-12637
▁monkeys	-12638
▁museums	-12639
▁opposed	-12640
▁posters	-12641
▁privile	-12642
▁refrain	-12643
▁removes	-12644
▁renewal	-12645
▁scratch	-12646
▁secrets	-12647
▁sponsor	-12648
▁sprouts	-12649
▁strings	-12650
▁substit	-12651
▁tragedy	-12652
▁twisted	-12653
▁utility	-12654
▁vendors	-12655
▁vinegar	-12656
▁voltage	-12657
▁wheelch	-12658
▁whereas	-12659
▁whiskey	-12660
▁zombies	-12661
ationship	-12662
condition	-12663
▁Assembly	-12664
▁Berkeley	-12665
▁Buddhism	-12666
▁Drinking	-12667
▁Istanbul	-12668
▁Maldives	-12669
▁Marriage	-12670
▁Security	-12671
▁Suncheon	-12672
▁abrasion	-12673
▁aircraft	-12674
▁bleeding	-12675
▁bloggers	-12676
▁cellular	-12677
▁circular	-12678
▁clicking	-12679
▁concepts	-12680
▁convince	-12681
▁dialogue	-12682
▁diarrhea	-12683
▁enclosed	-12684
▁generate	-12685
▁hundreds	-12686
▁incoming	-12687
▁incorpor	-12688
▁lowering	-12689
▁marrying	-12690
▁merchand	-12691
▁millions	-12692
▁monsters	-12693
▁muscular	-12694
▁nonsense	-12695
▁northern	-12696
▁portions	-12697
▁portrait	-12698
▁prosecut	-12699
▁receipts	-12700
▁referred	-12701
▁relieves	-12702
▁seawater	-12703
▁trusting	-12704
▁vitality	-12705
▁Barcelona	-12706
▁Listening	-12707
▁Liverpool	-12708
▁academies	-12709
▁amenities	-12710
▁chemicals	-12711
▁convinced	-12712
▁counterfe	-12713
▁endurance	-12714
▁evaluated	-12715
▁exchanges	-12716
▁extending	-12717
▁optimized	-12718
▁overslept	-12719
▁particles	-12720
▁placement	-12721
▁prevented	-12722
▁prominent	-12723
▁proposals	-12724
▁regretful	-12725
▁sensation	-12726
▁spotlight	-12727
▁stainless	-12728
▁stretched	-12729
▁sunscreen	-12730
▁thousands	-12731
▁tolerance	-12732
▁typically	-12733
▁vacations	-12734
▁Christians	-12735
▁Disneyland	-12736
▁Myeongdong	-12737
▁Restaurant	-12738
▁accumulate	-12739
▁burdensome	-12740
▁candidates	-12741
▁correcting	-12742
▁determines	-12743
▁entreprene	-12744
▁fascinated	-12745
▁healthcare	-12746
▁incomplete	-12747
▁inevitably	-12748
▁kilometers	-12749
▁microphone	-12750
▁networking	-12751
▁nutritious	-12752
▁researches	-12753
▁responding	-12754
▁stewardess	-12755
▁straighten	-12756
▁traditions	-12757
▁undergoing	-12758
▁vulnerable	-12759
▁Association	-12760
▁Traditional	-12761
▁collaborate	-12762
▁compliments	-12763
▁deliciously	-12764
▁distinctive	-12765
▁emotionally	-12766
▁girlfriends	-12767
▁influential	-12768
▁interacting	-12769
▁negotiating	-12770
▁salesperson	-12771
▁sentimental	-12772
▁vaccination	-12773
▁Surprisingly	-12774
▁competitions	-12775
▁disappearing	-12776
▁preparations	-12777
▁unexpectedly	-12778
▁documentation	-12779
▁individuality	-12780
▁intentionally	-12781
▁irresponsible	-12782
▁professionals	-12783
▁infrastructure	-12784
▁unconditionally	-12785
-3	-12786
17	-12787
21	-12788
28	-12789
29	-12790
65	-12791
90	-12792
BM	-12793
CA	-12794
EA	-12795
FL	-12796
LE	-12797
dd	-12798
fr	-12799
fw	-12800
ERS	-12801
aba	-12802
abi	-12803
aus	-12804
cca	-12805
cus	-12806
dam	-12807
deg	-12808
del	-12809
don	-12810
gos	-12811
icc	-12812
ksa	-12813
lif	-12814
net	-12815
ole	-12816
pat	-12817
rey	-12818
suk	-12819
vas	-12820
yan	-12821
▁33	-12822
▁38	-12823
▁6,	-12824
▁65	-12825
▁9,	-12826
▁AL	-12827
▁FA	-12828
▁HA	-12829
▁Ka	-12830
▁Ko	-12831
▁MD	-12832
▁SW	-12833
▁TC	-12834
▁Ui	-12835
▁VF	-12836
▁Wo	-12837
▁ox	-12838
arin	-12839
ashi	-12840
aton	-12841
bour	-12842
cade	-12843
city	-12844
conf	-12845
dess	-12846
dium	-12847
edia	-12848
exas	-12849
fare	-12850
fits	-12851
geum	-12852
ghan	-12853
hers	-12854
icul	-12855
inch	-12856
irit	-12857
isan	-12858
isms	-12859
jean	-12860
otes	-12861
ples	-12862
shot	-12863
turn	-12864
viet	-12865
week	-12866
wook	-12867
▁10-	-12868
▁110	-12869
▁190	-12870
▁220	-12871
▁Ang	-12872
▁Bib	-12873
▁Dip	-12874
▁Egg	-12875
▁Ess	-12876
▁Eul	-12877
▁Eur	-12878
▁Fix	-12879
▁Hen	-12880
▁Mix	-12881
▁Mur	-12882
▁Pak	-12883
▁SAR	-12884
▁Sab	-12885
▁Sok	-12886
▁Wow	-12887
▁Yeo	-12888
▁Yun	-12889
▁aur	-12890
▁nag	-12891
▁pec	-12892
▁raz	-12893
▁reb	-12894
▁ric	-12895
▁unp	-12896
▁ups	-12897
▁vom	-12898
▁zip	-12899
Brown	-12900
Jeong	-12901
agull	-12902
andal	-12903
aning	-12904
astle	-12905
azaar	-12906
bacco	-12907
blems	-12908
chiev	-12909
eroom	-12910
erver	-12911
floor	-12912
fting	-12913
guksa	-12914
icked	-12915
ingsu	-12916
iolet	-12917
level	-12918
likes	-12919
olite	-12920
oyang	-12921
ranet	-12922
rophy	-12923
study	-12924
uliar	-12925
zzare	-12926
▁2013	-12927
▁Barb	-12928
▁Bell	-12929
▁Care	-12930
▁Cats	-12931
▁Dang	-12932
▁Desc	-12933
▁Elsa	-12934
▁Flor	-12935
▁Geor	-12936
▁Grad	-12937
▁Hiro	-12938
▁Imag	-12939
▁Insa	-12940
▁Lily	-12941
▁Mand	-12942
▁Olle	-12943
▁Pool	-12944
▁Pull	-12945
▁Soph	-12946
▁Tanz	-12947
▁Tree	-12948
▁Walt	-12949
▁blew	-12950
▁bulb	-12951
▁buys	-12952
▁cans	-12953
▁chim	-12954
▁clay	-12955
▁cope	-12956
▁derm	-12957
▁diff	-12958
▁dirt	-12959
▁dull	-12960
▁frog	-12961
▁gamb	-12962
▁gast	-12963
▁germ	-12964
▁glac	-12965
▁glam	-12966
▁hats	-12967
▁hors	-12968
▁iPad	-12969
▁impr	-12970
▁inac	-12971
▁intr	-12972
▁lawn	-12973
▁maps	-12974
▁masc	-12975
▁noun	-12976
▁pean	-12977
▁ramp	-12978
▁rebu	-12979
▁shat	-12980
▁tact	-12981
▁taek	-12982
▁ties	-12983
▁topp	-12984
▁tune	-12985
▁unim	-12986
▁verb	-12987
▁wolf	-12988
▁yarn	-12989
bidden	-12990
elsius	-12991
ermaid	-12992
ersion	-12993
ieties	-12994
ijuana	-12995
ilians	-12996
itated	-12997
locity	-12998
mallow	-12999
orious	-13000
ounder	-13001
season	-13002
ulsion	-13003
weight	-13004
▁2012,	-13005
▁Amore	-13006
▁Count	-13007
▁Creat	-13008
▁Fifth	-13009
▁Force	-13010
▁Grace	-13011
▁Hyatt	-13012
▁Minsu	-13013
▁Obama	-13014
▁Order	-13015
▁Pharm	-13016
▁Power	-13017
▁Roman	-13018
▁Romeo	-13019
▁Sarah	-13020
▁Share	-13021
▁Sinpo	-13022
▁Susan	-13023
▁Texas	-13024
▁Touch	-13025
▁Tteok	-13026
▁Users	-13027
▁alter	-13028
▁blink	-13029
▁blows	-13030
▁conve	-13031
▁crabs	-13032
▁crews	-13033
▁devil	-13034
▁fifty	-13035
▁freak	-13036
▁gauge	-13037
▁hears	-13038
▁icons	-13039
▁inval	-13040
▁legis	-13041
▁lotus	-13042
▁macar	-13043
▁mayor	-13044
▁motel	-13045
▁nicer	-13046
▁perse	-13047
▁prime	-13048
▁purse	-13049
▁races	-13050
▁relay	-13051
▁resin	-13052
▁retro	-13053
▁roots	-13054
▁rugby	-13055
▁sixth	-13056
▁snail	-13057
▁specs	-13058
▁stiff	-13059
▁sweep	-13060
▁trous	-13061
▁wasnt	-13062
▁witty	-13063
▁youve	-13064
angered	-13065
itorium	-13066
ustomed	-13067
utinous	-13068
▁Castle	-13069
▁Cheese	-13070
▁Church	-13071
▁Invest	-13072
▁Junior	-13073
▁Justin	-13074
▁Marvel	-13075
▁Matild	-13076
▁Purito	-13077
▁Rachel	-13078
▁Resort	-13079
▁Simply	-13080
▁Valley	-13081
▁aliens	-13082
▁bitten	-13083
▁bronze	-13084
▁burned	-13085
▁curved	-13086
▁delays	-13087
▁denied	-13088
▁expose	-13089
▁farmer	-13090
▁fierce	-13091
▁fooled	-13092
▁ginger	-13093
▁grader	-13094
▁grains	-13095
▁greets	-13096
▁guides	-13097
▁helmet	-13098
▁holder	-13099
▁hugged	-13100
▁inline	-13101
▁logged	-13102
▁noises	-13103
▁paints	-13104
▁prayed	-13105
▁preced	-13106
▁priced	-13107
▁rested	-13108
▁rivers	-13109
▁runner	-13110
▁sacred	-13111
▁satell	-13112
▁savory	-13113
▁shoots	-13114
▁snorke	-13115
▁soaked	-13116
▁solves	-13117
▁squash	-13118
▁sundae	-13119
▁surviv	-13120
▁tanger	-13121
▁teased	-13122
▁traces	-13123
▁tunnel	-13124
▁utmost	-13125
▁ventil	-13126
▁warned	-13127
▁wounds	-13128
breaking	-13129
chievous	-13130
etically	-13131
zzarella	-13132
▁Arirang	-13133
▁Cheonan	-13134
▁Dorothy	-13135
▁Gildong	-13136
▁Jackson	-13137
▁Leaders	-13138
▁Muslims	-13139
▁Namdong	-13140
▁Program	-13141
▁Richard	-13142
▁Somehow	-13143
▁Turkish	-13144
▁Valjean	-13145
▁Welfare	-13146
▁allergy	-13147
▁amended	-13148
▁amongst	-13149
▁barcode	-13150
▁battles	-13151
▁biology	-13152
▁careers	-13153
▁casting	-13154
▁ceramic	-13155
▁congest	-13156
▁courier	-13157
▁despair	-13158
▁dragged	-13159
▁emerged	-13160
▁enlarge	-13161
▁escaped	-13162
▁fathers	-13163
▁females	-13164
▁fiction	-13165
▁fullest	-13166
▁funding	-13167
▁grabbed	-13168
▁gravity	-13169
▁lettuce	-13170
▁magical	-13171
▁manages	-13172
▁minimal	-13173
▁neutral	-13174
▁offices	-13175
▁parting	-13176
▁pickled	-13177
▁prayers	-13178
▁recital	-13179
▁reconst	-13180
▁refunds	-13181
▁regener	-13182
▁rehears	-13183
▁rescued	-13184
▁sailing	-13185
▁seeking	-13186
▁shorten	-13187
▁shouted	-13188
▁slipped	-13189
▁spoiled	-13190
▁styling	-13191
▁tapping	-13192
▁tasting	-13193
▁thunder	-13194
▁transit	-13195
▁trapped	-13196
▁undergo	-13197
▁wounded	-13198
atization	-13199
▁Cheongju	-13200
▁Heritage	-13201
▁Industry	-13202
▁Minkyung	-13203
▁Movement	-13204
▁Swimming	-13205
▁abstract	-13206
▁adhesive	-13207
▁airports	-13208
▁ambition	-13209
▁aptitude	-13210
▁believes	-13211
▁cleanser	-13212
▁colleges	-13213
▁colonial	-13214
▁composer	-13215
▁conveyed	-13216
▁coverage	-13217
▁creature	-13218
▁deceived	-13219
▁declined	-13220
▁emission	-13221
▁enrolled	-13222
▁episodes	-13223
▁equation	-13224
▁featured	-13225
▁forehead	-13226
▁geograph	-13227
▁graceful	-13228
▁graphics	-13229
▁homeroom	-13230
▁immersed	-13231
▁infringe	-13232
▁instruct	-13233
▁landlord	-13234
▁licenses	-13235
▁manpower	-13236
▁monetary	-13237
▁musicals	-13238
▁mutually	-13239
▁operator	-13240
▁packaged	-13241
▁railroad	-13242
▁recharge	-13243
▁refugees	-13244
▁releases	-13245
▁respects	-13246
▁salesman	-13247
▁sausages	-13248
▁severely	-13249
▁shortcut	-13250
▁speeding	-13251
▁spelling	-13252
▁stealing	-13253
▁suitcase	-13254
▁symbolic	-13255
▁telecomm	-13256
▁tiresome	-13257
▁tolerate	-13258
▁toppings	-13259
▁troubled	-13260
▁velocity	-13261
▁warehous	-13262
girlfriend	-13263
▁Agreement	-13264
▁Beautiful	-13265
▁Challenge	-13266
▁Guangzhou	-13267
▁Malaysian	-13268
▁Marketing	-13269
▁Moonlight	-13270
▁Recommend	-13271
▁Shinsegae	-13272
▁Universal	-13273
▁amendment	-13274
▁arguments	-13275
▁ballpoint	-13276
▁believing	-13277
▁blackhead	-13278
▁comforted	-13279
▁consuming	-13280
▁countless	-13281
▁cultivate	-13282
▁desirable	-13283
▁directory	-13284
▁disregard	-13285
▁investors	-13286
▁limousine	-13287
▁logically	-13288
▁maintains	-13289
▁mentoring	-13290
▁messaging	-13291
▁obstacles	-13292
▁obtaining	-13293
▁platforms	-13294
▁policeman	-13295
▁purchaser	-13296
▁radiation	-13297
▁recession	-13298
▁satisfies	-13299
▁stimulate	-13300
▁taekwondo	-13301
▁terrorism	-13302
▁textbooks	-13303
▁upgrading	-13304
▁variables	-13305
▁Literature	-13306
▁accustomed	-13307
▁affordable	-13308
▁appliances	-13309
▁auditorium	-13310
▁capitalism	-13311
▁economical	-13312
▁eliminated	-13313
▁endangered	-13314
▁engagement	-13315
▁enrollment	-13316
▁equipments	-13317
▁generosity	-13318
▁glittering	-13319
▁helicopter	-13320
▁meditation	-13321
▁pleasantly	-13322
▁protective	-13323
▁references	-13324
▁sacrificed	-13325
▁subjective	-13326
▁subsidiary	-13327
▁underwater	-13328
▁Gwanghwamun	-13329
▁accelerated	-13330
▁agriculture	-13331
▁circulation	-13332
▁counterfeit	-13333
▁downloading	-13334
▁forgiveness	-13335
▁frustrating	-13336
▁heartbroken	-13337
▁incorrectly	-13338
▁introverted	-13339
▁mischievous	-13340
▁probability	-13341
▁promotional	-13342
▁recruitment	-13343
▁spectacular	-13344
▁threatening	-13345
▁communicates	-13346
▁consequences	-13347
▁intersection	-13348
▁representing	-13349
▁architectural	-13350
▁determination	-13351
▁distinguished	-13352
▁homosexuality	-13353
▁illustrations	-13354
▁rehabilitation	-13355
▁recommendations	-13356
,'	-13357
13	-13358
43	-13359
67	-13360
95	-13361
??	-13362
Bl	-13363
EL	-13364
Gu	-13365
IV	-13366
MD	-13367
PM	-13368
PP	-13369
hu	-13370
oe	-13371
00,	-13372
POP	-13373
bag	-13374
eda	-13375
enh	-13376
gho	-13377
nas	-13378
oga	-13379
osa	-13380
rob	-13381
rug	-13382
sam	-13383
sho	-13384
uku	-13385
uma	-13386
uto	-13387
war	-13388
▁37	-13389
▁63	-13390
▁Ce	-13391
▁DJ	-13392
▁HS	-13393
▁HW	-13394
▁IU	-13395
▁Ir	-13396
▁Mt	-13397
▁ON	-13398
▁Ow	-13399
▁PL	-13400
▁PT	-13401
▁Py	-13402
▁pd	-13403
Seok	-13404
airy	-13405
alle	-13406
amph	-13407
anic	-13408
aple	-13409
arry	-13410
bear	-13411
chun	-13412
cons	-13413
cuss	-13414
deed	-13415
ders	-13416
ears	-13417
emin	-13418
engu	-13419
eric	-13420
exam	-13421
fill	-13422
hill	-13423
inat	-13424
ista	-13425
itas	-13426
ivil	-13427
lamm	-13428
nity	-13429
nuts	-13430
omas	-13431
onde	-13432
otte	-13433
oust	-13434
qual	-13435
slee	-13436
toon	-13437
tube	-13438
wash	-13439
wind	-13440
▁13.	-13441
▁2.5	-13442
▁ATM	-13443
▁DDP	-13444
▁Dal	-13445
▁Dar	-13446
▁Def	-13447
▁Dol	-13448
▁Edd	-13449
▁Esc	-13450
▁Ire	-13451
▁KBS	-13452
▁MCP	-13453
▁Mao	-13454
▁Mem	-13455
▁Mer	-13456
▁Mis	-13457
▁Moo	-13458
▁Mud	-13459
▁OST	-13460
▁Oak	-13461
▁Oil	-13462
▁Opp	-13463
▁Rib	-13464
▁Sug	-13465
▁TTF	-13466
▁Tak	-13467
▁Vin	-13468
▁Viv	-13469
▁Yan	-13470
▁asp	-13471
▁cav	-13472
▁hid	-13473
▁iOS	-13474
▁lin	-13475
▁pix	-13476
▁vig	-13477
▁xxx	-13478
agoda	-13479
ateur	-13480
athan	-13481
bling	-13482
cific	-13483
depth	-13484
folio	-13485
galbi	-13486
gence	-13487
gener	-13488
guard	-13489
guksu	-13490
heung	-13491
imony	-13492
izard	-13493
maker	-13494
nings	-13495
osing	-13496
vable	-13497
▁1234	-13498
▁1500	-13499
▁2012	-13500
▁Arch	-13501
▁Army	-13502
▁Auto	-13503
▁Base	-13504
▁Bory	-13505
▁Cafe	-13506
▁Coca	-13507
▁Coco	-13508
▁Dark	-13509
▁Dave	-13510
▁Fair	-13511
▁Gand	-13512
▁Host	-13513
▁Kate	-13514
▁Mall	-13515
▁Mask	-13516
▁Mass	-13517
▁Mine	-13518
▁Moro	-13519
▁Noel	-13520
▁Pour	-13521
▁Prov	-13522
▁Rece	-13523
▁Scot	-13524
▁Wars	-13525
▁bart	-13526
▁beta	-13527
▁brut	-13528
▁bund	-13529
▁cens	-13530
▁clue	-13531
▁coal	-13532
▁cong	-13533
▁crop	-13534
▁echo	-13535
▁eras	-13536
▁hers	-13537
▁irre	-13538
▁keen	-13539
▁lact	-13540
▁lamb	-13541
▁leap	-13542
▁ling	-13543
▁nour	-13544
▁pent	-13545
▁poop	-13546
▁sins	-13547
▁sled	-13548
▁soak	-13549
▁tart	-13550
▁tear	-13551
▁tran	-13552
▁udon	-13553
▁ultr	-13554
▁urge	-13555
▁ward	-13556
▁wing	-13557
▁worm	-13558
Donald	-13559
aptain	-13560
charge	-13561
clable	-13562
design	-13563
ducers	-13564
ection	-13565
etchup	-13566
finals	-13567
formed	-13568
ispens	-13569
kewarm	-13570
mentia	-13571
pieces	-13572
presso	-13573
rained	-13574
romagn	-13575
stream	-13576
undang	-13577
▁Broad	-13578
▁Court	-13579
▁Democ	-13580
▁Falls	-13581
▁Guide	-13582
▁Jiwon	-13583
▁Louis	-13584
▁Merry	-13585
▁Miche	-13586
▁Moist	-13587
▁Multi	-13588
▁Orion	-13589
▁Polar	-13590
▁Silla	-13591
▁Spend	-13592
▁Theme	-13593
▁Throw	-13594
▁Video	-13595
▁Woman	-13596
▁aches	-13597
▁advis	-13598
▁arena	-13599
▁bonds	-13600
▁calib	-13601
▁civic	-13602
▁crash	-13603
▁deeds	-13604
▁deplo	-13605
▁desks	-13606
▁downs	-13607
▁dread	-13608
▁eleph	-13609
▁energ	-13610
▁firef	-13611
▁flute	-13612
▁forum	-13613
▁globe	-13614
▁grind	-13615
▁haird	-13616
▁hence	-13617
▁hoped	-13618
▁hyper	-13619
▁hypot	-13620
▁indec	-13621
▁inexp	-13622
▁initi	-13623
▁kilog	-13624
▁latex	-13625
▁liver	-13626
▁login	-13627
▁meats	-13628
▁naive	-13629
▁pamph	-13630
▁panor	-13631
▁paras	-13632
▁pouch	-13633
▁prank	-13634
▁punch	-13635
▁redes	-13636
▁reloc	-13637
▁risks	-13638
▁sampl	-13639
▁shook	-13640
▁sings	-13641
▁spont	-13642
▁squad	-13643
▁squee	-13644
▁teens	-13645
▁tempt	-13646
▁tense	-13647
▁urine	-13648
▁viral	-13649
▁voted	-13650
▁woods	-13651
assador	-13652
autions	-13653
cerning	-13654
ignific	-13655
ishment	-13656
ivalent	-13657
largest	-13658
million	-13659
rencies	-13660
through	-13661
vention	-13662
▁Agency	-13663
▁Around	-13664
▁Asiana	-13665
▁Cherry	-13666
▁Chrome	-13667
▁Goyang	-13668
▁Jewish	-13669
▁Ladies	-13670
▁Munich	-13671
▁Prague	-13672
▁Remove	-13673
▁Season	-13674
▁Sokcho	-13675
▁Window	-13676
▁albums	-13677
▁banner	-13678
▁bazaar	-13679
▁boards	-13680
▁buried	-13681
▁cargos	-13682
▁carton	-13683
▁cheeks	-13684
▁cheers	-13685
▁clever	-13686
▁copied	-13687
▁coward	-13688
▁darker	-13689
▁dermat	-13690
▁devast	-13691
▁employ	-13692
▁engage	-13693
▁errand	-13694
▁ethnic	-13695
▁exempt	-13696
▁exotic	-13697
▁fiance	-13698
▁frames	-13699
▁freeze	-13700
▁garage	-13701
▁harass	-13702
▁hotter	-13703
▁humane	-13704
▁incomp	-13705
▁lineup	-13706
▁lining	-13707
▁lowers	-13708
▁magnet	-13709
▁maniac	-13710
▁organs	-13711
▁postal	-13712
▁proven	-13713
▁provin	-13714
▁purity	-13715
▁reader	-13716
▁resign	-13717
▁rushed	-13718
▁scored	-13719
▁selfie	-13720
▁sleeps	-13721
▁slices	-13722
▁themes	-13723
▁toothp	-13724
▁tracks	-13725
▁trades	-13726
▁tragic	-13727
▁traine	-13728
▁trophy	-13729
▁twelve	-13730
▁unused	-13731
▁upward	-13732
▁varies	-13733
▁widget	-13734
building	-13735
centered	-13736
speaking	-13737
tempered	-13738
▁Alright	-13739
▁Between	-13740
▁Celsius	-13741
▁Feeling	-13742
▁Florida	-13743
▁Ireland	-13744
▁Liberty	-13745
▁Manager	-13746
▁Matilda	-13747
▁Nursing	-13748
▁Oakland	-13749
▁Plastic	-13750
▁Talking	-13751
▁Ukraine	-13752
[...]
